{"<pad>":0,"<sos>":1,"<eos>":2,"<unk>":3,"!":4,"\"":5,"#":6,"$":7,"%":8,"&":9,"'":10,"(":11,")":12,"*":13,"+":14,",":15,"-":16,".":17,"/":18,"0":19,"1":20,"2":21,"3":22,"4":23,"5":24,"6":25,"7":26,"8":27,"9":28,":":29,";":30,"<":31,"=":32,">":33,"?":34,"@":35,"A":36,"B":37,"C":38,"D":39,"E":40,"F":41,"G":42,"H":43,"I":44,"J":45,"K":46,"L":47,"M":48,"N":49,"O":50,"P":51,"Q":52,"R":53,"S":54,"T":55,"U":56,"V":57,"W":58,"X":59,"Y":60,"Z":61,"[":62,"\\":63,"]":64,"^":65,"_":66,"`":67,"a":68,"b":69,"c":70,"d":71,"e":72,"f":73,"g":74,"h":75,"i":76,"j":77,"k":78,"l":79,"m":80,"n":81,"o":82,"p":83,"q":84,"r":85,"s":86,"t":87,"u":88,"v":89,"w":90,"x":91,"y":92,"z":93,"{":94,"|":95,"}":96,"~":97,"¡":98,"¢":99,"£":100,"¤":101,"¥":102,"¦":103,"§":104,"¨":105,"©":106,"ª":107,"«":108,"¬":109,"®":110,"¯":111,"°":112,"±":113,"²":114,"³":115,"´":116,"µ":117,"¶":118,"·":119,"¸":120,"¹":121,"º":122,"»":123,"¼":124,"½":125,"¾":126,"¿":127,"À":128,"Á":129,"Â":130,"Ã":131,"Ä":132,"Å":133,"Æ":134,"Ç":135,"È":136,"É":137,"Ê":138,"Ë":139,"Ì":140,"Í":141,"Î":142,"Ï":143,"Ð":144,"Ñ":145,"Ò":146,"Ó":147,"Ô":148,"Õ":149,"Ö":150,"×":151,"Ø":152,"Ù":153,"Ú":154,"Û":155,"Ü":156,"Ý":157,"Þ":158,"ß":159,"à":160,"á":161,"â":162,"ã":163,"ä":164,"å":165,"æ":166,"ç":167,"è":168,"é":169,"ê":170,"ë":171,"ì":172,"í":173,"î":174,"ï":175,"ð":176,"ñ":177,"ò":178,"ó":179,"ô":180,"õ":181,"ö":182,"÷":183,"ø":184,"ù":185,"ú":186,"û":187,"ü":188,"ý":189,"þ":190,"ÿ":191,"Ā":192,"ā":193,"Ă":194,"ă":195,"Ą":196,"ą":197,"Ć":198,"ć":199,"Ĉ":200,"ĉ":201,"Ċ":202,"ċ":203,"Č":204,"č":205,"Ď":206,"ď":207,"Đ":208,"đ":209,"Ē":210,"ē":211,"Ĕ":212,"ĕ":213,"Ė":214,"ė":215,"Ę":216,"ę":217,"Ě":218,"ě":219,"Ĝ":220,"ĝ":221,"Ğ":222,"ğ":223,"Ġ":224,"ġ":225,"Ģ":226,"ģ":227,"Ĥ":228,"ĥ":229,"Ħ":230,"ħ":231,"Ĩ":232,"ĩ":233,"Ī":234,"ī":235,"Ĭ":236,"ĭ":237,"Į":238,"į":239,"İ":240,"ı":241,"Ĳ":242,"ĳ":243,"Ĵ":244,"ĵ":245,"Ķ":246,"ķ":247,"ĸ":248,"Ĺ":249,"ĺ":250,"Ļ":251,"ļ":252,"Ľ":253,"ľ":254,"Ŀ":255,"ŀ":256,"Ł":257,"ł":258,"Ń":259,"en":260,"er":261,"ch":262,"Ġd":263,"in":264,"ie":265,"Ġw":266,"un":267,"Ġs":268,"ich":269,"Ġe":270,"an":271,"st":272,"as":273,"ei":274,"Ġdie":275,"Ġa":276,"Ġun":277,"Ġm":278,"Ġein":279,"te":280,"ge":281,"Ã¼":282,"Ġi":283,"on":284,"Ġv":285,"ĠS":286,"ir":287,"sch":288,"Ġh":289,"Ġn":290,"Ġz":291,"ll":292,"Ã¤":293,"Ġund":294,"Ġdas":295,"ar":296,"gen":297,"ten":298,"Ġb":299,"es":300,"hr":301,"Ġzu":302,"Ġk":303,"Ġder":304,"or":305,"ein":306,"at":307,"it":308,"em":309,"der":310,"Ġin":311,"au":312,"Ġwir":313,"ĠM":314,"Ġau":315,"Ġist":316,"Ã¶":317,"icht":318,"de":319,"den":320,"al":321,"ĠA":322,"ach":323,"ier":324,"Ġf":325,"lich":326,"ben":327,"Ġg":328,"ber":329,"ĠG":330,"el":331,"ur":332,"Ġge":333,"ter":334,"Ġich":335,"ĠB":336,"ĠW":337,"Ġes":338,"ĠK":339,"ung":340,"le":341,"se":342,"Ġan":343,"ĠE":344,"ĠF":345,"Ġer":346,"Ġsie":347,"Un":348,"sen":349,"Ġden":350,"ĠP":351,"Ã¼r":352,"ĠD":353,"mm":354,"ro":355,"ĠL":356,"um":357,"nen":358,"ig":359,"Ġnicht":360,"Ġver":361,"ls":362,"ĠT":363,"ĠI":364,"eit":365,"Ġvon":366,"Ġdass":367,"re":368,"Ġbe":369,"is":370,"Ġeine":371,"ck":372,"ser":373,"Ġauf":374,"Und":375,"ann":376,"Ġha":377,"Ġso":378,"ÃŁ":379,"tz":380,"eh":381,"Ġmit":382,"ĠSie":383,"ion":384,"ind":385,"Ġwie":386,"isch":387,"am":388,"ĠH":389,"enn":390,"ĠR":391,"Ġals":392,"ra":393,"Ġwar":394,"Ġsch":395,"ĠV":396,"Ġsich":397,"us":398,"kt":399,"ent":400,"Ġl":401,"eu":402,"Ġo":403,"Ġt":404,"ft":405,"ahr":406,"ol":407,"Ã¼ber":408,"Ġsind":409,"Ã¶n":410,"be":411,"ehr":412,"Ġhaben":413,"ĠfÃ¼r":414,"ĠZ":415,"lle":416,"Ġj":417,"ste":418,"Ġhat":419,"Ġman":420,"Ich":421,"ĠN":422,"Ġaus":423,"ĠJ":424,"ag":425,"Ġum":426,"and":427,"iel":428,"il":429,"ik":430,"Ã¤n":431,"ff":432,"ĠSt":433,"ĠÃ¼ber":434,"ĠkÃ¶n":435,"eine":436,"Ġp":437,"och":438,"ut":439,"Ġwer":440,"llen":441,"tw":442,"sten":443,"om":444,"Ġ\"":445,"hl":446,"Ġâ":447,"Ġda":448,"ĠGe":449,"eil":450,"Ġdiese":451,"ĠSch":452,"Ġdem":453,"Ġwas":454,"Ġim":455,"Die":456,"igen":457,"Das":458,"ern":459,"hen":460,"rei":461,"Ġihr":462,"Ġ-":463,"bt":464,"Ġwenn":465,"Ġuns":466,"sp":467,"Ġeinen":468,"chen":469,"mmen":470,"Ġdies":471,"ieren":472,"Es":473,"ensch":474,"ne":475,"ĠVer":476,"Wir":477,"ĠkÃ¶nnen":478,"Ġdes":479,"Ġunser":480,"Ġje":481,"ien":482,"Ġwerden":483,"ĠJahr":484,"wei":485,"iv":486,"Ġoder":487,"ungen":488,"rau":489,"zu":490,"ĠPro":491,"ĠC":492,"Ġvor":493,"ehen":494,"ige":495,"ĠIn":496,"Ġsein":497,"elt":498,"iert":499,"ĠO":500,"ĠAr":501,"scha":502,"rÃ¼":503,"ation":504,"Ġander":505,"Ġkann":506,"Ġwo":507,"Ġauch":508,"Ġaber":509,"Ġeiner":510,"Sie":511,"men":512,"ĠâĢ":513,"Ġeinem":514,"ĠMensch":515,"gt":516,"ĠAn":517,"ĠEr":518,"Ġnach":519,"Ġ1":520,"anz":521,"ken":522,"Ġmein":523,"ort":524,"Ġmach":525,"uch":526,"hnen":527,"Ġnur":528,"Ġwird":529,"Ġetw":530,"Ġsehr":531,"Ġbei":532,"ĠBe":533,"ischen":534,"Ġhier":535,"Ġall":536,"00":537,"und":538,"Ã¶r":539,"os":540,"ht":541,"Ġdar":542,"aus":543,"ibt":544,"ĠMenschen":545,"fen":546,"Ġent":547,"hn":548,"Ġ--":549,"Ġmich":550,"urch":551,"Ġst":552,"Aber":553,"Ã¤ch":554,"Ġgibt":555,"issen":556,"Ġle":557,"ot":558,"ĠâĢĵ":559,"Ġwur":560,"ĠRe":561,"lau":562,"Ġdann":563,"Ã¤t":564,"Ġsp":565,"hal":566,"Ġalso":567,"ill":568,"tzt":569,"ab":570,"eute":571,"ĠLe":572,"ing":573,"ru":574,"Ġnoch":575,"og":576,"dern":577,"ĠEn":578,"schaft":579,"Ġetwas":580,"bl":581,"ick":582,"rie":583,"ommen":584,"mmer":585,"Ġher":586,"et":587,"tet":588,"ang":589,"Ġsehen":590,"Ġhabe":591,"Ġwei":592,"ĠWelt":593,"Ġvie":594,"Ġsa":595,"Ġmir":596,"Ġdieser":597,"ul":598,"bei":599,"Ġmehr":600,"heit":601,"Ġdurch":602,"ĠUn":603,"ĠSp":604,"Ġkl":605,"ische":606,"ers":607,"roÃŁ":608,"op":609,"Ġsag":610,"Ġre":611,"mal":612,"lichen":613,"keit":614,"we":615,"all":616,"Ġgen":617,"acht":618,"Ġviel":619,"ank":620,"he":621,".\"":622,"ffen":623,"ĠLeben":624,"her":625,"liche":626,"Als":627,"Ã¼s":628,"ĠU":629,"Ã¤r":630,"Ġalle":631,"cht":632,"Ġ2":633,"uss":634,"fach":635,"Ġganz":636,"klich":637,"end":638,"Ġwurde":639,"Ġzum":640,"ĠmÃ¶":641,"Ġunter":642,"rin":643,"ass":644,"ess":645,"fÃ¼":646,"ri":647,"ĠZeit":648,"ĠwÃ¼r":649,"ze":650,"Ã¤hr":651,"ĠIhnen":652,"bst":653,"Wenn":654,"uf":655,"assen":656,"Ġmachen":657,"tzen":658,"oll":659,"Ġste":660,"ĠgroÃŁ":661,"ech":662,"Ġab":663,"Ġzwei":664,"Ġwirklich":665,"for":666,"Ġeinfach":667,"ĠGesch":668,"Ġimmer":669,"wer":670,"Ġmeine":671,"ungs":672,"Ġbes":673,"ob":674,"rÃ¼ck":675,"fl":676,"Ġr":677,"Ġam":678,"inge":679,"Ġkon":680,"Ġweil":681,"tern":682,"bar":683,"Ġtun":684,"chte":685,"ekt":686,"mmt":687,"ĠfÃ¼":688,"schie":689,"art":690,"ner":691,"nte":692,"aten":693,"ĠÃ":694,"ĠEin":695,"ad":696,"Ġneu":697,"ist":698,"ĠmÃ¼s":699,"Ġhatte":700,"iz":701,"inden":702,"Ġunsere":703,"Ein":704,"ap":705,"lie":706,"Ġbis":707,"ĠâĻ":708,"Ġdieses":709,"ehmen":710,"che":711,"ĠIch":712,"elbst":713,"leich":714,"Ġhin":715,"per":716,"Ã¼ck":717,"Ġkeine":718,"gel":719,"eiten":720,"Er":721,"ger":722,"im":723,"glich":724,"Ġihre":725,"ionen":726,"Ġwissen":727,"ĠGr":728,"iger":729,"rach":730,"stell":731,"ĠmÃ¼ssen":732,"ĠLeute":733,"est":734,"hlen":735,"unkt":736,"sa":737,"Also":738,"Ġdiesem":739,"dem":740,"Ġsoll":741,"omp":742,"In":743,"Ġviele":744,"pt":745,"Ġwaren":746,"ÃŁen":747,"ĠArt":748,"itte":749,"olog":750,"ke":751,"rÃ¤":752,"Ġdam":753,"Ġsagte":754,"Ġsagen":755,"ĠDinge":756,"lt":757,"Ġdiesen":758,"gend":759,"unden":760,"ĠJahren":761,"ĠUnd":762,"ĠIhr":763,"blem":764,"ĠGes":765,"Ġweiter":766,"Ġbeg":767,"Ġlie":768,"Ġbin":769,"ĠWir":770,"ild":771,"Ã¤u":772,"sam":773,"Ġeines":774,"du":775,"zen":776,"age":777,"einen":778,"Ġandere":779,"kommen":780,"Ġgew":781,"ats":782,"ed":783,"ĠâĻ«":784,"ver":785,"hm":786,"ĠOr":787,"Ġjetzt":788,"ĠKon":789,"Ġzei":790,"Ġko":791,"Ġanderen":792,"itÃ¤t":793,"ster":794,"Ġwieder":795,"lan":796,"auf":797,"Ġeigen":798,"ichte":799,"Was":800,"det":801,"ichtig":802,"lleicht":803,"inder":804,"nis":805,"Ġglau":806,"ĠwÃ¼rde":807,"geb":808,"ĠProblem":809,"pp":810,"Ġalles":811,"Ġzur":812,"zi":813,"eg":814,"Ã¼n":815,"ĠEs":816,"Ġselbst":817,"Ġnie":818,"Ġdamit":819,"sehen":820,"Ġdu":821,"Ġverb":822,"Ġar":823,"Ġwen":824,"ug":825,"auen":826,"eln":827,"ande":828,"ĠCh":829,"yst":830,"Ġgeht":831,"Ã¤nder":832,"under":833,"ast":834,"Ġgem":835,"ĠMill":836,"ĠWas":837,"ler":838,"spiel":839,"ĠAus":840,"Ġvers":841,"ĠJahre":842,"halten":843,"tes":844,"ystem":845,"Ġob":846,"ĠzurÃ¼ck":847,"Ġber":848,"ale":849,"beit":850,"Ġger":851,"kl":852,"off":853,"Ġmuss":854,"rÃ¶":855,"ragen":856,"ĠVor":857,"pf":858,"Ġwel":859,"mer":860,"war":861,"ÃŁer":862,"angen":863,"Ġdenn":864,"inn":865,"Ġgut":866,"Ã¤re":867,"schl":868,"nten":869,"amen":870,"ĠFrau":871,"igkeit":872,"Ġschon":873,"Der":874,"Ã¤chlich":875,"von":876,"ĠDas":877,"ran":878,"Ġheraus":879,"des":880,"zeu":881,"ĠNe":882,"aar":883,"Wie":884,"Ġverst":885,"Man":886,"lei":887,"vor":888,"ok":889,"ĠmÃ¶chte":890,"rit":891,"stellen":892,"ell":893,"ierte":894,"Ġihnen":895,"fahr":896,"zent":897,"Ġbest":898,"echn":899,"ahl":900,"ĠBei":901,"ringen":902,"Ġzusa":903,"ĠKinder":904,"Ġvielleicht":905,"ert":906,"Ġletz":907,"ationen":908,"Ġpass":909,"Ġzusammen":910,"imm":911,"ha":912,"ĠHer":913,"Ġson":914,"ĠTeil":915,"atsÃ¤chlich":916,"Ġbrau":917,"ĠIde":918,"ĠGeh":919,"Ġpro":920,"Ġdrei":921,"Ġ3":922,"Ġdavon":923,"zie":924,"ĠFl":925,"ade":926,"Ġdort":927,"Ġarbei":928,"alen":929,"hne":930,"uchen":931,"rechen":932,"alt":933,"ant":934,"Ġgleich":935,"ĠLand":936,"Ġheute":937,"halb":938,"agen":939,"ek":940,"ĠAuf":941,"Ġhatten":942,"form":943,"wo":944,"000":945,"Ġgenau":946,"Ġinter":947,"atÃ¼r":948,"Nun":949,"ĠGeschichte":950,"cken":951,"att":952,"..":953,"esen":954,"Ġeinige":955,"Ġbet":956,"ater":957,"ichten":958,"Ġkein":959,"weise":960,"mlich":961,"ĠAu":962,"ĠTechn":963,"Ã¤ndern":964,"aut":965,"ĠBild":966,"eld":967,"anden":968,"aum":969,"net":970,"Ġihn":971,"Ġjem":972,"zÃ¤":973,"ĠkÃ¶nnte":974,"ak":975,"ĠArbeit":976,"Dies":977,"ĠDie":978,"Ġir":979,"rage":980,"schen":981,"ennen":982,"atz":983,"ud":984,"ĠZu":985,"ielen":986,"ĠFor":987,"ĠKl":988,"ologie":989,"Ġzw":990,"Ġwollen":991,"ĠBl":992,"unde":993,"oren":994,"Ġpaar":995,"irn":996,"ĠUm":997,"Ġmeiner":998,"ine":999,"Ġwoll":1000,"Ġgehen":1001,"Ġwurden":1002,"reich":1003,"Ġeinz":1004,"Ġwahr":1005,"ĠdarÃ¼ber":1006,"fÃ¼r":1007,"rag":1008,"qu":1009,"Ġnun":1010,"fr":1011,"wick":1012,"Ã¤d":1013,"Ġwerde":1014,"unktion":1015,"Ġben":1016,"ĠUnter":1017,"?\"":1018,"tlich":1019,"Ġbesser":1020,"utzen":1021,"hren":1022,"ĠtatsÃ¤chlich":1023,"Hier":1024,"eich":1025,"schieden":1026,"Ġverw":1027,"gar":1028,"ĠKo":1029,"ĠInter":1030,"ĠgrÃ¶":1031,"ĠBeispiel":1032,"Ġange":1033,"hÃ¶r":1034,"Ã¤hrend":1035,"Ġzie":1036,"atur":1037,"ĠBer":1038,"ĠWei":1039,"ache":1040,"ĠweiÃŁ":1041,"fol":1042,"Ġunserer":1043,"Ġgab":1044,"ah":1045,"atÃ¼rlich":1046,"ativ":1047,"eisten":1048,"Ġsondern":1049,"Ġgu":1050,"ĠGeb":1051,"Ġseine":1052,"ander":1053,"Ã¤nd":1054,"Ġbede":1055,"ĠWissen":1056,"Diese":1057,"ĠSo":1058,"Ġbek":1059,"ĠwÃ¤re":1060,"Ġleben":1061,"ĠWasser":1062,"akt":1063,"Ġneue":1064,"ode":1065,"schei":1066,"Ġdazu":1067,"ult":1068,"fe":1069,"schein":1070,"Ġvom":1071,"Ġwill":1072,"Ġdenke":1073,"Ġgef":1074,"Ġ5":1075,"teil":1076,"ĠFre":1077,"ite":1078,"ĠGen":1079,"ĠAb":1080,"ĠhÃ¤t":1081,"Ã¶glich":1082,"achen":1083,"hin":1084,"eite":1085,"Ġirgend":1086,"gie":1087,"Ġfinden":1088,"br":1089,"ĠAut":1090,"Ġdenken":1091,"Ġentwick":1092,"Ġkommen":1093,"Ġsogar":1094,"me":1095,"Ġdenen":1096,"utz":1097,"Ġmacht":1098,"Ġeinmal":1099,"Ã¶ff":1100,"ittel":1101,"Ġhei":1102,"ĠGrund":1103,"ma":1104,"Ġgegen":1105,"ĠAl":1106,"Ġlang":1107,"Ġzwischen":1108,"ĠMon":1109,"Ġges":1110,"Ġgerade":1111,"ĠTag":1112,"ľber":1113,"Ġgemacht":1114,"ark":1115,"Ġglaube":1116,"ften":1117,"ierung":1118,"ĠerzÃ¤":1119,"Ġfunktion":1120,"Ġwichtig":1121,"Ġinteress":1122,"Ġgeben":1123,"ĠGehirn":1124,"Ġkommt":1125,"erson":1126,"Ġ20":1127,"ingen":1128,"Ã¤h":1129,"andel":1130,"geben":1131,"Ġex":1132,"ĠFrage":1133,"rank":1134,"Ġerst":1135,"ĠLebens":1136,"ika":1137,"enden":1138,"rÃ¼n":1139,"keiten":1140,"ĠEnt":1141,"lÃ¼ck":1142,"Ġbedeu":1143,"Ġohne":1144,"Ġmus":1145,"ys":1146,"ĠNach":1147,"ĠnÃ¤ch":1148,"gan":1149,"Ġjeder":1150,"hem":1151,"ĠFrauen":1152,"Ġletzten":1153,"tschaft":1154,"ĠDank":1155,"Ġnichts":1156,"ĠMal":1157,"ate":1158,"Ġ19":1159,"Ġihren":1160,"Ġzeigen":1161,"alten":1162,"ĠwÃ¼rden":1163,"ellen":1164,"So":1165,"ĠdafÃ¼r":1166,"Ġverl":1167,"od":1168,"weg":1169,"achte":1170,"Je":1171,"Ġkonnte":1172,"ic":1173,"Ġpassiert":1174,"Ġverschieden":1175,"gef":1176,"Ġersten":1177,"ay":1178,"Ġ4":1179,"chten":1180,"Ġsieht":1181,"ĠDaten":1182,"gehen":1183,"Ã¤l":1184,"ĠProzent":1185,"cher":1186,"ikan":1187,"Ġmeisten":1188,"gr":1189,"Ġverstehen":1190,"nell":1191,"ĠMed":1192,"ÃŁt":1193,"ĠReg":1194,"immt":1195,"Ġdaran":1196,"ss":1197,"ischer":1198,"rupp":1199,"ĠwÃ¤hrend":1200,"Ġbesch":1201,"wir":1202,"aufen":1203,"iele":1204,"ĠMillionen":1205,"Ġetwa":1206,"ĠEx":1207,"sel":1208,"fer":1209,"Ġmal":1210,"stand":1211,"wie":1212,"Ġerste":1213,"ÃŁe":1214,"Ġwarum":1215,"erst":1216,"Ġlassen":1217,"Ġsicher":1218,"ĠMe":1219,"Ġsollte":1220,"zeit":1221,"hrt":1222,"ord":1223,"bs":1224,"ĠHand":1225,"sicht":1226,"âĢ":1227,"Ġmensch":1228,"Ġsollten":1229,"erk":1230,"ts":1231,"agt":1232,"ĠnatÃ¼rlich":1233,"ĠPh":1234,"ign":1235,"yp":1236,"jekt":1237,"licher":1238,"ivers":1239,"Ġschw":1240,"ĠIdee":1241,"ogen":1242,"Ġ10":1243,"iere":1244,"Ġmeinen":1245,"als":1246,"ucht":1247,"stellt":1248,"ergie":1249,"Ġmeinem":1250,"elle":1251,"ĠkÃ¶nnten":1252,"ompu":1253,"gew":1254,"Ġschnell":1255,"ĠÃľber":1256,"ce":1257,"Ġwollte":1258,"ĠGeld":1259,"ĠPerson":1260,"fte":1261,"Ġgel":1262,"Ġkomp":1263,"igt":1264,"Ã¤lt":1265,"Ġja":1266,"ĠRaum":1267,"ia":1268,"Ġgesch":1269,"tro":1270,"Ġgeb":1271,"Ġganze":1272,"ĠgroÃŁe":1273,"ide":1274,"pro":1275,"aupt":1276,"ramm":1277,"ĠWeg":1278,"schied":1279,"Ġjemand":1280,"ckt":1281,"ange":1282,"llt":1283,"Ã¶s":1284,"Ġsprechen":1285,"Ã¶rper":1286,"Ġziemlich":1287,"innen":1288,"Ã¤ren":1289,"Ġscha":1290,"onder":1291,"Ġklein":1292,"Ġins":1293,"Ġbekommen":1294,"Ġihrer":1295,"ollar":1296,"ĠSchl":1297,"richt":1298,"lung":1299,"Ġarbeiten":1300,"Ã¤ng":1301,"Ġdabei":1302,"ĠMit":1303,"ĠInform":1304,"adt":1305,"Ġging":1306,"ktiv":1307,"Ġsagt":1308,"Ġkam":1309,"ĠSe":1310,"ĠMar":1311,"ĠSte":1312,"kun":1313,"ĠhÃ¶r":1314,"ernen":1315,"io":1316,"ĠSystem":1317,"ierten":1318,"twort":1319,"omputer":1320,"Ġdarauf":1321,"arum":1322,"ĠGer":1323,"ĠÃĦ":1324,"scheinlich":1325,"Ġnehmen":1326,"amil":1327,"tt":1328,"eist":1329,"Da":1330,"olut":1331,"str":1332,"utter":1333,"ktur":1334,"laub":1335,"dien":1336,"enz":1337,"ahm":1338,"Ã¤ter":1339,"ĠPlan":1340,"mus":1341,"orden":1342,"ĠAber":1343,"ĠUnivers":1344,"ĠIhre":1345,"Ġbereit":1346,"Qu":1347,"olit":1348,"finden":1349,"reiben":1350,"ĠKre":1351,"rad":1352,"Ġweniger":1353,"ĠEnde":1354,"ele":1355,"urz":1356,"Ġkleinen":1357,"pl":1358,"Ġschl":1359,"fÃ¼hl":1360,"Ġdoch":1361,"ĠKind":1362,"ĠPl":1363,"ĠDollar":1364,"\".":1365,"Ġvier":1366,"ĠDes":1367,"ĠGem":1368,"ĠRo":1369,"Sch":1370,"id":1371,"kunft":1372,"Eine":1373,"ĠStra":1374,"ĠWissenschaft":1375,"lo":1376,"ker":1377,"ĠMen":1378,"Ġbedeutet":1379,"arbei":1380,"ĠEl":1381,"ĠBo":1382,"rat":1383,"Ġunseren":1384,"ĠFamil":1385,"ĠUS":1386,"sst":1387,"ennt":1388,"ĠMin":1389,"Ġsol":1390,"ĠÃĸ":1391,"ial":1392,"Ġdir":1393,"itz":1394,"usst":1395,"ĠQu":1396,"orgen":1397,"ĠMus":1398,"annt":1399,"asch":1400,"ĠVerb":1401,"Ġung":1402,"ĠEntw":1403,"ĠSache":1404,"ganis":1405,"ĠRei":1406,"Ġdachte":1407,"ĠEnergie":1408,"ĠTechnologie":1409,"Ã¤ft":1410,"ĠMÃ¶glich":1411,"ĠComputer":1412,"anke":1413,"tete":1414,"Ġbringen":1415,"ruck":1416,"no":1417,"gl":1418,"Ġihm":1419,"ĠSta":1420,"Ġwelche":1421,"ĠMann":1422,"mp":1423,"Ġseit":1424,"Ġkleine":1425,"ĠmÃ¶glich":1426,"Ġbrauchen":1427,"Ġgesehen":1428,"Ġeigentlich":1429,"ĠWe":1430,"ĠTe":1431,"nit":1432,"tr":1433,"oment":1434,"Ġsei":1435,"ald":1436,"ĠLie":1437,"ive":1438,"ĠY":1439,"raft":1440,"unk":1441,"achsen":1442,"uten":1443,"unter":1444,"ĠgroÃŁen":1445,"Ġgest":1446,"ĠSeite":1447,"aben":1448,"Ġwenig":1449,"fall":1450,"etz":1451,"Ã¤tz":1452,"ition":1453,"ĠWeise":1454,"\",":1455,"schw":1456,"ĠMÃ¤n":1457,"iges":1458,"isten":1459,"Ġjeden":1460,"Ġen":1461,"Ġausge":1462,"An":1463,"ĠGew":1464,"alis":1465,"schaften":1466,"Im":1467,"ĠStadt":1468,"Ġganzen":1469,"opf":1470,"ĠSchu":1471,"icher":1472,"inde":1473,"ard":1474,"nung":1475,"legen":1476,"Ġ6":1477,"Ġschle":1478,"Ġkeinen":1479,"raf":1480,"Ġhoch":1481,"ĠauÃŁer":1482,"eht":1483,"ĠhÃ¤tte":1484,"Ġvoll":1485,"halt":1486,"folg":1487,"ust":1488,"Ġal":1489,"ĠMan":1490,"wegen":1491,"ĠZukunft":1492,"ĠMenge":1493,"hlt":1494,"ĠKÃ¶rper":1495,"ĠWoch":1496,"ĠspÃ¤ter":1497,"Ã¶ffent":1498,"Ġgesagt":1499,"stellung":1500,"ĠTage":1501,"Ġversuchen":1502,"ĠGrupp":1503,"ĠLicht":1504,"ĠfÃ¼n":1505,"our":1506,"ultur":1507,"fft":1508,"ernt":1509,"ip":1510,"Ã¤hn":1511,"Ġgern":1512,"leben":1513,"Ġglauben":1514,"th":1515,"indet":1516,"iss":1517,"denken":1518,"achten":1519,"rieben":1520,"ormal":1521,"Ġverm":1522,"ĠGed":1523,"wohl":1524,"ĠBuch":1525,"ĠGroÃŁ":1526,"undheit":1527,"ĠOrt":1528,"hol":1529,"Ġvielen":1530,"ĠKar":1531,"...":1532,"lex":1533,"Ġbeim":1534,"essen":1535,"Ġunglaub":1536,"ĠEntwick":1537,"iar":1538,"ĠFil":1539,"asse":1540,"eim":1541,"ĠWie":1542,"lekt":1543,"ĠAugen":1544,"ĠâĢŀ":1545,"ĠMa":1546,"ĠSpiel":1547,"Ġte":1548,"Ã¶l":1549,"Ġstellen":1550,"Ġkonnten":1551,"eten":1552,"ausen":1553,"eilen":1554,"alitÃ¤t":1555,"ĠheiÃŁt":1556,"Ġfest":1557,"gramm":1558,"ĠDe":1559,"Ġeigenen":1560,"Ġoft":1561,"ĠgehÃ¶r":1562,"Ġlernen":1563,"fahren":1564,"ĠGemein":1565,"ĠFall":1566,"ĠVers":1567,"Ġbesonder":1568,"Ġget":1569,"Ġsozi":1570,"ahmen":1571,"Ġfast":1572,"Ġfunktioniert":1573,"elfen":1574,"zeug":1575,"Dann":1576,"nehmen":1577,"onnen":1578,"ruktur":1579,"stÃ¤nd":1580,"aden":1581,"Ġ200":1582,"ĠfÃ¼nf":1583,"setzen":1584,"reichen":1585,"Ġwunder":1586,"Ġindem":1587,"ĠWo":1588,"Ġjedes":1589,"Ġschaffen":1590,"allen":1591,"ĠnÃ¤":1592,"Ã¤ndert":1593,"lieÃŁ":1594,"Ġrie":1595,"ĠStud":1596,"ges":1597,"Ġbef":1598,"ĠNatur":1599,"eile":1600,"reis":1601,"ĠgrÃ¶ÃŁ":1602,"ium":1603,"stoff":1604,"ĠErde":1605,"ĠUntern":1606,"frika":1607,"ritt":1608,"Ġgute":1609,"so":1610,"Ġlange":1611,"oten":1612,"Ġschwer":1613,"zeich":1614,"Ġoffen":1615,"St":1616,"satz":1617,"Ġnutzen":1618,"ĠMutter":1619,"ĠMoment":1620,"ĠProbleme":1621,"ĠSchul":1622,"ĠHaus":1623,"Ġgl":1624,"ho":1625,"ĠMilliar":1626,"ause":1627,"Warum":1628,"inner":1629,"gefÃ¤hr":1630,"âĢľ":1631,"ĠPat":1632,"hle":1633,"ĠSprach":1634,"ib":1635,"ĠInternet":1636,"ott":1637,"echs":1638,"nisse":1639,"ĠProdu":1640,"eiden":1641,"lichkeit":1642,"Ġseiner":1643,"iker":1644,"mpf":1645,"zahl":1646,"ĠGesell":1647,"spro":1648,"ED":1649,"wusst":1650,"isches":1651,"volut":1652,"ett":1653,"ack":1654,"Ġsah":1655,"Ġwahrscheinlich":1656,"ĠWenn":1657,"Ġaller":1658,"Ġhelfen":1659,"ĠGesundheit":1660,"ahlen":1661,"Ġallen":1662,"esser":1663,"ammen":1664,"Ġ8":1665,"euten":1666,"Ġweit":1667,"ĠKam":1668,"ĠAng":1669,"kon":1670,"Ġweg":1671,"itu":1672,"Ġanders":1673,"Ġc":1674,"Ġfol":1675,"Ġeinge":1676,"Ġgenug":1677,"Ġzeigt":1678,"Ġherum":1679,"Ã¼nst":1680,"ĠschÃ¶n":1681,"chmal":1682,"Ġunserem":1683,"Ġneuen":1684,"duz":1685,"Ġwicht":1686,"ĠfrÃ¼":1687,"ĠerzÃ¤hlen":1688,"ilder":1689,"Ġklar":1690,"volution":1691,"Denn":1692,"fangen":1693,"ĠForm":1694,"ĠHin":1695,"heiten":1696,"dent":1697,"ĠnÃ¤chsten":1698,"glichen":1699,"Ġverk":1700,"Ġ7":1701,"ossen":1702,"ĠUSA":1703,"ph":1704,"unst":1705,"yn":1706,"Ġkennen":1707,"Ġbegann":1708,"ren":1709,"liches":1710,"Ġne":1711,"raum":1712,"gleich":1713,"ĠLehr":1714,"ĠWahr":1715,"kay":1716,"welt":1717,"rieg":1718,"Ġse":1719,"ĠgrÃ¶ÃŁer":1720,"Ġwus":1721,"schaffen":1722,"Ġbeh":1723,"ko":1724,"zess":1725,"scheid":1726,"'s":1727,"abe":1728,"ĠungefÃ¤hr":1729,"Ġwe":1730,"Ġbetrach":1731,"gangen":1732,"lÃ¶":1733,"land":1734,"Ġbauen":1735,"Ġ100":1736,"Ġjede":1737,"Ġstar":1738,"ron":1739,"ĠVide":1740,"andeln":1741,"kennen":1742,"uft":1743,"ĠMo":1744,"umen":1745,"Ġ15":1746,"ehn":1747,"ĠGegen":1748,"Ġrichtig":1749,"hunder":1750,"fÃ¤":1751,"Ġblei":1752,"setzt":1753,"llig":1754,"ĠMet":1755,"ina":1756,"reffen":1757,"Ġbevor":1758,"zieh":1759,"Ġgemein":1760,"Ġ30":1761,"Ġ50":1762,"Ġliegt":1763,"ĠverÃ¤ndern":1764,"Ġbisschen":1765,"ĠPlaneten":1766,"Ã¶t":1767,"ĠAmer":1768,"ĠDesign":1769,"Ġ9":1770,"Ġrecht":1771,"ĠBÃ¼r":1772,"ĠNew":1773,"ekte":1774,"ĠhÃ¶":1775,"Ġnormal":1776,"ere":1777,"mmun":1778,"ĠLeuten":1779,"Ġseinen":1780,"ens":1781,"igkeiten":1782,"Ġgar":1783,"ĠFÃ¤h":1784,"Ã¤che":1785,"ĠProjekt":1786,"Ġfal":1787,"ĠKunst":1788,"eut":1789,"forder":1790,"bo":1791,"Ġkurz":1792,"ĠSchule":1793,"asst":1794,"Jetzt":1795,"ĠRob":1796,"ĠIdeen":1797,"chn":1798,"ĠMater":1799,"Ã¤nde":1800,"ink":1801,"Ã¤dchen":1802,"ĠFot":1803,"ĠInformationen":1804,"ĠWer":1805,"ĠÃ¼berall":1806,"mÃ¶":1807,"ĠSchw":1808,"av":1809,"sche":1810,"ktion":1811,"omen":1812,"ĠErfahr":1813,"dig":1814,"Ġro":1815,"Ġsagten":1816,"Ġstehen":1817,"ĠForsch":1818,"utzt":1819,"ĠMusik":1820,"anken":1821,"mit":1822,"mittel":1823,"Ġern":1824,"Ġinner":1825,"Mit":1826,"Ã¼tz":1827,"ĠDi":1828,"ĠTED":1829,"ringt":1830,"itzen":1831,"ĠgehÃ¶rt":1832,"ismus":1833,"ĠAt":1834,"ĠArten":1835,"Ġversuch":1836,"ĠMu":1837,"los":1838,"ĠMode":1839,"Ġerkl":1840,"ĠKopf":1841,"Ġhinter":1842,"orten":1843,"ĠPunkt":1844,"Ġdarum":1845,"Ġnennen":1846,"Ġanzu":1847,"ienten":1848,"mand":1849,"Ġschwier":1850,"immen":1851,"enken":1852,"ĠSu":1853,"ĠWirtschaft":1854,"ĠKrank":1855,"ĠAntwort":1856,"sy":1857,"Ġeben":1858,"Ġmusste":1859,"ĠAls":1860,"usammen":1861,"Ġihrem":1862,"Ġreden":1863,"ĠMilliarden":1864,"werk":1865,"gesch":1866,"ĠUnternehmen":1867,"eren":1868,"anzen":1869,"pr":1870,"Ġsel":1871,"rieb":1872,"Ã¤nger":1873,"Ġanderes":1874,"ĠVort":1875,"ief":1876,"zept":1877,"izin":1878,"Ġdich":1879,"ĠGebÃ¤u":1880,"scheiden":1881,"Ġbereits":1882,"ĠNetz":1883,"fang":1884,"Ġbem":1885,"bringen":1886,"ĠExper":1887,"ĠMÃ¤nner":1888,"olle":1889,"Ġhal":1890,"auer":1891,"ĠgroÃŁart":1892,"Vielen":1893,"Ġeuch":1894,"ĠJahrhunder":1895,"ubl":1896,"ĠUniversum":1897,"gung":1898,"ĠStu":1899,"ĠBi":1900,"gem":1901,"ĠFragen":1902,"ĠRicht":1903,"amens":1904,"riff":1905,"Ġentwickelt":1906,"einander":1907,"Ġfragen":1908,"ĠGeschichten":1909,"sk":1910,"voll":1911,"Ġerkennen":1912,"ĠBed":1913,"Ġerreichen":1914,"ĠMinuten":1915,"zei":1916,"ĠBÃ¼":1917,"Ã¶hn":1918,"Ġfrag":1919,"ĠAuto":1920,"was":1921,"Ġhalten":1922,"Ġsteht":1923,"ĠLÃ¶s":1924,"Ġbesonders":1925,"Ġoben":1926,"Ġerh":1927,"ĠGesellschaft":1928,"Ġspielen":1929,"Ġnamens":1930,"ielleicht":1931,"Ã¶sen":1932,"ome":1933,"Ġbenutzen":1934,"Ġverschiedene":1935,"ielt":1936,"Ġentde":1937,"ĠFamilie":1938,"if":1939,"ĠOb":1940,"inen":1941,"ĠhÃ¤tten":1942,"ĠMÃ¤dchen":1943,"Ġseinem":1944,"Ġgerne":1945,"ilfe":1946,"ĠVerhalten":1947,"ĠÃ¼":1948,"aun":1949,"ahn":1950,"pen":1951,"erv":1952,"annte":1953,"zentr":1954,"cke":1955,"indung":1956,"Meine":1957,"nahm":1958,"Ġde":1959,"Ġmachte":1960,"andelt":1961,"ras":1962,"ĠAfrika":1963,"Ġdarin":1964,"ĠhÃ¶ren":1965,"ĠEntscheid":1966,"ĠFilm":1967,"Ġerf":1968,"ĠKor":1969,"Ġho":1970,"ĠÃ¤hn":1971,"deut":1972,"Danke":1973,"oter":1974,"ĠGl":1975,"ĠThem":1976,"ĠGruppe":1977,"akter":1978,"ient":1979,"Ġsechs":1980,"unge":1981,"rom":1982,"Ġglob":1983,"kte":1984,"Ġbeein":1985,"ĠStÃ¼ck":1986,"Ġwohl":1987,"Ġstatt":1988,"grund":1989,"schnit":1990,"Mein":1991,"ĠErgeb":1992,"bare":1993,"richten":1994,"Ġjedem":1995,"Ġbraucht":1996,"ĠGlÃ¼ck":1997,"indern":1998,"geln":1999,"Ġbestimm":2000,"ĠFlug":2001,"Ã¶lker":2002,"onen":2003,"urs":2004,"euer":2005,"ĠBeweg":2006,"ĠOrganis":2007,"bild":2008,"kehr":2009,"Ã¼t":2010,"Ġgesam":2011,"ĠIndien":2012,"lieÃŁlich":2013,"ĠMacht":2014,"let":2015,"ĠFar":2016,"ings":2017,"Dieses":2018,"ĠAngst":2019,"ĠSelbst":2020,"Ġentwickeln":2021,"son":2022,"ĠFir":2023,"All":2024,"Ġch":2025,"endet":2026,"mals":2027,"setz":2028,"Ã¤cht":2029,"Ġricht":2030,"ock":2031,"anten":2032,"ĠZusammen":2033,"Ġvorstellen":2034,"ĠHerz":2035,"ĠEltern":2036,"Ġries":2037,"ĠPatienten":2038,"dr":2039,"ĠBilder":2040,"FÃ¼r":2041,"Ã¤uf":2042,"ume":2043,"heor":2044,"Ã¼tzen":2045,"Ġtro":2046,"fÃ¼hrt":2047,"ase":2048,"Ġmag":2049,"sych":2050,"ĠglÃ¼ck":2051,"amm":2052,"system":2053,"ĠGefÃ¼hl":2054,"ĠLuft":2055,"ikro":2056,"Auf":2057,"punkt":2058,"ĠMÃ¶glichkeit":2059,"ĠFreund":2060,"ezie":2061,"genommen":2062,"Ġflie":2063,"ĠBau":2064,"ĠKultur":2065,"Ġerhalten":2066,"ĠâĻª":2067,"Ġeinigen":2068,"ĠSÃ¼":2069,"Ġbewegen":2070,"zug":2071,"ĠUr":2072,"err":2073,"ĠStunden":2074,"ĠVater":2075,"Ġirgendwie":2076,"ai":2077,"ĠSprache":2078,"ante":2079,"Ġna":2080,"urop":2081,"ider":2082,"iken":2083,"Ġverschiedenen":2084,"icherheit":2085,"ĠBeh":2086,"reten":2087,"ĠStr":2088,"gte":2089,"Ã¤sst":2090,"ĠFÃ¼":2091,"Ġbeiden":2092,"ersÃ¶n":2093,"Ġ%":2094,"Ġhoff":2095,"Ġerw":2096,"ow":2097,"uer":2098,"ĠFol":2099,"Ġmanchmal":2100,"haupt":2101,"annen":2102,"zeugen":2103,"ĠÃ¤ndern":2104,"inieren":2105,"esse":2106,"okrat":2107,"Ġalt":2108,"Ġwollten":2109,"ohn":2110,"ork":2111,"sie":2112,"ĠWort":2113,"ĠfÃ¼hren":2114,"Vor":2115,"Ã¤ten":2116,"ĠBereich":2117,"gal":2118,"ĠDu":2119,"ĠVerÃ¤nder":2120,"ĠArm":2121,"Ġfrei":2122,"Unser":2123,"ĠRÃ¼ck":2124,"Ġdrau":2125,"Ġbesten":2126,"gestellt":2127,"Ġstell":2128,"Ġeinzige":2129,"teten":2130,"ĠLin":2131,"Ġabs":2132,"ĠnÃ¤mlich":2133,"ĠVideo":2134,"vest":2135,"tens":2136,"ĠGrÃ¼n":2137,"Ġerk":2138,"ĠHause":2139,"Ġeinzel":2140,"ĠRegierung":2141,"Um":2142,"gang":2143,"ure":2144,"ĠStÃ¤d":2145,"ĠMeer":2146,"isk":2147,"ublik":2148,"Ġvert":2149,"bte":2150,"Ġunbe":2151,"ĠSachen":2152,"Ġfor":2153,"ĠPart":2154,"ĠGener":2155,"Ġunterschied":2156,"ĠRoboter":2157,"inanz":2158,"ĠBeg":2159,"ĠSinn":2160,"ĠDem":2161,"zt":2162,"Ġverwenden":2163,"tel":2164,"ĠverÃ¤ndert":2165,"hÃ¤ng":2166,"ĠAm":2167,"ĠBezieh":2168,"ĠGesicht":2169,"Ihr":2170,"Ġeher":2171,"Ġunglaublich":2172,"Ġper":2173,"zustellen":2174,"Ġsage":2175,"Ġdr":2176,"ehe":2177,"stens":2178,"fÃ¼hr":2179,"one":2180,"Ġinnerhalb":2181,"arten":2182,"ĠMasch":2183,"hlte":2184,"Ġbeginnen":2185,"ĠÃ¶ffent":2186,"Ġmenschlichen":2187,"Bei":2188,"erweise":2189,"Ġfand":2190,"Ja":2191,"reifen":2192,"ĠWerk":2193,"ĠKindern":2194,"Ġgemeinsam":2195,"stehen":2196,"ĠMein":2197,"ĠAufg":2198,"ĠGebÃ¤ude":2199,"druck":2200,"ĠÃ¼berhaupt":2201,"Ġwelch":2202,"Ġwegen":2203,"Vielleicht":2204,"kten":2205,"tem":2206,"ym":2207,"denten":2208,"Ġlos":2209,"ĠHeraus":2210,"ĠKrebs":2211,"Ġbrach":2212,"ĠKomp":2213,"sent":2214,"ĠHÃ¶":2215,"icken":2216,"Ġgetan":2217,"enzen":2218,"ĠGott":2219,"hemat":2220,"ĠPol":2221,"nov":2222,"iet":2223,"berfl":2224,"ĠPo":2225,"schlossen":2226,"ĠSk":2227,"ĠSon":2228,"ĠZiel":2229,"ĠFahr":2230,"mme":2231,"ĠLÃ¤nder":2232,"uÃŁ":2233,"Ġ[":2234,"erikan":2235,"Ġabge":2236,"fÃ¼hren":2237,"Ġgleichen":2238,"az":2239,"eint":2240,"Zu":2241,"Ġbeob":2242,"ĠNeu":2243,"Ġansch":2244,"rauen":2245,"Ġgr":2246,"Ġversucht":2247,"Ġzwar":2248,"igten":2249,"ffekt":2250,"vÃ¶lker":2251,"Ġschauen":2252,"racht":2253,"ont":2254,"ĠLage":2255,"ivi":2256,"Doch":2257,"ĠEntwicklung":2258,"han":2259,"ingt":2260,"Ġverd":2261,"Ġallem":2262,"Ġweltw":2263,"ative":2264,"ende":2265,"athemat":2266,"abor":2267,"ute":2268,"ĠArch":2269,"Ġpolit":2270,"ĠKn":2271,"Ġtreffen":2272,"ĠWochen":2273,"ĠMaterial":2274,"Ġaufge":2275,"kÃ¼":2276,"ĠDer":2277,"amp":2278,"Ġlei":2279,"ĠHerausforder":2280,"ĠBab":2281,"Ġjen":2282,"ĠChina":2283,"aw":2284,"entr":2285,"ĠKrieg":2286,"ĠTo":2287,"Ã¤ngt":2288,"iff":2289,"fel":2290,"ĠNacht":2291,"ublikum":2292,"enk":2293,"haus":2294,"eigen":2295,"ĠGrÃ¶":2296,"Ġniemand":2297,"ĠUmwelt":2298,"imen":2299,"Ġauszu":2300,"ĠAlso":2301,"Ġrau":2302,"wert":2303,"dlich":2304,"Ġmeines":2305,"Ġmussten":2306,"ĠBr":2307,"ument":2308,"ĠRest":2309,"Oder":2310,"ĠPar":2311,"ĠAnt":2312,"baren":2313,"nahme":2314,"eister":2315,"Ġbel":2316,"achst":2317,"ĠProzess":2318,"Ġwusste":2319,"ĠErfahrung":2320,"oss":2321,"Ġdre":2322,"ĠAnfang":2323,"mÃ¶glich":2324,"wÃ¤r":2325,"uren":2326,"ĠDingen":2327,"Ġfolgen":2328,"Nach":2329,"Ġbl":2330,"Ste":2331,"Ġkamen":2332,"enne":2333,"auso":2334,"Ġweitere":2335,"Ġ40":2336,"elig":2337,"ĠTiere":2338,"Ġ...":2339,"Ġentf":2340,"ĠnÃ¤chste":2341,"ĠTier":2342,"sein":2343,"Ġleicht":2344,"ranken":2345,"Ġ18":2346,"Ġproduz":2347,"doch":2348,"sÃ¤tz":2349,"ĠvÃ¶":2350,"ĠPrÃ¤":2351,"Ã¤chst":2352,"are":2353,"arbeit":2354,"ĠfÃ¼hlen":2355,"ager":2356,"ĠEssen":2357,"ĠMittel":2358,"Ġerre":2359,"ĠVerein":2360,"ehl":2361,"Ġbeko":2362,"ian":2363,"aren":2364,"ĠAll":2365,"ĠPap":2366,"tzlich":2367,"Ġtut":2368,"ĠGrunde":2369,"Ġster":2370,"ĠGeschÃ¤ft":2371,"ĠLehrer":2372,"achstum":2373,"Des":2374,"anach":2375,"ĠKap":2376,"annten":2377,"Ġsolche":2378,"ĠTages":2379,"Ġersch":2380,"ragt":2381,"antwort":2382,"ĠFreunde":2383,"ĠSicherheit":2384,"Ġfl":2385,"ĠZug":2386,"ziehen":2387,"itze":2388,"rieden":2389,"Ġexist":2390,"Ġunten":2391,"ĠStruktur":2392,"Dieser":2393,"Ġvorher":2394,"Ġeigene":2395,"ĠYork":2396,"old":2397,"ĠJa":2398,"ĠJe":2399,"Ġ12":2400,"lligen":2401,"ĠEigen":2402,"ĠFrei":2403,"ransp":2404,"ĠKlim":2405,"Ġmenschliche":2406,"Ġfalsch":2407,"nahmen":2408,"Ġworden":2409,"Ġaufzu":2410,"ĠSitu":2411,"ational":2412,"sph":2413,"alls":2414,"ĠKont":2415,"ax":2416,"man":2417,"Ġletzte":2418,"Ġerstaun":2419,"ĠMÃ¶glichkeiten":2420,"orte":2421,"Ġerwar":2422,"ĠPf":2423,"ĠlÃ¤sst":2424,"ĠCo":2425,"ations":2426,"Ġunters":2427,"ĠBoden":2428,"ĠwÃ¤ren":2429,"Ġbringt":2430,"Ġdamals":2431,"ĠUnterschied":2432,"Ġwor":2433,"Ġderen":2434,"ĠProgramm":2435,"ĠInst":2436,"zean":2437,"hÃ¤lt":2438,"ĠGleich":2439,"Ġverschw":2440,"Ġjedoch":2441,"Ġhervor":2442,"lungs":2443,"ĠDurch":2444,"iment":2445,"Ġ'":2446,"ĠVert":2447,"min":2448,"izieren":2449,"xt":2450,"statt":2451,"ĠRes":2452,"stet":2453,"Ġgrund":2454,"ksam":2455,"elten":2456,"Ġerlau":2457,"Ġschreiben":2458,"haft":2459,"ĠGedanken":2460,"drÃ¼ck":2461,"ĠHilfe":2462,"sichtlich":2463,"troll":2464,"falls":2465,"ĠvÃ¶llig":2466,"ĠSek":2467,"ĠMikro":2468,"ĠBes":2469,"Ġobwohl":2470,"ahren":2471,"ienen":2472,"zellen":2473,"Ġgleiche":2474,"ĠPr":2475,"Ġmo":2476,"Ġor":2477,"ĠSter":2478,"ĠBet":2479,"imme":2480,"ĠTyp":2481,"ĠberÃ¼":2482,"ue":2483,"ĠJob":2484,"Ġbleiben":2485,"Ġfragte":2486,"bauen":2487,"opp":2488,"langen":2489,"innt":2490,"ĠThema":2491,"Ġhunder":2492,"uche":2493,"ograf":2494,"fluss":2495,"Ġdirekt":2496,"ĠStaaten":2497,"wesen":2498,"ĠFort":2499,"Ġentscheiden":2500,"ĠlÃ¶sen":2501,"iziert":2502,"ologien":2503,"get":2504,"ĠFern":2505,"ĠDr":2506,"Ġdessen":2507,"bau":2508,"bung":2509,"blick":2510,"ĠMarkt":2511,"Ġsollen":2512,"Ġteil":2513,"Ġph":2514,"ĠSchwe":2515,"lieÃŁen":2516,"ĠWoche":2517,"Ġerinner":2518,"inger":2519,"Ġ25":2520,"Ġfunktionieren":2521,"ub":2522,"Ġsuchen":2523,"Ġbesteht":2524,"Sp":2525,"Wo":2526,"Zum":2527,"ĠDN":2528,"rakt":2529,"Ġstark":2530,"Ġbetrachten":2531,"mot":2532,"ĠNu":2533,"Ġverbesser":2534,"hÃ¶ren":2535,"ĠMonate":2536,"bes":2537,"scht":2538,"ĠPolit":2539,"ĠLi":2540,"ament":2541,"ilden":2542,"ausende":2543,"fort":2544,"zogen":2545,"ehm":2546,"ĠHaupt":2547,"wirk":2548,"cen":2549,"alien":2550,"ĠKÃ¼":2551,"ĠNamen":2552,"lÃ¶tzlich":2553,"Ġteilen":2554,"zip":2555,"ikaner":2556,"Ġzuvor":2557,"flanzen":2558,"Ã¤hlen":2559,"ĠOzean":2560,"Ġgenauso":2561,"schnitt":2562,"ĠLÃ¤ndern":2563,"ĠTr":2564,"gebung":2565,"trem":2566,"licht":2567,"ĠpersÃ¶n":2568,"ĠNeur":2569,"ĠElekt":2570,"spr":2571,"erstÃ¶r":2572,"Ġschwierig":2573,"Ġged":2574,"arbeitet":2575,"Ġzehn":2576,"atten":2577,"osit":2578,"Ġinteressant":2579,"Wissen":2580,"vers":2581,"ĠKraft":2582,"ĠHa":2583,"Ġstellt":2584,"Ver":2585,"ĠZellen":2586,"Ġsprach":2587,"rifft":2588,"ĠGesetz":2589,"ĠbenÃ¶t":2590,"Ġlangsam":2591,"zeigt":2592,"af":2593,"ool":2594,"elbe":2595,"ĠKat":2596,"ĠermÃ¶":2597,"ĠDar":2598,"ĠfÃ¼hrt":2599,"Ġgefunden":2600,"Ġtrotz":2601,"ond":2602,"ame":2603,"Ġbemer":2604,"ĠLÃ¶sung":2605,"wend":2606,"ĠNahr":2607,"innern":2608,"ĠFamilien":2609,"ĠTeam":2610,"Ġgescha":2611,"Ġzweite":2612,"aktion":2613,"chter":2614,"Ġunseres":2615,"heorie":2616,"Weil":2617,"weisen":2618,"ĠIhren":2619,"Ġverbunden":2620,"ĠÃĸl":2621,"Ġinte":2622,"ĠgrÃ¶ÃŁten":2623,"gegen":2624,"ore":2625,"Ġsieben":2626,"rop":2627,"ĠFÃ¤higkeit":2628,"Lassen":2629,"Nein":2630,"spiele":2631,"Ġsterben":2632,"ieten":2633,"ĠModell":2634,"Ġbitte":2635,"Ġkaufen":2636,"zeuge":2637,"ĠMedik":2638,"berflÃ¤che":2639,"alter":2640,"ĠHo":2641,"Ġamerikan":2642,"Ġkomplex":2643,"Nicht":2644,"ĠWahl":2645,"ĠPer":2646,"jekte":2647,"bene":2648,"Ġscheint":2649,"ĠErfolg":2650,"itein":2651,"ĠAutos":2652,"Pro":2653,"ĠPrin":2654,"igung":2655,"ffe":2656,"tworten":2657,"spir":2658,"iven":2659,"Ġliebe":2660,"ĠLiebe":2661,"ĠgrÃ¶ÃŁte":2662,"aler":2663,"Ġanderer":2664,"ĠEngl":2665,"bten":2666,"Ġlesen":2667,"reiten":2668,"ĠLabor":2669,"Ġherauszu":2670,"auft":2671,"ĠBru":2672,"ĠdrauÃŁen":2673,"line":2674,"ĠBro":2675,"sprochen":2676,"ĠZahl":2677,"ĠInd":2678,"ĠBewegung":2679,"ĠGemeinschaft":2680,"Ġbeeinfl":2681,"Ġwelches":2682,"vÃ¶lkerung":2683,"die":2684,"jÃ¤hr":2685,"Ġdein":2686,"Ġhast":2687,"ĠBedeut":2688,"ĠfÃ¼hr":2689,"unehmen":2690,"Ġmitein":2691,"Ġeins":2692,"Ġerinnern":2693,"ĠInnov":2694,"Ã¤uft":2695,"wohn":2696,"ffiz":2697,"aÃŁ":2698,"Du":2699,"ĠIs":2700,"ĠStand":2701,"Ġnahm":2702,"ĠFr":2703,"ĠPublikum":2704,"ware":2705,"ĠschlieÃŁlich":2706,"Ġgelernt":2707,"Ġgro":2708,"lassen":2709,"iver":2710,"dust":2711,"Ġgewesen":2712,"ĠArchite":2713,"jen":2714,"Ġerschaffen":2715,"ĠTats":2716,"Ã¼nstler":2717,"ity":2718,"agieren":2719,"sieht":2720,"zw":2721,"Ġhinein":2722,"ĠMedien":2723,"bel":2724,"ans":2725,"Ġfanden":2726,"Ġbewusst":2727,"ochen":2728,"ose":2729,"inne":2730,"Ġpassieren":2731,"ĠAlter":2732,"Ġsehe":2733,"ance":2734,"immer":2735,"ĠMil":2736,"Ġessen":2737,"reck":2738,"ehler":2739,"olz":2740,"iko":2741,"ĠerklÃ¤ren":2742,"ĠglÃ¼cklich":2743,"ift":2744,"ĠEis":2745,"ĠEurop":2746,"ĠgegenÃ¼ber":2747,"ĠReihe":2748,"Wer":2749,"nern":2750,"ĠlÃ¤nger":2751,"ĠVerbindung":2752,"Ge":2753,"Ġerle":2754,"ĠBÃ¼rger":2755,"ĠMuster":2756,"Am":2757,"ĠGo":2758,"ĠNicht":2759,"Ġ60":2760,"fern":2761,"Ġwachsen":2762,"Ġerfolg":2763,"Ã¤lter":2764,"ĠJahrhundert":2765,"wasser":2766,"lin":2767,"Ã¤ÃŁ":2768,"ese":2769,"Ġdaraus":2770,"ĠTechnik":2771,"Ġjemals":2772,"ĠÃĦr":2773,"fin":2774,"gliche":2775,"Ġbist":2776,"itut":2777,"lett":2778,"Ġschwar":2779,"reibt":2780,"Ġunterst":2781,"Ġgeworden":2782,"gewÃ¶hn":2783,"Ġgebaut":2784,"inks":2785,"Ġnimmt":2786,"Ġhinaus":2787,"Ã¤lfte":2788,"Ġschlecht":2789,"gessen":2790,"ĠWahrheit":2791,"ĠStudenten":2792,"ĠSÃ¼d":2793,"ĠWert":2794,"ĠZwei":2795,"ĠÃ¼br":2796,"Okay":2797,"Ġkonzentr":2798,"fÃ¤h":2799,"nt":2800,"Ġqu":2801,"gefÃ¼hl":2802,"Ġfr":2803,"ĠKranken":2804,"ividu":2805,"Ġmiteinander":2806,"ĠmÃ¶chten":2807,"ĠFÃ¼hr":2808,"mo":2809,"Ġbr":2810,"itÃ¤ten":2811,"Ġaussehen":2812,"ĠSchritt":2813,"ĠErw":2814,"Ġwissenschaft":2815,"ĠTechnologien":2816,"ĠRichtung":2817,"gn":2818,"oral":2819,"ĠRis":2820,"zeugt":2821,"ĠBlut":2822,"ĠWissenschaftler":2823,"Ġneben":2824,"Ã¤mp":2825,"ĠHoff":2826,"ĠVir":2827,"Ġdeshalb":2828,"ĠAnzahl":2829,"Ġnachdem":2830,"dass":2831,"Ġmache":2832,"Ġbeginnt":2833,"Ġanfangen":2834,"Ġbew":2835,"Ġverloren":2836,"Ġkleines":2837,"lauf":2838,"eid":2839,"Ã¶rter":2840,"ĠPlatz":2841,"Heute":2842,"Ġkleiner":2843,"Ġ80":2844,"Be":2845,"kel":2846,"rÃ¤n":2847,"Ġversch":2848,"ĠChr":2849,"ativen":2850,"ja":2851,"ator":2852,"ĠBlick":2853,"Ġperf":2854,"Ġsofort":2855,"weis":2856,"merksam":2857,"igit":2858,"Ġtief":2859,"dustrie":2860,"CA":2861,"ĠSicht":2862,"Ġgezeigt":2863,"ktu":2864,"Ã¤ngen":2865,"ĠplÃ¶tzlich":2866,"Unsere":2867,"Ġdanach":2868,"Ġeinzu":2869,"Ġhil":2870,"Ġschrieb":2871,"ĠErk":2872,"lang":2873,"ĠTest":2874,"rauch":2875,"rift":2876,"ĠAufgabe":2877,"wand":2878,"Ġbi":2879,"Ġfindet":2880,"ĠRecht":2881,"Ġstellte":2882,"ĠÃ¼berras":2883,"ĠIhrem":2884,"ĠKrankheit":2885,"Ġlaufen":2886,"spekt":2887,"ĠUmgebung":2888,"Viele":2889,"durch":2890,"Ã¤nden":2891,"Ġwert":2892,"Ġguten":2893,"ĠAben":2894,"ĠFuÃŁ":2895,"fon":2896,"ĠbeschÃ¤ft":2897,"ĠForschung":2898,"Ġraus":2899,"ey":2900,"zeitig":2901,"ĠTatsache":2902,"sm":2903,"stra":2904,"Ġgenannt":2905,"edizin":2906,"Stellen":2907,"asz":2908,"Ġind":2909,"ĠMot":2910,"ĠIhrer":2911,"Gen":2912,"asen":2913,"esent":2914,"Ġfort":2915,"Ġallein":2916,"echan":2917,"ĠVorstellung":2918,"ĠRolle":2919,"wusstsein":2920,"ĠVerÃ¤nderung":2921,"ĠTeile":2922,"unkte":2923,"ĠhÃ¶her":2924,"Ġentfernt":2925,"Ġbekommt":2926,"si":2927,"ĠDanke":2928,"ĠBedeutung":2929,"ezi":2930,"Ġacht":2931,"ĠgrÃ¼n":2932,"Ġverwendet":2933,"ĠReise":2934,"Ġschau":2935,"ĠSituation":2936,"kraft":2937,"prÃ¤":2938,"dete":2939,"sprechen":2940,"Ġnachzu":2941,"ĠChar":2942,"Ġegal":2943,"ĠkÃ¼":2944,"urt":2945,"ĠHÃ¤lfte":2946,"Ġtat":2947,"ĠtÃ¶":2948,"ĠGewalt":2949,".âĢľ":2950,"NatÃ¼rlich":2951,"ct":2952,"Ġaktiv":2953,"ĠBel":2954,"raten":2955,"Ã¤nge":2956,"Ġsonst":2957,"KÃ¶n":2958,"gende":2959,"Ġbewe":2960,"ĠBildung":2961,"ĠGrÃ¶ÃŁe":2962,"recht":2963,"Ġsamm":2964,"Ġelekt":2965,"ĠSonnen":2966,"ierungen":2967,"ĠDa":2968,"ĠverÃ¶ffent":2969,"Ġnachdenken":2970,"radition":2971,"ĠFoto":2972,"ĠGal":2973,"elte":2974,"ĠRealitÃ¤t":2975,"Ġbenutzt":2976,"ace":2977,"zus":2978,"ines":2979,"ĠMag":2980,"ĠMitte":2981,"ĠgefÃ¤hr":2982,"ĠKamer":2983,"ĠStÃ¤dte":2984,"ĠAktiv":2985,"Ã¤user":2986,"Ġniemals":2987,"Ã¤ndig":2988,"Ġhoffe":2989,"ĠMeinung":2990,"Oh":2991,"lage":2992,"Ġgeh":2993,"Ġreich":2994,"gten":2995,"iten":2996,"ĠHerausforderung":2997,"Ġrei":2998,"ĠTÃ¼r":2999,"ĠStimme":3000,"Ġbeide":3001,"ĠStudie":3002,"zÃ¼":3003,"ĠÃ¶ff":3004,"sphÃ¤re":3005,"ment":3006,"ichtet":3007,"roh":3008,"Ġbeste":3009,"ysik":3010,"ĠStraÃŁen":3011,"immel":3012,"Ġjemanden":3013,"trolle":3014,"Ġweltweit":3015,"Ġerreicht":3016,"Ã¤ss":3017,"ĠKil":3018,"teilt":3019,"wirtschaft":3020,"Ġsoziale":3021,"ĠVortrag":3022,"arm":3023,"ĠMathemat":3024,"ĠKÃ¶n":3025,"ĠFÃ¤":3026,"ĠverrÃ¼ck":3027,"Ġbekannt":3028,"Ġtechn":3029,"Ġerfolgreich":3030,"affen":3031,"ĠTem":3032,"cker":3033,"ĠmÃ¶gen":3034,"lant":3035,"ĠDemokrat":3036,"Ġkre":3037,"Ġalten":3038,"ĠEntscheidungen":3039,"âĻ":3040,"Ġgingen":3041,"tzut":3042,"ppe":3043,"ritten":3044,"Ġbekam":3045,"Ġextrem":3046,"ĠFisch":3047,"eutzut":3048,"ĠNord":3049,"omb":3050,"ĠErd":3051,"app":3052,"ĠInformation":3053,"eutzutage":3054,"Ġrein":3055,"Ġzeige":3056,"Ġkomplett":3057,"Ġur":3058,"Ġtoll":3059,"uchs":3060,"Ġentst":3061,"ette":3062,"TatsÃ¤chlich":3063,"Ġkontroll":3064,"Ġziehen":3065,"arbeiten":3066,"ve":3067,"Ġru":3068,"Ġgegeben":3069,"Ġhinzu":3070,"Ġgenommen":3071,"ĠStraÃŁe":3072,"ĠPrinzip":3073,"eig":3074,"ĠJu":3075,"dessen":3076,"ertig":3077,"tu":3078,"arte":3079,"Ġblau":3080,"ĠTat":3081,"ehmer":3082,"Ġlieben":3083,"tten":3084,"Ġak":3085,"Ġfahren":3086,"Ġdaher":3087,"ĠChem":3088,"ĠKolle":3089,"ĠGeist":3090,"ĠWachstum":3091,"itel":3092,"ĠEntwicklungs":3093,"Ġwichtiger":3094,"ĠSonne":3095,"arkt":3096,"rab":3097,"Ġlau":3098,"ologen":3099,"ĠSchÃ¼":3100,"ĠMedizin":3101,"Ġschneller":3102,"bildung":3103,"iegen":3104,"Ã¤llt":3105,"orf":3106,"lekÃ¼":3107,"ĠRad":3108,"ĠPreis":3109,"Ġmachten":3110,"Ġstand":3111,"antast":3112,"jenigen":3113,"wissen":3114,"Ġempf":3115,"schul":3116,"Ġzer":3117,"ari":3118,"Ã¶st":3119,"rech":3120,"ĠZahlen":3121,"schieht":3122,"ĠKosten":3123,"Ġsetzen":3124,"ĠDNA":3125,"ĠDro":3126,"rim":3127,"Ġinteressiert":3128,"ĠGef":3129,"ogra":3130,"istan":3131,"Ist":3132,"stÃ¼ck":3133,"Ã¤tzen":3134,"arr":3135,"Ġgeschieht":3136,"ĠKal":3137,"ĠStrom":3138,"ister":3139,"Ġbrachte":3140,"ĠVereinigten":3141,"Zwei":3142,"ĠBÃ¤":3143,"ĠAmerika":3144,"Ġherauszufinden":3145,"stein":3146,"legt":3147,"ftware":3148,"ĠOberflÃ¤che":3149,"rans":3150,"Ġgeboren":3151,"struktur":3152,"ĠMeter":3153,"auern":3154,"Ġfasz":3155,"ĠRu":3156,"Ġliegen":3157,"Ġfliegen":3158,"viel":3159,"zte":3160,"Ġnennt":3161,"gebracht":3162,"ĠFÃ¤higkeiten":3163,"ĠErgebnis":3164,"ĠFirma":3165,"50":3166,"kre":3167,"atte":3168,"amer":3169,"ĠZeu":3170,"Einige":3171,"ĠMaÃŁ":3172,"ĠfrÃ¼her":3173,"ĠPapier":3174,"WÃ¤hrend":3175,"gor":3176,"ile":3177,"ssen":3178,"inz":3179,"ons":3180,"ĠBakter":3181,"ĠFehler":3182,"isse":3183,"Ġ11":3184,"uchten":3185,"ĠEinz":3186,"Ġbas":3187,"indungen":3188,"Ġstimmt":3189,"ĠNachrichten":3190,"Ġabsolut":3191,"Ġtot":3192,"Ġenor":3193,"ĠGeneration":3194,"ĠMaschine":3195,"auber":3196,"ĠIm":3197,"Ġbed":3198,"twas":3199,"abhÃ¤ng":3200,"ogle":3201,"itzt":3202,"ĠBeziehung":3203,"Ġ000":3204,"rain":3205,"ĠInf":3206,"essour":3207,"Ġgesamte":3208,"Ġeinfache":3209,"obil":3210,"Ġneues":3211,"samm":3212,"ĠGesundheits":3213,"ĠFortsch":3214,"schlagen":3215,"!\"":3216,"alle":3217,"ieg":3218,"ĠzerstÃ¶r":3219,"Ġwirtschaft":3220,"imp":3221,"schlag":3222,"Jeder":3223,"ĠKarte":3224,"ĠBÃ¼cher":3225,"wirkungen":3226,"itter":3227,"ĠJahrz":3228,"indest":3229,"hand":3230,"Ġdachten":3231,"iegel":3232,"Ġnein":3233,"Ġerfor":3234,"ĠDruck":3235,"ĠZeich":3236,"ikel":3237,"Ġbegannen":3238,"Ġsozialen":3239,"ollen":3240,"ĠGel":3241,"ĠDing":3242,"ĠHier":3243,"gendes":3244,"Ġdigit":3245,"ĠTod":3246,"Ġlok":3247,"Ã¼ss":3248,"Ġgeschrieben":3249,"ĠEuropa":3250,"echt":3251,"tler":3252,"ĠTele":3253,"merksamkeit":3254,"verb":3255,"Ã¤mpfen":3256,"co":3257,"glie":3258,"Ġzuerst":3259,"ĠApp":3260,"Ġgesprochen":3261,"sell":3262,"Ġtragen":3263,"ikation":3264,"Ġ90":3265,"fess":3266,"Ġheut":3267,"Ġverurs":3268,"ĠStat":3269,"ĠÃ¼bert":3270,"igens":3271,"eller":3272,"Ġverg":3273,"isst":3274,"Ã¼ssel":3275,"ĠKommun":3276,"Ġ199":3277,"ĠProdukt":3278,"lungen":3279,"Ġgebe":3280,"Ġanstatt":3281,"ĠViel":3282,"ussen":3283,"ĠRevolution":3284,"ĠDies":3285,"ĠExperiment":3286,"ĠHoffnung":3287,"ĠPark":3288,"ime":3289,"ĠWirklich":3290,"vent":3291,"Â»":3292,"isu":3293,"ĠHoch":3294,"ĠprÃ¤":3295,"ĠgroÃŁer":3296,"Ġabzu":3297,"ĠAufmerksamkeit":3298,"Ġbewegt":3299,"Ġgleichzeitig":3300,"ote":3301,"ĠDo":3302,"rate":3303,"Ġlern":3304,"Ġpassierte":3305,"Ġernst":3306,"ĠSeiten":3307,"ales":3308,"ĠBewusstsein":3309,"Ġsahen":3310,"beh":3311,"ĠÃ¤lter":3312,"ĠSau":3313,"Ġbein":3314,"laufen":3315,"ĠÃ¤hnlich":3316,"ĠBehand":3317,"Deshalb":3318,"ĠPolitik":3319,"iot":3320,"pfen":3321,"Â«":3322,"nete":3323,"ivil":3324,"deck":3325,"ĠEvolution":3326,"ama":3327,"ĠBevÃ¶lkerung":3328,"hnung":3329,"ĠEine":3330,"pfer":3331,"ĠGruppen":3332,"ĠSchulen":3333,"feld":3334,"hode":3335,"ĠPsych":3336,"altung":3337,"Ġverlassen":3338,"Ġbeobachten":3339,"ĠLeiden":3340,"Ġvorbei":3341,"ĠInte":3342,"Ġwichtige":3343,"Ġbestimmten":3344,"ins":3345,"inken":3346,"iell":3347,"del":3348,"Ġerg":3349,"Ġstud":3350,"Ġkosten":3351,"ĠHinter":3352,"ĠZugang":3353,"Ġfre":3354,"ĠDorf":3355,"ĠÃ¼berw":3356,"Ġbestimmt":3357,"Ġnahe":3358,"hang":3359,"ĠverfÃ¼":3360,"imul":3361,"ĠVersuch":3362,"Ġfinanz":3363,"Ġgearbeitet":3364,"Ġanf":3365,"Ġjunge":3366,"Ġschlechte":3367,"ĠnÃ¤her":3368,"Ġversuchte":3369,"Ġansehen":3370,"ĠRessour":3371,"ickt":3372,"xu":3373,"ĠGu":3374,"ĠKÃ¼nstler":3375,"Ġ16":3376,"ĠMonaten":3377,"Ġkompl":3378,"elegen":3379,"Ġkur":3380,"Ġfinde":3381,"ologische":3382,"Sehen":3383,"orfen":3384,"Ġaut":3385,"mmern":3386,"ĠUhr":3387,"ĠOrte":3388,"Ġehr":3389,"Ġbedeuten":3390,"Alles":3391,"lern":3392,"rist":3393,"ĠEinfluss":3394,"ĠUniversitÃ¤t":3395,"ĠArmut":3396,"ĠPflanzen":3397,"ĠHimmel":3398,"eltsam":3399,"ĠstÃ¤ndig":3400,"Alle":3401,"ĠWÃ¶rter":3402,"ĠKontrolle":3403,"ĠSohn":3404,"bracht":3405,"Ãľber":3406,"Ġend":3407,"ĠnatÃ¼r":3408,"Ġinspir":3409,"Ġfantast":3410,"ĠKa":3411,"ĠRegeln":3412,"Ġspezie":3413,"ĠStudien":3414,"wÃ¼r":3415,"Ġintern":3416,"ĠWind":3417,"ĠKan":3418,"ĠDenn":3419,"ĠSpezie":3420,"ĠKonzept":3421,"Ġbessere":3422,"ĠÃ¶":3423,"Ġsitzen":3424,"Ġmedizin":3425,"Ġblo":3426,"Ġbald":3427,"ĠBaum":3428,"ĠMenschheit":3429,"herap":3430,"apan":3431,"ĠWebs":3432,"error":3433,"ĠDemokratie":3434,"Dam":3435,"ĠRegen":3436,"ĠWohl":3437,"Ġverbessern":3438,"ix":3439,"les":3440,"Ġwider":3441,"Ġinvest":3442,"abel":3443,"Ġoffensichtlich":3444,"ĠSuper":3445,"Ġrichtige":3446,"Ã¼tzt":3447,"indigkeit":3448,"ĠHig":3449,"Ġprakt":3450,"ĠErinner":3451,"Ġ14":3452,"Ġbleibt":3453,"ĠMedikamen":3454,"Ġfalls":3455,"Ġrichtigen":3456,"IV":3457,"ies":3458,"Ġgek":3459,"schluss":3460,"ĠNachbar":3461,"stÃ¤ndnis":3462,"Ġwussten":3463,"gemein":3464,"Ġeinzelne":3465,"ĠGoogle":3466,"blich":3467,"stes":3468,"Ã¤hlt":3469,"atisch":3470,"Ġvergessen":3471,"ĠSchÃ¶n":3472,"Ġihres":3473,"ĠKrankheiten":3474,"digen":3475,"machen":3476,"ĠStelle":3477,"kommt":3478,"ufen":3479,"Ġbilden":3480,"ĠTrÃ¤":3481,"ĠBesch":3482,"abil":3483,"rise":3484,"ppen":3485,"ĠDiese":3486,"ĠSoftware":3487,"Ġmoder":3488,"itÃ¤r":3489,"igner":3490,"ĠHÃ¼":3491,"ĠgroÃŁes":3492,"ĠMitgefÃ¼hl":3493,"ausend":3494,"ĠPoliz":3495,"Ġbemerken":3496,"fre":3497,"to":3498,"Ġposit":3499,"ĠmÃ¶glichen":3500,"zÃ¤hl":3501,"Ã¤tze":3502,"Mensch":3503,"ĠMorgen":3504,"ielten":3505,"ĠPhil":3506,"ĠMolekÃ¼":3507,"ĠSym":3508,"ĠLauf":3509,"eits":3510,"eitung":3511,"ĠHel":3512,"Ġdahin":3513,"ĠOrten":3514,"Ã¼nft":3515,"dung":3516,"schung":3517,"ums":3518,"ĠBeispiele":3519,"Ġarbeitete":3520,"Ġanschauen":3521,"ĠKern":3522,"ĠTon":3523,"ĠTagen":3524,"bet":3525,"ĠVergangen":3526,"schir":3527,"ath":3528,"ĠHIV":3529,"ĠProte":3530,"Ġkannst":3531,"ĠSpaÃŁ":3532,"ĠGrenzen":3533,"Ġverlieren":3534,"Ġerzeugen":3535,"Ġverh":3536,"Ġlinks":3537,"uchte":3538,"klÃ¤r":3539,"quenz":3540,"ĠNachricht":3541,"ĠEntscheidung":3542,"ĠZeug":3543,"orge":3544,"Ġdenkt":3545,"ĠGebiet":3546,"Ġvoller":3547,"Ġechte":3548,"ĠAd":3549,"ĠKu":3550,"Ġaussieht":3551,"lauben":3552,"Ġzumindest":3553,"ekten":3554,"Schauen":3555,"âĻ«":3556,"sto":3557,"eisen":3558,"Ã¤chen":3559,"org":3560,"Ġfertig":3561,"Ġpl":3562,"ĠerzÃ¤hlt":3563,"Ġerlaubt":3564,"ĠVergangenheit":3565,"ĠBus":3566,"Ġnachzudenken":3567,"ĠSchÃ¼ler":3568,"ĠWirklichkeit":3569,"Dar":3570,"uz":3571,"Ġdeine":3572,"ĠVol":3573,"ĠAnge":3574,"rÃ¤fte":3575,"ĠOrd":3576,"teilen":3577,"ĠerklÃ¤r":3578,"go":3579,"rig":3580,"aup":3581,"Ġgebracht":3582,"Ã¼rz":3583,"ĠTerror":3584,"Ġproduzieren":3585,"ital":3586,"ĠBot":3587,"ĠLeist":3588,"igte":3589,"Ġmanche":3590,"werfen":3591,"Ġirgendwo":3592,"ĠGalax":3593,"mut":3594,"mÃ¤ÃŁ":3595,"ĠMiss":3596,"ierter":3597,"ĠstÃ¤r":3598,"Ġreg":3599,"Ġarbeitet":3600,"ĠSpezies":3601,"will":3602,"stru":3603,"ĠWorte":3604,"ĠFeuer":3605,"Ġschreck":3606,"ĠKonfl":3607,"ĠPersonen":3608,"ĠhÃ¤uf":3609,"Ã¤te":3610,"stelle":3611,"merz":3612,"Ġkeiner":3613,"troffen":3614,"ĠGerÃ¤t":3615,"Ġgesamten":3616,"ĠSekunden":3617,"ail":3618,"eben":3619,"falt":3620,"sta":3621,"ktor":3622,"ĠOn":3623,"ĠArbei":3624,"ĠErf":3625,"oph":3626,"zeichnet":3627,"ĠInstitut":3628,"ĠfÃ¼hrte":3629,"sion":3630,"Ġauft":3631,"ĠRelig":3632,"folgen":3633,"Ġsolchen":3634,"Ġversuche":3635,"Ġtrotzdem":3636,"ĠInnovation":3637,"Von":3638,"weil":3639,"Ġdest":3640,"Ġwinz":3641,"Ġmorgen":3642,"Ġkaum":3643,"ĠMÃ¼":3644,"ĠWand":3645,"ĠEbene":3646,"ĠTh":3647,"Ġtraf":3648,"ĠNein":3649,"Ġgewalt":3650,"Ġ70":3651,"ĠFirmen":3652,"Ġ17":3653,"ĠGeschw":3654,"Ġgewinnen":3655,"ĠErgebnisse":3656,"Nur":3657,"Ġseltsam":3658,"ĠSol":3659,"ĠSign":3660,"ĠBill":3661,"letz":3662,"Ġbefinden":3663,"ildet":3664,"Ġretten":3665,"Ġinteressante":3666,"ferenz":3667,"licherweise":3668,"ĠElem":3669,"holen":3670,"ĠMathematik":3671,"ĠBakterien":3672,"met":3673,"ĠSc":3674,"Ġheutzutage":3675,"altet":3676,"ĠHÃ¤nde":3677,"ĠVerantwort":3678,"Ġbestimmte":3679,"Auch":3680,"Ã¤st":3681,"ĠDet":3682,"ĠTheorie":3683,"ĠâĢĶ":3684,"ingungen":3685,"zimmer":3686,"utzung":3687,"Ġet":3688,"Ġbau":3689,"orben":3690,"Ġgekommen":3691,"ĠZuf":3692,"ĠZentr":3693,"ĠNerv":3694,"Ġumzu":3695,"Ġzeigte":3696,"ĠArbeits":3697,"ĠMonat":3698,"Ġgeschehen":3699,"ĠObjekt":3700,"Aus":3701,"Na":3702,"up":3703,"Ġnenne":3704,"Ġrunter":3705,"ĠBaby":3706,"ograph":3707,"ball":3708,"fg":3709,"Ġerfahren":3710,"Ġsodass":3711,"Ġverbinden":3712,"press":3713,"Ġglobalen":3714,"anter":3715,"Ġhol":3716,"genie":3717,"Ã¶pf":3718,"reitet":3719,"werke":3720,"Ġriesige":3721,"Ġuntersuchen":3722,"Ġaufre":3723,"osition":3724,"ĠChance":3725,"Ġ201":3726,"Ġneun":3727,"Ġeinzelnen":3728,"uhr":3729,"ĠunmÃ¶glich":3730,"itten":3731,"ĠGol":3732,"Ġvorh":3733,"Ġgefragt":3734,"ĠStamm":3735,"ĠNetzwerk":3736,"ometer":3737,"ĠMeeres":3738,"Ġdritte":3739,"ĠRessourcen":3740,"iniert":3741,"ĠRau":3742,"ĠVielen":3743,"sprach":3744,"peratur":3745,"Ã¼cht":3746,"Ġaufgrund":3747,"twend":3748,"ĠLandes":3749,"ĠerhÃ¶":3750,"ĠGefÃ¤ng":3751,"wenden":3752,"gest":3753,"ĠFrieden":3754,"ĠHe":3755,"ĠtÃ¤":3756,"ĠNot":3757,"Ġrund":3758,"ĠLinie":3759,"Denken":3760,"ĠGra":3761,"ĠNÃ¤":3762,"assung":3763,"Eines":3764,"eiter":3765,"ckte":3766,"Ġtie":3767,"ationalen":3768,"ĠErn":3769,"ĠBezug":3770,"rÃ¤gt":3771,"Ġalte":3772,"ĠAmerikaner":3773,"Ġentdecken":3774,"Ġhilft":3775,"ov":3776,"emand":3777,"ĠDien":3778,"ret":3779,"isieren":3780,"ehme":3781,"ĠJohn":3782,"Ġlebt":3783,"Ġirgendw":3784,"ĠgroÃŁartige":3785,"kul":3786,"schÃ¶n":3787,"ĠDenken":3788,"ĠGefÃ¼":3789,"zial":3790,"ssystem":3791,"ĠKampf":3792,"ĠKollegen":3793,"ĠTelefon":3794,"lam":3795,"ĠSy":3796,"Ġhab":3797,"ĠHeim":3798,"Ġjungen":3799,"Ġreduz":3800,"Ġniedr":3801,"Ġherausfinden":3802,"Ġverstanden":3803,"Ġdanke":3804,"bert":3805,"ĠNa":3806,"sprÃ¼n":3807,"ĠPartner":3808,"ĠOrdnung":3809,"grupp":3810,"ĠzufÃ¤":3811,"Ġsowohl":3812,"ĠHaut":3813,"Ġpsych":3814,"ĠJahres":3815,"ĠOper":3816,"Ã¶rder":3817,"Ġentschieden":3818,"ĠAuswirkungen":3819,"ĠhÃ¶rte":3820,"ĠgroÃŁartig":3821,"ĠPrÃ¤si":3822,"Ġorganis":3823,"fghan":3824,"Ġdunk":3825,"schu":3826,"ĠFe":3827,"reche":3828,"Ġleisten":3829,"ĠlÃ¤uft":3830,"ĠAnder":3831,"edes":3832,"leist":3833,"stÃ¤ndig":3834,"ĠDiag":3835,"otwend":3836,"Ġwann":3837,"Ġmoral":3838,"Ġhinge":3839,"reise":3840,"ĠerzÃ¤hlte":3841,"ĠRegierungen":3842,"glicht":3843,"gleichen":3844,"stre":3845,"asche":3846,"Ġeinander":3847,"Ġvisu":3848,"ĠhÃ¤lt":3849,"Ġgestellt":3850,"Ġdadurch":3851,"Ġ13":3852,"Ġzweiten":3853,"odell":3854,"ĠHÃ¶he":3855,"ĠNahrung":3856,"stÃ¤nde":3857,"ĠDann":3858,"ĠDisk":3859,"twor":3860,"ĠVerl":3861,"ationale":3862,"abr":3863,"Ġgenet":3864,"ologischen":3865,"Ġkommun":3866,"ĠermÃ¶glicht":3867,"ĠErwachsen":3868,"Ġsammeln":3869,"grÃ¼n":3870,"ille":3871,"wart":3872,"ĠSinne":3873,"Ġfing":3874,"ĠGelegen":3875,"Ġlag":3876,"Ġarbeite":3877,"ĠFormen":3878,"stoffe":3879,"Ġrechts":3880,"Ġnormalerweise":3881,"ĠÃ¶ffentlichen":3882,"motion":3883,"ac":3884,"ou":3885,"volle":3886,"zahlen":3887,"zunehmen":3888,"ĠBas":3889,"Ġwarten":3890,"Ġtau":3891,"ĠCar":3892,"astrop":3893,"ĠWieder":3894,"ude":3895,"inter":3896,"deten":3897,"Ġgeschaffen":3898,"ĠFrÃ¼":3899,"Ġtradition":3900,"ĠMillion":3901,"arbeiter":3902,"ĠWohn":3903,"ĠÃ¼brigens":3904,"zwei":3905,"Ġdiejenigen":3906,"aur":3907,"reg":3908,"Ġentwe":3909,"ĠGeheim":3910,"Ġeinzig":3911,"frikan":3912,"ĠauÃŁerhalb":3913,"buch":3914,"nungen":3915,"Ġuner":3916,"ĠMark":3917,"Ġ21":3918,"Ġbestehen":3919,"ativitÃ¤t":3920,"Ġbefindet":3921,"Ġca":3922,"ĠMethode":3923,"ĠhÃ¶ch":3924,"tert":3925,"schiede":3926,"ĠFotos":3927,"ĠBrust":3928,"rochen":3929,"Ġverste":3930,"ĠZivil":3931,"ĠReaktion":3932,"ĠGeburt":3933,"ĠGehirns":3934,"ĠSysteme":3935,"ĠBÃ¼ro":3936,"hy":3937,"schn":3938,"Ġhandelt":3939,"ĠAk":3940,"ĠWesen":3941,"ĠCO":3942,"ĠInvest":3943,"ĠArzt":3944,"Ġherunter":3945,"Daher":3946,"ynam":3947,"Ġentdeckt":3948,"ĠOrganisation":3949,"ĠBeziehungen":3950,"ffizien":3951,"ĠKrankenhaus":3952,"Ġis":3953,"ĠKer":3954,"ĠschÃ¼tzen":3955,"Ġof":3956,"Ġtaten":3957,"folge":3958,"ĠSex":3959,"len":3960,"par":3961,"ritte":3962,"ieÃŁen":3963,"Ġmessen":3964,"iti":3965,"Ġgesp":3966,"leb":3967,"anze":3968,"Ġbisher":3969,"ĠSchlÃ¼ssel":3970,"ĠGrÃ¼nde":3971,"ĠFreiheit":3972,"Ġdesto":3973,"greifen":3974,"ĠBienen":3975,"Ã¤nomen":3976,"ĠStre":3977,"Ġsta":3978,"Ġwelcher":3979,"ĠFluss":3980,"Ġebenso":3981,"ven":3982,"unÃ¤chst":3983,"arf":3984,"iter":3985,"Ã¼rf":3986,"ĠHirn":3987,"rak":3988,"Ã¤hrt":3989,"ĠEntdeck":3990,"Menschen":3991,"Re":3992,"stern":3993,"aschen":3994,"schte":3995,"ĠMy":3996,"urg":3997,"ĠKur":3998,"ĠVerstÃ¤ndnis":3999,"Ġspielt":4000,"stellungen":4001,"ĠgewÃ¶hn":4002,"Ġeinzigen":4003,"ĠBerg":4004,"ĠGerÃ¤u":4005,"Ġselben":4006,"ĠBeginn":4007,"mt":4008,"Ġant":4009,"ĠTransp":4010,"icks":4011,"ĠLiebl":4012,"Ġbetrachtet":4013,"ĠFlugzeug":4014,"ĠArchitektur":4015,"ĠunterstÃ¼tzen":4016,"Ob":4017,"stÃ¤":4018,"ĠmÃ¤cht":4019,"Ã¶nen":4020,"ĠWarum":4021,"ision":4022,"ivat":4023,"liegen":4024,"ĠGespr":4025,"ĠDrogen":4026,"nehm":4027,"onie":4028,"orn":4029,"ĠVo":4030,"wÃ¤rts":4031,"ĠListe":4032,"KÃ¶nnen":4033,"Ġentweder":4034,"illen":4035,"tag":4036,"ĠÃ¤u":4037,"Ġeffekt":4038,"Ã¼gen":4039,"ĠSand":4040,"ĠLÃ¶":4041,"ĠfÃ¼hlte":4042,"selben":4043,"dienen":4044,"ĠFarbe":4045,"ĠAbend":4046,"ĠgrÃ¼":4047,"Ġbean":4048,"ĠJungen":4049,"ĠStunde":4050,"Ġherstellen":4051,"gebaut":4052,"ĠKlimaw":4053,"ĠberÃ¼hm":4054,"ĠKÃ¶nig":4055,"schirm":4056,"ifor":4057,"oo":4058,"iels":4059,"stag":4060,"ĠPunkte":4061,"ĠVerfÃ¼":4062,"ĠZeitpunkt":4063,"apt":4064,"ĠArtikel":4065,"Ġlief":4066,"ĠHerr":4067,"ĠBÃ¼hne":4068,"Ġphys":4069,"zer":4070,"Ġgetroffen":4071,"Ġdasselbe":4072,"ĠHar":4073,"Ġopt":4074,"ĠName":4075,"ĠRegel":4076,"lose":4077,"Ander":4078,"ĠMaschinen":4079,"Ġgrundlegen":4080,"Ġdrin":4081,"achtet":4082,"unger":4083,"lebt":4084,"ĠIngenie":4085,"Ġdurchge":4086,"ĠHerzen":4087,"ĠInteresse":4088,"Ġguter":4089,"ĠBehandlung":4090,"ake":4091,"passen":4092,"such":4093,"Ġsetz":4094,"Ġerleben":4095,"ĠTraum":4096,"ierend":4097,"Ihre":4098,"Ġerwarten":4099,"ĠÂ»":4100,"ĠNun":4101,"ĠOkay":4102,"ĠAnal":4103,"Ġgutes":4104,"ĠÃĸk":4105,"Ġbelie":4106,"Ġamerikanischen":4107,"Ã¤mpf":4108,"orgt":4109,"amb":4110,"ildern":4111,"maÃŁen":4112,"ĠErfahrungen":4113,"ĠJahrhunderts":4114,"Ġheutigen":4115,"kur":4116,"kop":4117,"zut":4118,"seh":4119,"bed":4120,"ilien":4121,"ĠInse":4122,"ĠMuse":4123,"ĠLÃ¶sungen":4124,"Ġhundert":4125,"stÃ¼tz":4126,"Ġunver":4127,"scher":4128,"ĠErei":4129,"ĠLond":4130,"Ġmehrere":4131,"Ġwenige":4132,"Ġbenutz":4133,"ĠMars":4134,"Ġcool":4135,"Ġbehaup":4136,"Ġerinnere":4137,"ĠEnglisch":4138,"ĠÃĦrzte":4139,"iete":4140,"ĠWeil":4141,"ĠPass":4142,"ĠPoten":4143,"ĠTisch":4144,"Ġumge":4145,"ĠEinkommen":4146,"ritann":4147,"Ġjene":4148,"ĠIndividu":4149,"ĠGefÃ¤ngnis":4150,"unt":4151,"Ġnahmen":4152,"Ġkn":4153,"ĠFinanz":4154,"ĠFinger":4155,"ĠNational":4156,"Ã¶rp":4157,"rÃ¼cken":4158,"gefunden":4159,"fassen":4160,"plan":4161,"sser":4162,"Ġaktu":4163,"ĠSan":4164,"ĠBen":4165,"Ġschicken":4166,"Ġspricht":4167,"barkeit":4168,"ĠEinzel":4169,"ente":4170,"eigt":4171,"Ġunge":4172,"ĠSa":4173,"urm":4174,"ĠFel":4175,"Ġsowie":4176,"entlich":4177,"istor":4178,"ĠGene":4179,"ĠfrÃ¼h":4180,"Ġverkaufen":4181,"Ġebenfalls":4182,"gaben":4183,"vie":4184,"Ġon":4185,"hre":4186,"ĠFakt":4187,"gnor":4188,"brechen":4189,"ĠwÃ¼n":4190,"ĠwÃ¤hlen":4191,"elche":4192,"ĠWorten":4193,"ĠFen":4194,"Ġvoraus":4195,"ĠInstr":4196,"etten":4197,"ption":4198,"maÃŁ":4199,"gress":4200,"ĠQuad":4201,"Ġbehandeln":4202,"Ġselten":4203,"ĠVerÃ¤nderungen":4204,"ĠRisiko":4205,"ikt":4206,"sichtig":4207,"eien":4208,"Ġkrei":4209,"ĠMÃ¤r":4210,"Ã¶se":4211,"ĠfÃ¤llt":4212,"ĠBall":4213,"rastruktur":4214,"ĠZeiten":4215,"Ġpr":4216,"produ":4217,"ĠÃĦn":4218,"ĠWege":4219,"Ġehrlich":4220,"krieg":4221,"ierungs":4222,"rÃ¤ge":4223,"ĠBeruf":4224,"ĠSommer":4225,"Ġ500":4226,"ĠKamera":4227,"iforn":4228,"gien":4229,"lagen":4230,"inos":4231,"Ġhart":4232,"Ġkm":4233,"Ġeinfachen":4234,"istisch":4235,"ĠTeilen":4236,"Ġjemandem":4237,"Ġerfunden":4238,"ails":4239,"Ġgedacht":4240,"ĠMedikamente":4241,"ĠVerantwortung":4242,"Ar":4243,"dings":4244,"prÃ¼":4245,"seite":4246,"umor":4247,"ĠThe":4248,"isser":4249,"ĠauÃŁergewÃ¶hn":4250,"ĠBedÃ¼rf":4251,"Ã¼tter":4252,"oldaten":4253,"wendung":4254,"Ġgeschah":4255,"Ġintelligen":4256,"ĠErkennt":4257,"fter":4258,"kam":4259,"Ġwesent":4260,"organis":4261,"ĠAfghan":4262,"bewer":4263,"ilt":4264,"ĠAuge":4265,"alismus":4266,"Ġunterschiedliche":4267,"imente":4268,"ritannien":4269,"ĠdÃ¼r":4270,"ĠSer":4271,"aul":4272,"Ġerwei":4273,"ĠIndustrie":4274,"ĠEigenschaften":4275,"Ġelektr":4276,"zusagen":4277,"ĠLondon":4278,"pekt":4279,"schutz":4280,"ĠAhnung":4281,"ĠFunktion":4282,"ĠNie":4283,"ĠJapan":4284,"wech":4285,"Ġkomme":4286,"Ġunglaubliche":4287,"ĠVolk":4288,"Ġkultur":4289,"ĠKol":4290,"ĠMÃ¤nnern":4291,"Ġexistiert":4292,"\"-":4293,"bald":4294,"unsch":4295,"ĠKreis":4296,"ĠLernen":4297,"ĠTieren":4298,"isiert":4299,"ĠHy":4300,"ĠVergleich":4301,"ĠOK":4302,"webe":4303,"Ġverbringen":4304,"ĠKomplex":4305,"Ġkonzentrieren":4306,"bieren":4307,"techn":4308,"Ġbill":4309,"ĠWunder":4310,"ĠÃ¼berleben":4311,"ĠSchwar":4312,"Ġ198":4313,"erstoff":4314,"ĠStÃ¤dten":4315,"prÃ¤sent":4316,"Ġfaszinieren":4317,"ĠNÃ¤he":4318,"ĠÃ¤uÃŁer":4319,"enze":4320,"stieg":4321,"Ġnutz":4322,"reib":4323,"ĠZustand":4324,"Ġwunderbar":4325,"ĠÃ¶ffnen":4326,"ĠverrÃ¼ckt":4327,"ĠBar":4328,"ierenden":4329,"Ġnachhalt":4330,"Ġentsp":4331,"ĠWesten":4332,"alisierung":4333,"ourn":4334,"ĠfrÃ¼hen":4335,"ĠWerte":4336,"Ġlernte":4337,"bol":4338,"britannien":4339,"frage":4340,"tra":4341,"Ġdank":4342,"Ġzeich":4343,"auert":4344,"ĠMut":4345,"Ġfangen":4346,"Ġsobald":4347,"raucht":4348,"Ġeigenes":4349,"ĠFreunden":4350,"ĠBiologie":4351,"ĠCharakter":4352,"ĠIntelligen":4353,"ĠReligion":4354,"Ġemotion":4355,"stadt":4356,"einer":4357,"ĠGlauben":4358,"Ġgegangen":4359,"ĠWol":4360,"ennung":4361,"Ġangefangen":4362,"ĠSchÃ¶nheit":4363,"Au":4364,"masch":4365,"ĠunabhÃ¤ng":4366,"Ġident":4367,"itionen":4368,"Ġtrifft":4369,"ĠSchutz":4370,"ĠProjekte":4371,"Ġspreche":4372,"ĠSpitze":4373,"ĠPhysik":4374,"Ġkontrollieren":4375,"ĠVerfÃ¼gung":4376,"seit":4377,"ĠWÃ¼r":4378,"hlten":4379,"ĠAntworten":4380,"ĠFreude":4381,"ĠKarr":4382,"ĠursprÃ¼n":4383,"sellschaft":4384,"19":4385,"afen":4386,"bÃ¼":4387,"das":4388,"geg":4389,"Ġgehe":4390,"ĠWald":4391,"ochter":4392,"ĠKomm":4393,"ĠRegion":4394,"ĠDesigner":4395,"ĠÃĸff":4396,"ĠMaterialien":4397,"uster":4398,"ielle":4399,"Ġfallen":4400,"Ġentstehen":4401,"rachte":4402,"Ġbegonnen":4403,"haben":4404,"ĠhÃ¶rt":4405,"Ġeng":4406,"ĠWahrscheinlich":4407,"ĠGelegenheit":4408,"gier":4409,"orgung":4410,"ĠIdent":4411,"ikas":4412,"ĠProt":4413,"Ġherzustellen":4414,"Ã¤rm":4415,"ĠProdukte":4416,"Ġriesigen":4417,"Ġgeschafft":4418,"hei":4419,"ĠGrad":4420,"Ġerzeugt":4421,"ierende":4422,"Ġseines":4423,"ĠUnterstÃ¼tz":4424,"ĠSchluss":4425,"ĠgrÃ¶ÃŁere":4426,"drÃ¼cken":4427,"ĠSauerstoff":4428,"Ġwest":4429,"Ġecht":4430,"ane":4431,"ichtbar":4432,"Ġgenutzt":4433,"istenz":4434,"konom":4435,"fÃ¤lle":4436,"Ġglobale":4437,"Ġchines":4438,"Ġbeeinflusst":4439,"acebo":4440,"sinn":4441,"ĠBio":4442,"ĠWaffen":4443,"ĠZelle":4444,"oper":4445,"Einer":4446,"ĠlieÃŁ":4447,"Ġbrauchte":4448,"Ġ300":4449,"ĠgrÃ¶ÃŁeren":4450,"ĠWirtschafts":4451,"ĠNummer":4452,"Ġakzept":4453,"ĠInfrastruktur":4454,"ĠJahrzeh":4455,"ĠKommunikation":4456,"ĠEreig":4457,"Ġonline":4458,"20":4459,"ĠWor":4460,"ĠTal":4461,"ĠTro":4462,"Ġaufgenommen":4463,"ĠOrgan":4464,"ĠVerbindungen":4465,"haltung":4466,"ĠGeschÃ¤fts":4467,"ĠhÃ¤ufig":4468,"ID":4469,"ain":4470,"ĠKrie":4471,"ĠTochter":4472,"neten":4473,"ĠArme":4474,"Ġreagieren":4475,"Ġ24":4476,"stellte":4477,"Ġwichtigsten":4478,"ĠÃľberleben":4479,"ĠStrate":4480,"ĠAtmo":4481,"setzung":4482,"ĠerwÃ¤hn":4483,"Genau":4484,"dre":4485,"ox":4486,"Ġkor":4487,"ĠkÃ¤mpfen":4488,"ĠMassen":4489,"lef":4490,"Ġbezahl":4491,"Ġmittler":4492,"ĠSchiff":4493,"netz":4494,"ĠCl":4495,"ĠFarben":4496,"Ġpolitischen":4497,"Ġerstaunlich":4498,"wohner":4499,"ĠVielfalt":4500,"ĠHigh":4501,"ĠPolizei":4502,"ĠFenster":4503,"ĠWider":4504,"ĠPal":4505,"Ġsogen":4506,"ami":4507,"ĠfÃ¼hlt":4508,"lange":4509,"ettbewer":4510,"ĠKnochen":4511,"sÃ¤tzlich":4512,"ĠermÃ¶glichen":4513,"ĠÃ¼berraschen":4514,"ĠLeidenschaft":4515,"aber":4516,"fs":4517,"hÃ¶":4518,"hause":4519,"geht":4520,"ĠSuche":4521,"Ġnotwend":4522,"Ġwirk":4523,"rael":4524,"eutlich":4525,"utlich":4526,"ĠOpfer":4527,"sagen":4528,"Ġweiterhin":4529,"ĠAusdruck":4530,"ĠUnterschiede":4531,"geschichte":4532,"En":4533,"text":4534,"Ġfehl":4535,"Ġverantwort":4536,"riffen":4537,"ĠKons":4538,"ĠKlasse":4539,"Ġschlimm":4540,"zeichnen":4541,"ĠRÃ¼cken":4542,"minister":4543,"Ġbeeinflussen":4544,"ĠEntwicklungsl":4545,"Ġendlich":4546,"ĠGeschwindigkeit":4547,"Jedes":4548,"rum":4549,"schauen":4550,"atter":4551,"ĠEp":4552,"ĠHÃ¤user":4553,"Ġlust":4554,"rug":4555,"heben":4556,"Ã¼sse":4557,"ĠfÃ¼hle":4558,"ĠAltern":4559,"ĠKreativitÃ¤t":4560,"ĠGroÃŁbritannien":4561,"ĠWerkzeuge":4562,"kung":4563,"ana":4564,"Ġhandeln":4565,"ĠnÃ¶t":4566,"Ġblie":4567,"Ġkenne":4568,"ĠMehr":4569,"ĠPil":4570,"Ġokay":4571,"Ġtyp":4572,"ĠAnsatz":4573,"Ġentlang":4574,"Ġeinfacher":4575,"istische":4576,"wiesen":4577,"ĠPhÃ¤nomen":4578,"ĠPlast":4579,"holt":4580,"ĠGlas":4581,"Ġproduziert":4582,"ĠPrivat":4583,"ĠNahrungs":4584,"ĠBÃ¤ume":4585,"mel":4586,"wahr":4587,"Ġdeutlich":4588,"stab":4589,"Ġgilt":4590,"ĠBu":4591,"ĠBank":4592,"ĠKlei":4593,"leun":4594,"Ġlangen":4595,"ĠZw":4596,"ĠOsten":4597,"Manchmal":4598,"Ġdorthin":4599,"Ġseien":4600,"Ġvertrau":4601,"ĠKilometer":4602,"Ġkompliz":4603,"Ġhielt":4604,"ĠnÃ¼tz":4605,"lecht":4606,"vert":4607,"schlÃ¤":4608,"ĠGehir":4609,"ĠKlassen":4610,"ĠMond":4611,"ĠSchlag":4612,"ĠVersion":4613,"tember":4614,"ĠTodes":4615,"ĠStandard":4616,"Noch":4617,"renz":4618,"zur":4619,"ĠSh":4620,"ĠLoch":4621,"ĠVari":4622,"Ġtransp":4623,"undament":4624,"ektion":4625,"artig":4626,"iertel":4627,"akten":4628,"ĠWeb":4629,"Damit":4630,"ĠGefÃ¼hle":4631,"fallen":4632,"gra":4633,"Ġnehme":4634,"Ġbuch":4635,"Ġkrit":4636,"ĠKÃ¶rp":4637,"Ġanal":4638,"ĠDel":4639,"Ġschaut":4640,"ĠSport":4641,"ĠGewicht":4642,"Ġstellten":4643,"Ġerlauben":4644,"Ġabst":4645,"ĠWal":4646,"opul":4647,"bruch":4648,"ĠSchlaf":4649,"Ġdefin":4650,"fÃ¼hrer":4651,"ĠTemperatur":4652,"gorit":4653,"Nehmen":4654,"dimen":4655,"swer":4656,"Ġerstellen":4657,"ĠDenk":4658,"Ġverbl":4659,"Ã¤nderte":4660,"Ġentsteht":4661,"ĠAfghanistan":4662,"SA":4663,"ka":4664,"Âł":4665,"ĠÃ¤ndert":4666,"Ġgaben":4667,"ĠZit":4668,"Ã¶rt":4669,"Ġkostet":4670,"Ġbehandelt":4671,"umente":4672,"ĠZusammenhang":4673,"ĠBegriff":4674,"spektive":4675,"ĠStatist":4676,"acebook":4677,"hilfe":4678,"ged":4679,"Ġzug":4680,"ĠKunden":4681,"ĠHolz":4682,"ĠRÃ¤":4683,"ĠJunge":4684,"Ġdarf":4685,"otyp":4686,"Ġspezi":4687,"Ġganzes":4688,"ĠText":4689,"ĠGesellschaften":4690,"Ġpolitische":4691,"ĠMÃ¼ll":4692,"Haben":4693,"eitet":4694,"ĠkÃ¼rz":4695,"ĠFrank":4696,"ĠTel":4697,"indust":4698,"Ġdagegen":4699,"osystem":4700,"Ġentschied":4701,"etter":4702,"formen":4703,"ĠEinsatz":4704,"andels":4705,"ĠProduktion":4706,"ĠNeuronen":4707,"view":4708,"ĠKarriere":4709,"acken":4710,"fisch":4711,"gern":4712,"laden":4713,"seln":4714,"ĠkÃ¼nst":4715,"ĠPosition":4716,"ĠDav":4717,"Ġleiden":4718,"Ġlegen":4719,"pfel":4720,"Ġverkauft":4721,"mÃ¶gen":4722,"ĠTypen":4723,"zwischen":4724,"ĠVirus":4725,"Ġerforschen":4726,"ĠZeichen":4727,"ĠBotschaft":4728,"dit":4729,"kauf":4730,"pfl":4731,"ĠSatz":4732,"schrÃ¤n":4733,"Ġkrie":4734,"ĠAfr":4735,"ĠPe":4736,"ĠjÃ¼n":4737,"ikal":4738,"Ã¤nglich":4739,"Ġpassen":4740,"etr":4741,"gere":4742,"Ġbetrifft":4743,"ĠKohlen":4744,"alisieren":4745,"ĠKarten":4746,"ĠBedingungen":4747,"ĠerhÃ¤lt":4748,"ifornien":4749,"industrie":4750,"bank":4751,"cy":4752,"fit":4753,"Ã¼h":4754,"Ġand":4755,"ĠTim":4756,"anda":4757,"Ġres":4758,"artige":4759,"Erstens":4760,"ĠMaterie":4761,"ĠWerkzeug":4762,"ĠverÃ¶ffentlicht":4763,"ĠDiskuss":4764,"fil":4765,"oge":4766,"Ġafrikan":4767,"ĠiP":4768,"ĠGang":4769,"ĠFacebook":4770,"beweg":4771,"Ġdavor":4772,"ĠSchrift":4773,"spl":4774,"Ġalleine":4775,"Ġsteigen":4776,"ĠRep":4777,"ĠsaÃŁ":4778,"Ġweiteres":4779,"okument":4780,"ĠLebensmittel":4781,"Ġ197":4782,"Ã¤lte":4783,"Ġsolch":4784,"hoden":4785,"ĠverfÃ¼g":4786,"ĠKomplexitÃ¤t":4787,"ost":4788,"ĠSal":4789,"ĠWunsch":4790,"recher":4791,"ĠOh":4792,"ufe":4793,"ĠAusbildung":4794,"Ġletztes":4795,"ĠQualitÃ¤t":4796,"Ġchem":4797,"ĠResult":4798,"ĠbenÃ¶tigen":4799,"ĠFortschritt":4800,"Ġverursacht":4801,"ĠbloÃŁ":4802,"Ġinvestieren":4803,"ĠUnterstÃ¼tzung":4804,"ĠAtmosphÃ¤re":4805,"vel":4806,"yr":4807,"tend":4808,"Ġhabt":4809,"ĠHaar":4810,"Ġschn":4811,"Ã¤hrung":4812,"Ġgewonnen":4813,"Ġbeschreiben":4814,"ĠGemeinde":4815,"digung":4816,"ĠKontakt":4817,"ĠDrittel":4818,"klÃ¤rung":4819,"dingt":4820,"ĠSoldaten":4821,"Ġhe":4822,"ĠPort":4823,"ĠTitel":4824,"ĠÃ¼berzeugt":4825,"ĠBef":4826,"Manche":4827,"Ġentwickelten":4828,"gewicht":4829,"how":4830,"ĠKorallen":4831,"ĠAufgaben":4832,"ĠSekunde":4833,"Ġkommunizieren":4834,"ĠsÃ¼":4835,"stimm":4836,"ĠSzen":4837,"Ġvern":4838,"ĠZiele":4839,"otograf":4840,"ĠspÃ¼r":4841,"halte":4842,"Ġbegeister":4843,"wirken":4844,"ĠAmeisen":4845,"ĠKlimawandel":4846,"imal":4847,"sÃ¤chlich":4848,"vollen":4849,"Ġus":4850,"Ġdauer":4851,"ong":4852,"Ġvir":4853,"ĠAuss":4854,"bereich":4855,"omat":4856,"zubringen":4857,"Ã¶rdern":4858,"urcht":4859,"Ġklingt":4860,"spielt":4861,"Ġschafft":4862,"indestens":4863,"ĠUniversums":4864,"Ġleider":4865,"eligi":4866,"ĠKlima":4867,"IDS":4868,"orm":4869,"ĠBrie":4870,"ĠDis":4871,"ĠHeil":4872,"ĠHund":4873,"Ġumgehen":4874,"Ġ2000":4875,"appen":4876,"schloss":4877,"losen":4878,"ĠFernsehen":4879,"ĠZentrum":4880,"ĠÃĸkosystem":4881,"ĠInsekten":4882,"ĠIntelligenz":4883,"ipp":4884,"kn":4885,"Ġzentr":4886,"arch":4887,"ĠAbst":4888,"ĠWandel":4889,"ĠKop":4890,"ĠFeld":4891,"reu":4892,"ĠÃ¼berzeugen":4893,"Ġneuer":4894,"ĠUntersuch":4895,"Ġunbedingt":4896,"ĠJugend":4897,"ĠbuchstÃ¤":4898,"ender":4899,"serv":4900,"ames":4901,"rÃ¼cke":4902,"Ġrel":4903,"hindern":4904,"ĠSee":4905,"Ġvermutlich":4906,"ĠwunderschÃ¶n":4907,"ĠSterne":4908,"ĠFÃ¤llen":4909,"Ġlautet":4910,"ournal":4911,"dimension":4912,"Ġmerk":4913,"Ġhaupt":4914,"auran":4915,"ĠFach":4916,"ĠerfÃ¼":4917,"ĠStÃ¤r":4918,"Ġrechten":4919,"ĠAuft":4920,"atell":4921,"ĠMitglie":4922,"ĠZusammenarbeit":4923,"hÃ¤ltnis":4924,"ĠHintergrund":4925,"Seit":4926,"ination":4927,"asi":4928,"eils":4929,"ĠBand":4930,"ĠBud":4931,"ĠKir":4932,"ĠEind":4933,"ĠTrans":4934,"Ġober":4935,"Ġtrau":4936,"Ġtolle":4937,"ĠCity":4938,"ĠÃľ":4939,"Ġherausgefunden":4940,"ĠBlog":4941,"ĠauÃŁerdem":4942,"Ġvollkommen":4943,"ĠOrganisationen":4944,"aurier":4945,"ĠdurchgefÃ¼hrt":4946,"frist":4947,"har":4948,"ĠWar":4949,"anne":4950,"Ġdieselbe":4951,"osoph":4952,"ford":4953,"Ġverbreitet":4954,"ĠGenom":4955,"Ġ196":4956,"ĠHandy":4957,"Ġunterschiedlichen":4958,"ĠHerausforderungen":4959,"ĠBabys":4960,"ĠJobs":4961,"impan":4962,"ĠÃ¼bertragen":4963,"ĠVogel":4964,"ca":4965,"Ġkrank":4966,"Ġinst":4967,"ĠMich":4968,"Ġgeha":4969,"ĠFein":4970,"ĠSpielen":4971,"steller":4972,"Inter":4973,"Ġwiederum":4974,"ĠSchwier":4975,"Ġfragten":4976,"ĠObjekte":4977,"ĠGrÃ¼nden":4978,"Ġdrehen":4979,"ĠbeschÃ¤ftigt":4980,"AuÃŁer":4981,"ĠWahrscheinlichkeit":4982,"Ġsorgen":4983,"Ġsitzt":4984,"ĠSÃ¤u":4985,"ĠKÃ¤":4986,"ĠDeut":4987,"Ġverdienen":4988,"Ã¤nn":4989,"ĠSpiele":4990,"Ġbesitzen":4991,"ĠProblemen":4992,"aterial":4993,"Ġsicherlich":4994,"Ġgestalten":4995,"Ġselber":4996,"ĠGesetze":4997,"krebs":4998,"fessor":4999,"ĠerklÃ¤rt":5000,"gument":5001,"mung":5002,"Ġ.":5003,"Ġwirst":5004,"ĠMc":5005,"ĠgefÃ¼hrt":5006,"ĠBal":5007,"ĠWest":5008,"lege":5009,"ĠFabr":5010,"ĠIrak":5011,"Ġbezahlen":5012,"ĠHunder":5013,"Ġentw":5014,"Ġspiel":5015,"Ġabsch":5016,"richtung":5017,"ĠGroÃŁteil":5018,"ehnt":5019,"fÃ¼hrung":5020,"ĠbenÃ¶tigt":5021,"ĠPlastik":5022,"Ġusw":5023,"ĠbuchstÃ¤blich":5024,"Selbst":5025,"fÃ¤lt":5026,"ling":5027,"ull":5028,"Ġbitten":5029,"Ġzuk":5030,"ĠEi":5031,"ĠIst":5032,"ĠZwe":5033,"ĠSchmerz":5034,"ĠChe":5035,"ĠRed":5036,"ruf":5037,"rid":5038,"Ġstecken":5039,"ternehmen":5040,"spieler":5041,"ĠLandwirtschaft":5042,"hÃ¶rt":5043,"folgt":5044,"Ġerstes":5045,"platz":5046,"lette":5047,"ĠJetzt":5048,"Ġerwartet":5049,"ĠVertrauen":5050,"oppelt":5051,"Ġindividu":5052,"ĠBasis":5053,"Ġat":5054,"ĠMasse":5055,"Ġgelangen":5056,"ĠBeine":5057,"isation":5058,"entwick":5059,"ĠStoff":5060,"ĠReich":5061,"ektor":5062,"ĠMex":5063,"ĠStellen":5064,"zeichen":5065,"ĠschÃ¶ne":5066,"ĠnatÃ¼rliche":5067,"ĠzufÃ¤llig":5068,"Bis":5069,"Nie":5070,"chtz":5071,"ieÃŁ":5072,"Ġsu":5073,"Ġsinn":5074,"Ã¼gel":5075,"ĠMobil":5076,"ĠWÃ¼":5077,"isierung":5078,"Ġsozusagen":5079,"Ġanderem":5080,"Ã¤tsel":5081,"istischen":5082,"Ġhinweg":5083,"ĠKonferenz":5084,"Ġbestimmen":5085,"front":5086,"Ã¤chtnis":5087,"ĠkÃ¼mmern":5088,"ĠstÃ¤rker":5089,"ĠIdentitÃ¤t":5090,"fert":5091,"grÃ¶":5092,"ring":5093,"iellen":5094,"Ġmindestens":5095,"Ã¶tet":5096,"Ġwerfen":5097,"Ġwohin":5098,"ĠreprÃ¤sent":5099,"fÃ¼gen":5100,"ada":5101,"hafte":5102,"ĠBildschirm":5103,"aktionen":5104,"Ġhohen":5105,"Ġdreht":5106,"ĠBrot":5107,"wissenschaft":5108,"Ġmodernen":5109,"ĠdÃ¼rfen":5110,"ĠzukÃ¼nft":5111,"air":5112,"pe":5113,"uh":5114,"Ġ&":5115,"Ġnah":5116,"Ġderzeit":5117,"ĠAffen":5118,"ĠGraf":5119,"ĠlÃ¤ch":5120,"ungskraft":5121,"teilung":5122,"ice":5123,"ĠStein":5124,"ĠMilliarde":5125,"Ġwissenschaftliche":5126,"ĠDienst":5127,"Ġmot":5128,"ĠSorgen":5129,"ĠMÃ¶":5130,"ĠFo":5131,"Ġaufw":5132,"Ġtra":5133,"Ġauseinander":5134,"ĠJo":5135,"Ġentwerfen":5136,"ĠRede":5137,"Ġsteckt":5138,"spielen":5139,"ĠzurÃ¼ckzu":5140,"Ġbeteil":5141,"Ġerinnert":5142,"Zweitens":5143,"ĠLeistung":5144,"ĠtÃ¤glich":5145,",\"":5146,"sse":5147,"ĠwÃ¤chst":5148,"ĠhÃ¤ngt":5149,"ala":5150,"iertes":5151,"ĠFest":5152,"ĠLos":5153,"Ġverle":5154,"ĠBett":5155,"Ġstolz":5156,"forschung":5157,"stellten":5158,"Ġlieber":5159,"leisch":5160,"Ġverwir":5161,"ĠKindheit":5162,"Ġfalsche":5163,"herapie":5164,"ĠMuseum":5165,"inosaurier":5166,"Chr":5167,"Durch":5168,"mann":5169,"win":5170,"Ã¤be":5171,"ĠDre":5172,"Ġverlie":5173,"Ġtausende":5174,"ĠdaÃŁ":5175,"ĠBeste":5176,"Ġreligi":5177,"Ġ150":5178,"ĠÃ¶ffentliche":5179,"band":5180,"iste":5181,"markt":5182,"chern":5183,"Ġdisk":5184,"ĠGold":5185,"ĠKen":5186,"Ġverfolgen":5187,"ĠRat":5188,"ĠRom":5189,"ĠNutzen":5190,"ĠSchn":5191,"ungssystem":5192,"Ġinteragieren":5193,"ĠStaat":5194,"ĠForscher":5195,"ĠGolf":5196,"Ġirgendwann":5197,"gs":5198,"iag":5199,"sh":5200,"Ġrad":5201,"Ġel":5202,"Ġeinsetzen":5203,"schau":5204,"ĠBildern":5205,"ĠerÃ¶ff":5206,"ĠTrain":5207,"Ġscheinen":5208,"ĠGefahr":5209,"ĠColle":5210,"Ġweiteren":5211,"ĠKontext":5212,"Ġglaubt":5213,"ĠChin":5214,"ĠAustr":5215,"Ġverwandeln":5216,"Ġinteressanter":5217,"Ġtesten":5218,"ĠgetÃ¶tet":5219,"Ġweder":5220,"ĠStrukturen":5221,"jÃ¤hrigen":5222,"ĠÃ¼berrascht":5223,"ĠErinnerung":5224,"30":5225,"uern":5226,"zeiten":5227,"Ġ,":5228,"Ġignor":5229,"ĠSatell":5230,"Ġfragt":5231,"Ġans":5232,"ĠSchimpan":5233,"ĠProj":5234,"klus":5235,"ĠGerÃ¤te":5236,"nitt":5237,"ausenden":5238,"ĠModelle":5239,"ĠThemen":5240,"Ġperfekt":5241,"ĠMotor":5242,"ĠtÃ¶ten":5243,"ĠKaffe":5244,"aptop":5245,"gabe":5246,"macht":5247,"schm":5248,"urf":5249,"ĠEcke":5250,"Ġschlie":5251,"ĠVerkehr":5252,"adem":5253,"geladen":5254,"alisiert":5255,"ibel":5256,"ĠOnline":5257,"ĠInstitutionen":5258,"ĠÃĦnder":5259,"ĠhauptsÃ¤chlich":5260,"Mir":5261,"frieden":5262,"lÃ¶s":5263,"nissen":5264,"pag":5265,"weit":5266,"onom":5267,"ĠPaar":5268,"ĠDir":5269,"Ġverein":5270,"ĠTw":5271,"ĠTau":5272,"ĠHil":5273,"Ġlaut":5274,"ĠGest":5275,"ĠSchwei":5276,"Ġweiss":5277,"achtung":5278,"riz":5279,"ĠTeilchen":5280,"ĠAutor":5281,"Ġletztendlich":5282,"programm":5283,"ĠGegenteil":5284,"inkel":5285,"Ġhalte":5286,"ĠFÃ¼hrung":5287,"ĠKalifornien":5288,"ĠÃĸffent":5289,"Kl":5290,"MS":5291,"idem":5292,"wahl":5293,"anst":5294,"Ġmathemat":5295,"ĠEm":5296,"ĠFÃ¼r":5297,"ĠLern":5298,"ĠRahmen":5299,"Ġschick":5300,"Ġtue":5301,"utt":5302,"ĠSchau":5303,"Ġverbracht":5304,"Ġwichtigste":5305,"Ġinteressieren":5306,"ĠmÃ¶glicherweise":5307,"gendetwas":5308,"ĠHeimat":5309,"krank":5310,"lÃ¤ss":5311,"nimmt":5312,"ry":5313,"eiste":5314,"ĠSyn":5315,"ĠFran":5316,"ĠschlieÃŁen":5317,"ĠNorden":5318,"Ġaussch":5319,"Ġgegenseit":5320,"ĠnÃ¤chstes":5321,"ĠSep":5322,"ĠWahrnehm":5323,"ĠBruder":5324,"ĠPrÃ¤sident":5325,"Ġbegeistert":5326,"dige":5327,"arb":5328,"bern":5329,"leg":5330,"ĠEing":5331,"ĠIran":5332,"Ġbegeg":5333,"ĠNation":5334,"ĠOder":5335,"quenzen":5336,"Ġ400":5337,"ĠvollstÃ¤ndig":5338,"ĠgefÃ¤hrlich":5339,"ĠAktivitÃ¤t":5340,"Ġvorhanden":5341,"ĠLieblings":5342,"ĠKohlenstoff":5343,"Gut":5344,"Letz":5345,"ĠX":5346,"Ġdeinen":5347,"atoren":5348,"ĠMos":5349,"ĠFische":5350,"Ġausb":5351,"Ġregel":5352,"Ġgener":5353,"Ġgewisse":5354,"verstÃ¤nd":5355,"Ġbesseren":5356,"aktiv":5357,"ĠDepress":5358,"Ġeingesetzt":5359,"Ġversuchten":5360,"ĠBauern":5361,"jÃ¤hrige":5362,"Ġgehabt":5363,"bliche":5364,"eider":5365,"Ġmer":5366,"ĠMeilen":5367,"ĠAsp":5368,"Ġfrage":5369,"ĠLiter":5370,"Ġverhindern":5371,"ĠVÃ¶":5372,"ĠVision":5373,"Ġausgeb":5374,"ĠJungs":5375,"reite":5376,"ingu":5377,"wood":5378,"Ġgesund":5379,"richtungen":5380,"Ġschlimmer":5381,"ĠBoot":5382,"Ġschwarz":5383,"ĠChris":5384,"Ġkreativ":5385,"Ko":5386,"hi":5387,"hmen":5388,"hÃ¤user":5389,"Ġzunehmen":5390,"alte":5391,"Ġantwor":5392,"amt":5393,"ĠZimmer":5394,"ĠAuÃŁen":5395,"ĠerzÃ¤hle":5396,"ĠSprachen":5397,"ĠVerhaltens":5398,"Ġexistieren":5399,"Ġamerikanische":5400,"Ġbasiert":5401,"ĠGalaxien":5402,"bahn":5403,"stau":5404,"Ġbieten":5405,"Ġerster":5406,"ĠDinosaurier":5407,"ĠTre":5408,"ĠGewebe":5409,"spiels":5410,"ĠVerstand":5411,"Ġstelle":5412,"Ġgewisser":5413,"langt":5414,"ĠKohle":5415,"ĠFilme":5416,"Ġwunderbare":5417,"Ġstarb":5418,"ĠVideos":5419,"Ġnormalen":5420,"Ġhohe":5421,"Zuerst":5422,"Ġbemerkt":5423,"ĠEngland":5424,"Ġvirtu":5425,"ĠÃĸffentlichkeit":5426,"ĠSeptember":5427,"blichkeit":5428,"kle":5429,"sweise":5430,"yl":5431,"Ġdauert":5432,"ieben":5433,"Ġsauber":5434,"Ġeinsch":5435,"Ã¼hr":5436,"ĠMaus":5437,"ĠgÃ¤be":5438,"ĠFleisch":5439,"amin":5440,"ĠHaufen":5441,"omit":5442,"Ġirgendetwas":5443,"ĠAugenblick":5444,"ĠMilitÃ¤r":5445,"Ġpraktisch":5446,"ĠNerven":5447,"schule":5448,"The":5449,"afrika":5450,"sver":5451,"ĠĠ":5452,"asste":5453,"Ġeint":5454,"Ġeinst":5455,"ĠPu":5456,"ĠHÃ¤nden":5457,"ĠRand":5458,"ĠschÃ¶nen":5459,"ĠStift":5460,"Ġdurchschnitt":5461,"Ġunterscheiden":5462,"Ġarbeiteten":5463,"Ã¤ngst":5464,"Ġteuer":5465,"kehren":5466,"Ġabsol":5467,"Ġunterschiedlich":5468,"ĠBrenn":5469,"ĠElektro":5470,"ĠFrem":5471,"Ġholen":5472,"Ġpriv":5473,"Ġentworfen":5474,"fragen":5475,"po":5476,"rennen":5477,"Ġnannte":5478,"Ġkennt":5479,"ĠMI":5480,"ĠGut":5481,"ĠCon":5482,"ĠSpekt":5483,"echsel":5484,"Ġwenigen":5485,"fahrt":5486,"Ã¤dt":5487,"hingt":5488,"ĠFolge":5489,"Ġhunderte":5490,"ĠErkenntnis":5491,"Ġverantwortlich":5492,"ds":5493,"mutter":5494,"port":5495,"swert":5496,"unken":5497,"Ġmeist":5498,"Ġfiel":5499,"ĠBras":5500,"reien":5501,"Ġ35":5502,"utzer":5503,"problem":5504,"Statt":5505,"ĠExperten":5506,"ĠStress":5507,"Ġkurze":5508,"ĠLaufe":5509,"ĠGesprÃ¤ch":5510,"chtzeit":5511,"ex":5512,"ly":5513,"nehmer":5514,"Ġeiniger":5515,"ĠSil":5516,"ĠMechan":5517,"ĠLog":5518,"Ġschien":5519,"Ġlinken":5520,"ĠVerletz":5521,"ĠInner":5522,"Ġlebte":5523,"Ġherr":5524,"ologisch":5525,"agement":5526,"ĠGedanke":5527,"ĠPatient":5528,"ĠSchwester":5529,"fÃ¤higkeit":5530,"Ġschaute":5531,"ĠprÃ¤sent":5532,"Ġbeantworten":5533,"ĠDavid":5534,"hington":5535,"iden":5536,"kan":5537,"zy":5538,"ichard":5539,"Ġneg":5540,"Ġkap":5541,"ierer":5542,"Ġgehalten":5543,"ĠWesent":5544,"ĠWettbewer":5545,"ĠEhe":5546,"ĠTer":5547,"eucht":5548,"werden":5549,"artigen":5550,"wegs":5551,"Ġmeistens":5552,"Ġsexu":5553,"Ġbemerk":5554,"ĠElektron":5555,"ĠIsrael":5556,"ĠQuadrat":5557,"hte":5558,"keln":5559,"Ġdritten":5560,"schrift":5561,"ĠWill":5562,"ĠaufhÃ¶ren":5563,"Ġsomit":5564,"ĠHall":5565,"ĠNor":5566,"ĠkÃ¶nnt":5567,"hlung":5568,"ĠOx":5569,"Ġnochmal":5570,"ulieren":5571,"ĠmÃ¼sste":5572,"ĠGras":5573,"ĠlieÃŁen":5574,"Ġangesehen":5575,"ĠSozial":5576,"nost":5577,"Ġwichtigen":5578,"Ġsetzt":5579,"ĠGlob":5580,"ĠRestauran":5581,"Ġentstanden":5582,"vention":5583,"Ġentspricht":5584,"rgend":5585,"sichten":5586,"iesen":5587,"gegeben":5588,"ĠMund":5589,"ĠLaptop":5590,"bewesen":5591,"ĠZÃ¤":5592,"agiert":5593,"ĠBeweis":5594,"Ġeigent":5595,"ĠLied":5596,"ĠDeb":5597,"ĠDefin":5598,"Ġhalb":5599,"Ġhoffentlich":5600,"ĠTrend":5601,"mÃ¤ÃŁig":5602,"ĠKonflikt":5603,"bas":5604,"cis":5605,"heim":5606,"pret":5607,"ietet":5608,"schauer":5609,"Ġkom":5610,"Ġfotograf":5611,"ĠFehl":5612,"Ġvergleichen":5613,"ĠHom":5614,"ĠSchei":5615,"ĠInnen":5616,"ognit":5617,"ĠSpr":5618,"ĠUN":5619,"ungsk":5620,"Ã¤use":5621,"ĠLandschaft":5622,"Ġbekamen":5623,"Jede":5624,"ĠPhys":5625,"Ġallerdings":5626,"ĠGegensatz":5627,"Ġerkannte":5628,"Ġerlebt":5629,"ĠMolekÃ¼le":5630,"maschine":5631,"ĠKÃ¶rpers":5632,"Le":5633,"ahe":5634,"fische":5635,"eiger":5636,"Ġkauf":5637,"ĠDen":5638,"ĠDunk":5639,"igsten":5640,"ckten":5641,"Ġmitten":5642,"ĠCol":5643,"oth":5644,"eting":5645,"Ġklass":5646,"zelle":5647,"samt":5648,"ĠChir":5649,"Ġberech":5650,"Ġdennoch":5651,"ĠAlgorit":5652,"ĠSteuer":5653,"ĠMinute":5654,"ĠSpieler":5655,"hÃ¤ngig":5656,"ĠToi":5657,"sÃ¤tze":5658,"ĠKatastrop":5659,"ĠPerspektive":5660,"Ġtotal":5661,"ĠIndividuen":5662,"digt":5663,"Ġdran":5664,"ĠSehen":5665,"Ġzog":5666,"ĠMem":5667,"ĠAs":5668,"ĠFig":5669,"ĠPfl":5670,"Ġschm":5671,"usion":5672,"ĠNationen":5673,"ĠJournal":5674,"abei":5675,"Ġhergestellt":5676,"ĠIhres":5677,"Ġgenauer":5678,"ĠExperimente":5679,"Ġhoffen":5680,"ĠRadio":5681,"echtigkeit":5682,"gruppe":5683,"Ġeffektiv":5684,"ĠEindruck":5685,"Den":5686,"Dort":5687,"meister":5688,"pte":5689,"sionen":5690,"trag":5691,"anen":5692,"stÃ¤nden":5693,"ĠSamm":5694,"Ġnutzt":5695,"ĠMat":5696,"ĠfÃ¶rdern":5697,"rotz":5698,"ischt":5699,"ĠRÃ¤tsel":5700,"Ġdemokrat":5701,"ĠAnw":5702,"ĠWashington":5703,"Ġirgendein":5704,"Ġmusst":5705,"gewalt":5706,"Ġschlechter":5707,"Ġroten":5708,"ĠDimen":5709,"riffe":5710,"ĠMedikament":5711,"Ġstammt":5712,"ĠCollege":5713,"pft":5714,"wachstum":5715,"ĠMomen":5716,"ĠAma":5717,"ĠWichtig":5718,"ĠKrÃ¤fte":5719,"ĠEffekt":5720,"ologe":5721,"igend":5722,"ĠBeob":5723,"rippe":5724,"ĠZeitalter":5725,"ĠGrenze":5726,"Ġbrauchten":5727,"ica":5728,"Ġgelesen":5729,"ĠQuanten":5730,"Ġgestern":5731,"wÃ¤rt":5732,"Ġerscheinen":5733,"ates":5734,"dlichen":5735,"finieren":5736,"gyp":5737,"rasch":5738,"Ġzahlen":5739,"eskop":5740,"ĠGanze":5741,"ĠWellen":5742,"ĠKomb":5743,"Ġverf":5744,"Ġaufbauen":5745,"Ġschlau":5746,"Ġlernt":5747,"Ġtrin":5748,"ĠNan":5749,"ĠInsel":5750,"ogar":5751,"Ġvieler":5752,"hmus":5753,"Ġprogramm":5754,"eicher":5755,"Ġentwickelte":5756,"ordnung":5757,"ĠBewegungen":5758,"Ġbrachten":5759,"ĠGleiche":5760,"ĠDiagramm":5761,"ĠEntdeckung":5762,"ĠGehirne":5763,"Ġanalys":5764,"ĠTwitter":5765,"Falls":5766,"Techn":5767,"aster":5768,"vard":5769,"Ġechten":5770,"Ġzuzu":5771,"ĠMÃ¼tter":5772,"ĠGar":5773,"Ġerfinden":5774,"ĠPfer":5775,"Ġwieso":5776,"Ġtausend":5777,"ĠOpt":5778,"osm":5779,"riften":5780,"Ġwelchen":5781,"Ġbrauche":5782,"ondere":5783,"ĠUnternehmer":5784,"Ġstarke":5785,"ĠForschungs":5786,"ĠMission":5787,"Ġreduzieren":5788,"ĠSatelliten":5789,"ichen":5790,"ĠAkt":5791,"acher":5792,"ĠGas":5793,"Unter":5794,"ĠTie":5795,"ĠImpf":5796,"rechte":5797,"Ġbeschlossen":5798,"Ġaufs":5799,"Ġaufgew":5800,"ĠStimmen":5801,"ĠRechte":5802,"akte":5803,"Ġschlagen":5804,"skop":5805,"Ġverschwinden":5806,"ĠpersÃ¶nlich":5807,"Ġbezahlt":5808,"Ġrelativ":5809,"Ġdiskut":5810,".,":5811,"Kann":5812,"ld":5813,"use":5814,"yse":5815,"Ġag":5816,"Ġeindeut":5817,"test":5818,"ĠAtem":5819,"ĠGi":5820,"Ġoh":5821,"ĠtrÃ¤gt":5822,"ĠZell":5823,"ĠSchne":5824,"rauchen":5825,"ĠErleb":5826,"ruption":5827,"etrie":5828,"ĠSpiegel":5829,"erseits":5830,"Ã¤hren":5831,"bares":5832,"Ġverbrachte":5833,"Ġwahre":5834,"ĠHinsicht":5835,"Ġnormale":5836,"ĠKontin":5837,"ĠPolitiker":5838,"Ġbeinhal":5839,"AuÃŁerdem":5840,"rizitÃ¤t":5841,"ĠBrasilien":5842,"Eigen":5843,"lÃ¤uf":5844,"ĠSens":5845,"ĠzunÃ¤chst":5846,"ĠBein":5847,"ĠElef":5848,"ĠFett":5849,"hek":5850,"Ġverbreiten":5851,"adel":5852,"ĠZucker":5853,"elev":5854,"Ġgestorben":5855,"Ġengl":5856,"ĠGemeinden":5857,"kosten":5858,"ĠMetap":5859,"ĠMethoden":5860,"ĠVorteil":5861,"ĠFolgendes":5862,"Ġintegr":5863,"ĠMilch":5864,"Ġreichen":5865,"ĠGesundheitswesen":5866,"Ġstudieren":5867,"Ġlustig":5868,"ĠSchimpansen":5869,"200":5870,"aff":5871,"dru":5872,"wagen":5873,"ĠrÃ¼ck":5874,"ĠmÃ¤nn":5875,"Ã¼te":5876,"Ġzeit":5877,"ĠFle":5878,"ĠFakten":5879,"ĠDam":5880,"Ġbehalten":5881,"Ġlas":5882,"ĠNA":5883,"reisen":5884,"ĠCom":5885,"Ġvorber":5886,"olly":5887,"ĠZuhause":5888,"Ġstarten":5889,"ĠLinien":5890,"amerika":5891,"Ġidentif":5892,"OK":5893,"umm":5894,"uck":5895,"Ġfuhr":5896,"ĠKrise":5897,"ĠHyp":5898,"ĠVerbr":5899,"rÃ¼ben":5900,"ĠAnsicht":5901,"ĠabhÃ¤ngig":5902,"Ã¼nf":5903,"ĠAusmaÃŁ":5904,"schland":5905,"ĠStaats":5906,"fordert":5907,"Ġkurzem":5908,"ĠFolgen":5909,"Ġkurzen":5910,"ĠDetails":5911,"Ã¶pfe":5912,"Ġtiefer":5913,"ĠnÃ¶tig":5914,"Mann":5915,"ham":5916,"jahr":5917,"ux":5918,"wach":5919,"Ġzahl":5920,"ĠkÃ¶rper":5921,"auchen":5922,"ĠAspekt":5923,"ĠfÃ¤ngt":5924,"ĠgeÃ¤ndert":5925,"ĠEmpf":5926,"ĠjÃ¤hr":5927,"ĠLebewesen":5928,"Ġnieder":5929,"ĠKlein":5930,"ĠKlang":5931,"Ġvermittel":5932,"ĠBuchst":5933,"ĠAtom":5934,"Ġhalbe":5935,"ĠOrganismen":5936,"ĠGenerationen":5937,"ĠMikroben":5938,"Ġschwarze":5939,"Ġmedizinische":5940,"ĠPrototyp":5941,"ĠkÃ¼rzlich":5942,"ĠAustralien":5943,"ĠFrancis":5944,"?âĢľ":5945,"Ab":5946,"hÃ¼":5947,"osen":5948,"Ã©":5949,"ara":5950,"itt":5951,"ĠKrit":5952,"Ġangeb":5953,"ĠLaden":5954,"Ġvergangen":5955,"ĠNiger":5956,"ike":5957,"Ġentgegen":5958,"Ġheran":5959,"antas":5960,"ĠInteressen":5961,"ĠExistenz":5962,"ĠgehÃ¶ren":5963,"ĠNetzwerke":5964,"mÃ¶glichkeiten":5965,"ĠWebsite":5966,"ĠArbeiten":5967,"ĠElemente":5968,"Chris":5969,"Sind":5970,"mehr":5971,"oc":5972,"ĠdrÃ¼ben":5973,"Ġmeiste":5974,"Ã¼ge":5975,"ĠzÃ¤hlen":5976,"atik":5977,"Ġfern":5978,"ĠfÃ¤h":5979,"Ġgetr":5980,"umb":5981,"ĠTanz":5982,"ischem":5983,"Ġpar":5984,"Ġwobei":5985,"Ġlebten":5986,"Ġreicht":5987,"rachten":5988,"Ġbegrenz":5989,"merzen":5990,"Ġzusammenge":5991,"ĠWeile":5992,"Ġ45":5993,"Ġgeschickt":5994,"Ġdefinieren":5995,"ohnt":5996,"Ġbeobachtet":5997,"ĠbeschÃ¤ftigen":5998,"ĠnatÃ¼rlichen":5999,"ĠKonflik":6000,"Ġoptim":6001,"Ġblieb":6002,"ĠzugÃ¤nglich":6003,"ĠDiskussion":6004,"Keine":6005,"by":6006,"ube":6007,"Ġwechs":6008,"Ġeure":6009,"steigen":6010,"ĠSitz":6011,"Ġinform":6012,"aust":6013,"ĠWetter":6014,"ĠEd":6015,"uman":6016,"Ġbeschloss":6017,"Ġpasst":6018,"ĠProfessor":6019,"ĠCode":6020,"Ġentsprechen":6021,"ĠWeltraum":6022,"ĠVorfahren":6023,"ĠFlag":6024,"aturen":6025,"olitik":6026,"ĠTex":6027,"motionen":6028,"Ġwissenschaftlichen":6029,"Ġaufregend":6030,"IP":6031,"kr":6032,"Ġkomb":6033,"ĠGarten":6034,"ffer":6035,"Ġplan":6036,"ĠBeweise":6037,"Ġdarstellen":6038,"bliot":6039,"Ġrede":6040,"ĠUmfeld":6041,"scheint":6042,"ĠAbschluss":6043,"ĠStreit":6044,"Ġsprachen":6045,"Ġkomplexe":6046,"ĠIslam":6047,"ĠzerstÃ¶rt":6048,"verbrauch":6049,"ĠTrÃ¤ume":6050,"Ġmorgens":6051,"Ġgrundlegende":6052,"ĠGrafik":6053,"ĠWahrnehmung":6054,"Ok":6055,"part":6056,"ancen":6057,"stung":6058,"ĠungewÃ¶hn":6059,"Ġmass":6060,"ĠBri":6061,"Ġanwenden":6062,"ĠEmotionen":6063,"Ġerscheint":6064,"ĠPak":6065,"ĠDach":6066,"omben":6067,"ĠOber":6068,"ĠArmen":6069,"ĠAngel":6070,"ĠErklÃ¤rung":6071,"Ġsteigt":6072,"Ġspannen":6073,"ĠGeschlecht":6074,"edia":6075,"Ġverbindet":6076,"klen":6077,"ĠArbeitspl":6078,"ategor":6079,"Ġerkennt":6080,"Ġdram":6081,"ĠElektrizitÃ¤t":6082,"ĠViren":6083,"Ġtraditionellen":6084,"spielsweise":6085,"pon":6086,"tin":6087,"tial":6088,"Ġdauern":6089,"Ġwuchs":6090,"ones":6091,"Ġhistor":6092,"ĠKurz":6093,"ĠSchool":6094,"Ġdeswegen":6095,"ĠBest":6096,"Ġstop":6097,"Ã¤tigkeit":6098,"rufen":6099,"ĠGenau":6100,"Ġexper":6101,"Ġbeschleun":6102,"Ġfolgt":6103,"letten":6104,"Ġenorme":6105,"ĠEntwicklungslÃ¤ndern":6106,"ĠverfÃ¼gbar":6107,"ĠMIT":6108,"Zur":6109,"passt":6110,"ton":6111,"zon":6112,"onstr":6113,"Ġbat":6114,"Ġzut":6115,"einbar":6116,"ement":6117,"ichter":6118,"ĠAch":6119,"ĠBlau":6120,"ĠWik":6121,"Ġverschl":6122,"ĠTausende":6123,"Ġbewer":6124,"Ġla":6125,"ehren":6126,"ĠVerhÃ¤ltnis":6127,"Ġallgem":6128,"Ġklin":6129,"ersagen":6130,"endung":6131,"ĠEinfach":6132,"ĠKonse":6133,"Ġverwende":6134,"sichts":6135,"ĠQuelle":6136,"Ġausgest":6137,"ĠGedicht":6138,"umenten":6139,"Ġaufzubauen":6140,"ĠBesitz":6141,"wirkung":6142,"ĠÃ¼brig":6143,"ĠTests":6144,"ĠMaÃŁstab":6145,"ĠzerstÃ¶ren":6146,"ĠNachbarn":6147,"ĠKerl":6148,"Ġsetzte":6149,"ĠZitat":6150,"bewegung":6151,"ĠSchwierigkeiten":6152,"Niemand":6153,"Bitte":6154,"karte":6155,"mark":6156,"Ġ0":6157,"geber":6158,"Ġannehmen":6159,"ĠFischer":6160,"Ġerstellt":6161,"ĠPersÃ¶n":6162,"recken":6163,"Ġaufgebaut":6164,"ĠHack":6165,"ĠSchatten":6166,"rÃ¤umen":6167,"ĠÃĦgyp":6168,"ĠKapital":6169,"ografie":6170,"ĠWohlstand":6171,"ĠSolar":6172,"ĠTheater":6173,"Ġspielte":6174,"ĠZweck":6175,"Sehr":6176,"Trotz":6177,"mord":6178,"talien":6179,"enter":6180,"eise":6181,"ĠSen":6182,"ĠAIDS":6183,"ĠLang":6184,"ĠImp":6185,"ĠViertel":6186,"oler":6187,"herr":6188,"Ġgewissen":6189,"elles":6190,"ĠInteress":6191,"ĠMitarbeiter":6192,"ĠPlanet":6193,"Ġschlechten":6194,"ĠFreundin":6195,"Ġleid":6196,"ĠGrÃ¶ÃŁen":6197,"ĠFÃ¤lle":6198,"Ġruh":6199,"ographie":6200,"Obwohl":6201,"Ġwesentlich":6202,"ĠerwÃ¤hnt":6203,"ĠKaffee":6204,"Eigentlich":6205,"Ġvermitteln":6206,".Â«":6207,"Hey":6208,"gibt":6209,"ino":6210,"Ġabl":6211,"ĠSl":6212,"ĠSei":6213,"aria":6214,"gener":6215,"Ġbeit":6216,"orient":6217,"Ġverhalten":6218,"Ġumgeben":6219,"Ã¤ne":6220,"ĠmÃ¼ssten":6221,"rÃ¤ume":6222,"Ġzieht":6223,"ĠheiÃŁen":6224,"stren":6225,"ĠKreuz":6226,"Ġsolcher":6227,"ĠKorruption":6228,"ĠBereichen":6229,"ĠAlles":6230,"spruch":6231,"sprache":6232,"ĠnÃ¼tzlich":6233,"ĠTimes":6234,"Ġmotiv":6235,"verstÃ¤ndlich":6236,"rt":6237,"Ġunend":6238,"Ġmiss":6239,"Ã¤hm":6240,"ember":6241,"ĠauÃŁen":6242,"Ġgrau":6243,"Ġkannte":6244,"ĠVorstell":6245,"ĠAuff":6246,"Ġschaff":6247,"ĠKulturen":6248,"Ġformen":6249,"ĠKapit":6250,"ĠworÃ¼ber":6251,"ĠDNS":6252,"ĠNull":6253,"versorgung":6254,"zÃ¼glich":6255,"Ġenorm":6256,"Ġergibt":6257,"ĠErwachsenen":6258,"ĠwÃ¼":6259,"stu":6260,"Ġide":6261,"Ġnerv":6262,"ĠzusÃ¤tz":6263,"Ġinf":6264,"ĠMerk":6265,"Ġgep":6266,"rot":6267,"Ġtreten":6268,"ĠStau":6269,"erne":6270,"ulen":6271,"gerÃ¤t":6272,"ĠOrig":6273,"zieht":6274,"ĠKlin":6275,"ĠBerechn":6276,"ĠSeele":6277,"Ġrief":6278,"Ġentdeckte":6279,"ĠUrs":6280,"ĠNeues":6281,"ĠFernseh":6282,"ĠArchitekten":6283,"ĠNichts":6284,"Ġwirtschaftlichen":6285,"ĠMexiko":6286,"Mail":6287,"ael":6288,"bi":6289,"fir":6290,"jemand":6291,"nach":6292,"Ã¼lt":6293,"itiv":6294,"ĠBatter":6295,"Ġersetzen":6296,"ehlt":6297,"ĠRuss":6298,"ĠschÃ¤tzen":6299,"ĠJul":6300,"ĠVerw":6301,"ĠCent":6302,"igem":6303,"ĠAnrei":6304,"anzÃ¶s":6305,"Ġstill":6306,"Ġlangweil":6307,"ĠEntfern":6308,"gehend":6309,"ĠhÃ¶re":6310,"ĠFahrrad":6311,"ĠDurchschnitt":6312,"Ġgross":6313,"Ġquasi":6314,"ĠChemie":6315,"Ġgebeten":6316,"Ġschrecklich":6317,"ĠGerÃ¤usch":6318,"ĠHarvard":6319,"ĠfÃ¤hig":6320,"We":6321,"azi":6322,"res":6323,"Ġille":6324,"alk":6325,"Ġermut":6326,"ago":6327,"ikalien":6328,"ĠStart":6329,"ĠSchnitt":6330,"Ġvorne":6331,"ĠBestand":6332,"Ġstabil":6333,"Ġreal":6334,"indert":6335,"andert":6336,"icro":6337,"Ġmenschlicher":6338,"ĠgelÃ¶st":6339,"ĠVerbesser":6340,"ĠGewinn":6341,"Ġvermeiden":6342,"Ġstattdessen":6343,"ĠSituationen":6344,"Ġverbessert":6345,"ĠErwart":6346,"Ġbeinahe":6347,"Ġinspiriert":6348,"ĠVerlust":6349,"ĠGeheimnis":6350,"ĠZivilisation":6351,"ĠDeutschland":6352,"frei":6353,"nchen":6354,"pel":6355,"Ġdur":6356,"Ġheil":6357,"Ġgeist":6358,"ĠBon":6359,"ĠDrei":6360,"ĠIll":6361,"Ġbeweg":6362,"ĠÃ¼berprÃ¼":6363,"ĠInhalt":6364,"Ã¶ren":6365,"Ġentstand":6366,"Ġgering":6367,"ĠVoraus":6368,"Ġbetro":6369,"ĠInteraktion":6370,"Ġgefangen":6371,"issionen":6372,"ziehung":6373,"Ġrot":6374,"uropÃ¤":6375,"ĠBereiche":6376,"Ġwelchem":6377,"Ġuntersucht":6378,"ĠpersÃ¶nlichen":6379,"ĠArbeiter":6380,"ĠSignal":6381,"ĠBuchstaben":6382,"affe":6383,"linge":6384,"Ã¶pfen":6385,"lekul":6386,"ĠTonnen":6387,"ĠRiesen":6388,"Ġausger":6389,"Ġpoten":6390,"Ġvoran":6391,"ĠErzÃ¤hl":6392,"Ġhinten":6393,"ĠAuswahl":6394,"qualitÃ¤t":6395,"Ġlanger":6396,"Ġlangfrist":6397,"Jeden":6398,"Ġschwimmen":6399,"ĠpersÃ¶nliche":6400,"Ġnotwendig":6401,"ĠDefinition":6402,"Ger":6403,"Leute":6404,"Se":6405,"la":6406,"Ġdom":6407,"antes":6408,"ston":6409,"tels":6410,"ĠLes":6411,"Ġversp":6412,"ĠTor":6413,"euern":6414,"euert":6415,"weile":6416,"Ġherein":6417,"Ġbesuchen":6418,"samkeit":6419,"ĠVorh":6420,"ĠFlÃ¼cht":6421,"fernen":6422,"ĠGericht":6423,"ĠTeen":6424,"ĠKampag":6425,"ĠBedroh":6426,"zentrum":6427,"Nachdem":6428,"besondere":6429,"ĠunterstÃ¼tzt":6430,"ĠvergrÃ¶":6431,"ĠElement":6432,"ĠunabhÃ¤ngig":6433,"ĠWesentlichen":6434,"Wei":6435,"richtet":6436,"ummer":6437,"iein":6438,"artet":6439,"atische":6440,"Ġindustrie":6441,"ĠDoch":6442,"ĠLungen":6443,"Ġverteilt":6444,"ĠTun":6445,"ĠTrag":6446,"ilde":6447,"ĠAnteil":6448,"Ġstanden":6449,"gelassen":6450,"ĠWissens":6451,"âĢŀ":6452,"Ġseitdem":6453,"ĠGroÃŁmutter":6454,"Ġbesondere":6455,"lÃ¶sen":6456,"Ġschwieriger":6457,"ĠStudent":6458,"ĠerwÃ¤":6459,"ĠPost":6460,"sprung":6461,"ĠRisiken":6462,"ĠkÃ¼mmer":6463,"Ġfantastisch":6464,"grÃ¼ndet":6465,"ĠPassw":6466,"Ġwestlichen":6467,"ĠStrategie":6468,"bieten":6469,"com":6470,"ging":6471,"hung":6472,"ozi":6473,"teile":6474,"vol":6475,"einhalb":6476,"ĠWillen":6477,"amerikan":6478,"ĠRichard":6479,"ĠZahn":6480,"llektiv":6481,"omatisch":6482,"ĠAnwendung":6483,"Ġhierher":6484,"Ã¤tter":6485,"ĠSpezi":6486,"obald":6487,"flug":6488,"Ġversteht":6489,"Ġverstehe":6490,"leitet":6491,"Ġschlafen":6492,"ĠWerbung":6493,"ifiz":6494,"ĠSÃ¼den":6495,"owissen":6496,"Ġerstaunliche":6497,"ĠberÃ¼hrt":6498,"Ġbauten":6499,"ĠOperation":6500,"Ġdunkle":6501,"ĠAnderson":6502,"ĠNieder":6503,"ĠVÃ¶gel":6504,"Ġbeinhaltet":6505,"Beim":6506,"daten":6507,"nÃ¼":6508,"ĠdÃ¼n":6509,"int":6510,"Ġwes":6511,"Ġmut":6512,"Ġmult":6513,"ĠhÃ¼":6514,"hrop":6515,"denkt":6516,"Ġfundament":6517,"ĠWurz":6518,"ĠKurs":6519,"ĠLager":6520,"Ġbeweisen":6521,"ĠJan":6522,"ĠStock":6523,"ĠGegend":6524,"reibung":6525,"ĠOffen":6526,"Ġmeinte":6527,"undes":6528,"Ã¶rungen":6529,"ĠRechen":6530,"etik":6531,"Ġsteuern":6532,"ĠKongress":6533,"Ġlebens":6534,"Ġexpl":6535,"Ġbeschrieben":6536,"Ġfeststellen":6537,"diglich":6538,"Ġerhielt":6539,"fÃ¤hig":6540,"ĠGutes":6541,"Ġinternationalen":6542,"ĠErinnerungen":6543,"ĠWorld":6544,"ĠStÃ¤rke":6545,"Ġeindeutig":6546,"Irgend":6547,"Mehr":6548,"Sein":6549,"pol":6550,"rang":6551,"Ġdra":6552,"testen":6553,"Ã¤sser":6554,"Ġbietet":6555,"ĠEier":6556,"ĠEchtzeit":6557,"ĠTeu":6558,"Ġaufnehmen":6559,"kton":6560,"ĠStufe":6561,"weite":6562,"Ġvorzustellen":6563,"Ġdarunter":6564,"ĠenthÃ¤lt":6565,"ĠspÃ¤t":6566,"Ġstehe":6567,"Ġbesagt":6568,"Ġkonstru":6569,"Ġkollektiv":6570,"ĠChic":6571,"ĠStuhl":6572,"Ġform":6573,"ĠPrÃ¤sent":6574,"ĠPfund":6575,"drÃ¼ckt":6576,"ĠErkrank":6577,"Ġblauen":6578,"sammelt":6579,"Ġwirtschaftliche":6580,"Ġdigitalen":6581,"imeter":6582,"ĠGalaxie":6583,"ĠFrÃ¼h":6584,"Ġbelieb":6585,"wechsel":6586,"ĠKomment":6587,"lÃ¶sung":6588,"ĠKombination":6589,"Kon":6590,"Kein":6591,"blichen":6592,"pha":6593,"zig":6594,"Ġsucht":6595,"Ġsyn":6596,"Ġfurcht":6597,"ĠGot":6598,"elben":6599,"ĠBrÃ¼":6600,"ĠSchlei":6601,"Ġentfernen":6602,"Ġlediglich":6603,"Ġsparen":6604,"ĠgenÃ¼":6605,"Ġliefern":6606,"ĠHerren":6607,"Ġprofit":6608,"ida":6609,"omentan":6610,"ĠSchuld":6611,"boden":6612,"ĠBelohn":6613,"ĠChemikalien":6614,"staat":6615,"Ġetc":6616,"ĠInstrument":6617,"ĠBedÃ¼rfnisse":6618,"Ġfaszinierend":6619,"Ġvertraut":6620,"PS":6621,"oÃŁen":6622,"Ġstet":6623,"Ġsingen":6624,"aser":6625,"Ã¤fte":6626,"ĠAlle":6627,"Ġgesellschaft":6628,"Ġgespielt":6629,"ĠgegrÃ¼ndet":6630,"ĠKom":6631,"ĠPingu":6632,"ĠIr":6633,"ĠRoll":6634,"Ġtrag":6635,"ĠZauber":6636,"ĠÃ¼bernehmen":6637,"reif":6638,"rustr":6639,"etische":6640,"ringe":6641,"sah":6642,"Ġweiterer":6643,"haften":6644,"ĠgefÃ¤llt":6645,"mack":6646,"lÃ¼cklicherweise":6647,"Ġseid":6648,"Ġneur":6649,"ĠÃ¤hnliche":6650,"Ġgemeinsame":6651,"ĠKomponen":6652,"Ġfolgende":6653,"ĠRespekt":6654,"ĠGeistes":6655,"Ġlokalen":6656,"Ġspeziell":6657,"ĠPotential":6658,"ĠÃ¤uÃŁerst":6659,"ĠWolken":6660,"ĠBrief":6661,"10":6662,"bÃ¼r":6663,"bchen":6664,"burg":6665,"ippen":6666,"kreis":6667,"sum":6668,"Ġmin":6669,"geschw":6670,"ird":6671,"Ġinnov":6672,"ĠMess":6673,"Ġgelebt":6674,"ĠWel":6675,"ĠWild":6676,"Ġverab":6677,"ĠHem":6678,"ĠVern":6679,"Ġjunger":6680,"ags":6681,"Ġarmen":6682,"andelte":6683,"ideo":6684,"nose":6685,"iveau":6686,"ĠBibliot":6687,"ĠParad":6688,"Ġleichter":6689,"fession":6690,"ĠÃ¼berwinden":6691,"Ġkompliziert":6692,"ĠPhilosoph":6693,"ĠHelden":6694,"ĠZufall":6695,"gruppen":6696,"Ġkreieren":6697,"geregt":6698,"ĠHilfs":6699,"ĠFrancisco":6700,"ĠTeufel":6701,"Ent":6702,"zum":6703,"zesse":6704,"inkt":6705,"Ġsichtbar":6706,"ash":6707,"Ġzuge":6708,"benen":6709,"ĠBrÃ¼cke":6710,"ĠWinter":6711,"ley":6712,"Ġerz":6713,"ĠverÃ¤nderte":6714,"ĠTumor":6715,"ĠHei":6716,"ĠHunde":6717,"ĠRake":6718,"ĠfÃ¼rs":6719,"ĠCy":6720,"ĠOk":6721,"Ã¶rung":6722,"Ġdurchs":6723,"vermÃ¶gen":6724,"ĠzurÃ¼ckge":6725,"okus":6726,"ĠÃľberrasch":6727,"ĠMengen":6728,"nitten":6729,"lieÃŁend":6730,"sprozess":6731,"Ġstattf":6732,"ĠBauch":6733,"ĠOzeane":6734,"Ġbrill":6735,"Ġinternationale":6736,"Ġmoderne":6737,"ĠSymbol":6738,"ffizienz":6739,"Ġwirkliche":6740,"ĠEpidem":6741,"ĠMehrheit":6742,"Ġkriegen":6743,"Ġdurchschnittliche":6744,"ĠKontinent":6745,"fig":6746,"nungs":6747,"eier":6748,"ĠSkl":6749,"schriften":6750,"Ġkognit":6751,"Ġfil":6752,"ĠGro":6753,"ĠKr":6754,"ĠKrÃ¤":6755,"ĠPrim":6756,"ĠTa":6757,"ĠRot":6758,"ĠVielleicht":6759,"bevÃ¶lkerung":6760,"Ġmanchen":6761,"ĠBetr":6762,"anger":6763,"ĠEinheit":6764,"lied":6765,"unktionen":6766,"Ġglaubte":6767,"ĠNeben":6768,"Wieso":6769,"fahrer":6770,"ĠGrundlage":6771,"ĠgroÃŁartigen":6772,"Ġdrauf":6773,"wÃ¤rmung":6774,"ĠSicherheits":6775,"Ġgrundle":6776,"ĠKÃ¼ste":6777,"zwungen":6778,"ĠJahrzehnt":6779,"ĠDoktor":6780,"Ġdahinter":6781,"ĠErfindung":6782,"Ġakzeptieren":6783,"Ġtransport":6784,"ĠverblÃ¼":6785,"gas":6786,"hls":6787,"ole":6788,"inf":6789,"Ġarab":6790,"Ã¼hen":6791,"Ġbrit":6792,"Ġinnen":6793,"ĠAir":6794,"ĠAllt":6795,"Ġverring":6796,"Ġsoviel":6797,"Ġscheinbar":6798,"eilung":6799,"ĠSchÃ¤":6800,"ĠSchicks":6801,"Ġdieselben":6802,"ruh":6803,"Ã¼ssen":6804,"ĠGesamt":6805,"Ġverwandelt":6806,"ĠWeihn":6807,"Ġheisst":6808,"Ġfunktionierte":6809,"grenz":6810,"ĠYou":6811,"ĠJeder":6812,"ĠAktivitÃ¤ten":6813,"Ġfasziniert":6814,"Ġerweitern":6815,"ĠJahrzehnten":6816,"Ġgegenseitig":6817,"ĠMomente":6818,"-,":6819,"Erin":6820,"Leider":6821,"hÃ¤ngen":6822,"ĠwÃ¼s":6823,"ĠMoral":6824,"Ġfroh":6825,"berg":6826,"ĠWein":6827,"Ġangenommen":6828,"ison":6829,"llektu":6830,"ĠNase":6831,"ĠSchle":6832,"spiegel":6833,"ĠAnim":6834,"ĠErst":6835,"Ġvieles":6836,"ĠLebenser":6837,"ĠmÃ¶gliche":6838,"ĠEinstellung":6839,"Ã¼cken":6840,"ĠgewÃ¤hlt":6841,"Ġzeigten":6842,"leib":6843,"ĠAufnahme":6844,"ĠBildungs":6845,"ĠBlumen":6846,"ĠInterview":6847,"scheidet":6848,"ĠMalaria":6849,"Ġmenschliches":6850,"ĠGerechtigkeit":6851,"ĠPlatt":6852,"ĠGemÃ¤l":6853,"unkten":6854,"ĠGedÃ¤chtnis":6855,"ĠGegenwart":6856,"losigkeit":6857,"ĠChrist":6858,"Ġmedizinischen":6859,"Ġplatz":6860,"ĠerhÃ¶hen":6861,"ĠFabrik":6862,"ĠKenia":6863,"WÃ¼r":6864,"kungen":6865,"krie":6866,"ÃĦ":6867,"stud":6868,"eiern":6869,"gesamt":6870,"ĠSeh":6871,"ĠSam":6872,"ĠWÃ¤l":6873,"ĠKabel":6874,"ĠDamen":6875,"igste":6876,"rett":6877,"Ġvorzu":6878,"Ã¶rm":6879,"Ġrealen":6880,"rimin":6881,"ĠZeitung":6882,"zipl":6883,"ĠbestÃ¤t":6884,"ĠheiÃŁ":6885,"ruppen":6886,"ips":6887,"Ġunglaublichen":6888,"ĠVorteile":6889,"teln":6890,"arbeitung":6891,"ĠPflege":6892,"ĠSignale":6893,"Ġbaute":6894,"Andere":6895,"ĠEreignis":6896,"ĠStatistiken":6897,"ĠWÃ¼ste":6898,"Publikum":6899,"biert":6900,"iber":6901,"unternehmen":6902,"Ġeffizien":6903,"Ġmark":6904,"ĠStern":6905,"ĠGre":6906,"urer":6907,"ĠTop":6908,"Ġlog":6909,"Ġlachen":6910,"Ġallgemein":6911,"hnt":6912,"ĠEng":6913,"ĠUngleich":6914,"Ġbesitzt":6915,"ĠWirkung":6916,"ĠGebiete":6917,"ĠGemÃ¼":6918,"holfen":6919,"Ġ99":6920,"Ġrote":6921,"Ġunbek":6922,"Ġjener":6923,"ĠInnovationen":6924,"ĠSÃ¼dafrika":6925,"Ġelektron":6926,"ĠFortschritte":6927,"stoffen":6928,"ĠTerrorismus":6929,"ĠNASA":6930,"ĠPakistan":6931,"Al":6932,"Ges":6933,"Welche":6934,"bungen":6935,"flekt":6936,"fÃ¶rm":6937,"mechan":6938,"uhren":6939,"Ġsenden":6940,"atastrop":6941,"ĠfÃ¤hrt":6942,"Ġgra":6943,"Ġgeschlossen":6944,"ĠBarr":6945,"ĠWechsel":6946,"Ġansieht":6947,"ĠFliegen":6948,"Ġbezeichnen":6949,"ĠHor":6950,"ĠRhy":6951,"ĠlÃ¤nd":6952,"bek":6953,"ĠSchritte":6954,"ĠOpen":6955,"osh":6956,"ĠLektion":6957,"ettet":6958,"Ġarme":6959,"Ġbesseres":6960,"Ġgefallen":6961,"ĠÃľberzeug":6962,"Ġfalschen":6963,"ĠGesichter":6964,"ĠNeurowissen":6965,"erstÃ¶rung":6966,"linie":6967,"ĠSympt":6968,"ĠBillionen":6969,"Naja":6970,"ĠÃ¼berraschend":6971,"ĠTeleskop":6972,"ĠUntersuchung":6973,"ĠKirche":6974,"ĠLiteratur":6975,"ĠDunkel":6976,"ĠErlebnis":6977,"ĠChicago":6978,"Dollar":6979,"far":6980,"nÃ¼tz":6981,"tage":6982,"anc":6983,"gesetz":6984,"schicht":6985,"esie":6986,"Ġzust":6987,"itation":6988,"Ġintens":6989,"ĠWelten":6990,"ĠPan":6991,"ĠTrau":6992,"ĠTief":6993,"ĠTradition":6994,"Ġleiten":6995,"ĠÃ¼berlegen":6996,"reibe":6997,"spar":6998,"ney":6999,"Ġdargestellt":7000,"ĠweiÃŁen":7001,"ulpt":7002,"Ġkonfront":7003,"Erst":7004,"samen":7005,"ĠBlatt":7006,"Ġbedeut":7007,"ĠExp":7008,"ĠPhot":7009,"ĠInformations":7010,"ĠRoh":7011,"Ġ75":7012,"ĠKriegs":7013,"Ġbekomme":7014,"ĠgrundsÃ¤tzlich":7015,"ĠErdbe":7016,"Ġanfing":7017,"Ġautomatisch":7018,"ĠWebseite":7019,"ĠStammzellen":7020,"ĠTransport":7021,"Ġbehaupten":7022,"Ġzeichnen":7023,"bÃ¼cher":7024,"ĠRussland":7025,"beln":7026,"kor":7027,"kal":7028,"lim":7029,"mar":7030,"oÃŁ":7031,"wen":7032,"ĠShow":7033,"ĠAstr":7034,"ĠWagen":7035,"ĠDat":7036,"Ġschne":7037,"Ã¶nt":7038,"ĠJun":7039,"andid":7040,"ĠRech":7041,"Ġspringen":7042,"ĠdurchfÃ¼hren":7043,"ĠUni":7044,"ĠEinstein":7045,"Ġhinunter":7046,"rÃ¤ger":7047,"verhalten":7048,"Ġzusammenzu":7049,"reiche":7050,"Ġwillst":7051,"Ġextra":7052,"Ġgebraucht":7053,"ĠHindern":7054,"mitteln":7055,"zeigen":7056,"ĠFolie":7057,"ĠBesonder":7058,"Ġperfekte":7059,"ĠiPh":7060,"Ġdauerte":7061,"ĠSÃ¤uget":7062,"Ġaufgewachsen":7063,"ĠElefanten":7064,"Ġwechseln":7065,"ĠAngeles":7066,"ĠGottes":7067,"Ach":7068,"Dabei":7069,"Ex":7070,"dam":7071,"mensch":7072,"Ġra":7073,"star":7074,"Ġmoch":7075,"schiff":7076,"Ġzufrieden":7077,"ĠMio":7078,"ĠAss":7079,"Ġfingen":7080,"ĠBem":7081,"ĠBur":7082,"ĠPaten":7083,"ĠLab":7084,"Ġverz":7085,"ĠTom":7086,"ĠTour":7087,"ĠTheor":7088,"Ġsowas":7089,"Ġausgew":7090,"ĠÃ¼berein":7091,"ĠwofÃ¼r":7092,"menge":7093,"bstoff":7094,"fliegen":7095,"lernen":7096,"probieren":7097,"ktivitÃ¤t":7098,"Ġ600":7099,"iban":7100,"Ġbeobachte":7101,"ĠSternen":7102,"ĠTrick":7103,"ĠfÃ¼hrten":7104,"ĠFÃ¼hrer":7105,"Ġreisen":7106,"ysikal":7107,"Damals":7108,"ĠLÃ¶cher":7109,"ĠMetapher":7110,"Seine":7111,"System":7112,"ahnen":7113,"ober":7114,"dert":7115,"see":7116,"ĠPaul":7117,"ĠHunger":7118,"Ġlanden":7119,"Ġthe":7120,"Ġtrans":7121,"ĠNutzung":7122,"ĠStahl":7123,"Ġbeibringen":7124,"ĠUnfall":7125,"zepte":7126,"ĠChancen":7127,"ĠVorstellungen":7128,"ĠZuschauer":7129,"quelle":7130,"Ġbekannten":7131,"ĠAbsicht":7132,"ĠVerbrechen":7133,"noten":7134,"haltigkeit":7135,"ĠGemeinschaften":7136,"Ġerwachsen":7137,"Ġverschwunden":7138,"ĠMagaz":7139,"ĠPrinzipien":7140,"wissenschaften":7141,"Ġdigitale":7142,"Ġbemerkenswer":7143,"Ġpositive":7144,"ĠGeburtstag":7145,"ĠAfrikas":7146,"ĠResultat":7147,"Ġmerken":7148,"antasie":7149,"Sogar":7150,"Wor":7151,"phen":7152,"ĠdrÃ¼cken":7153,"gefÃ¼":7154,"schÃ¤tzen":7155,"ores":7156,"ĠGanz":7157,"ĠPri":7158,"Ġumher":7159,"ĠOkt":7160,"ĠAnnahme":7161,"Ġbeispielsweise":7162,"Ġ23":7163,"Ġzweimal":7164,"Ġberichten":7165,"ics":7166,"Ġ2008":7167,"ĠverknÃ¼":7168,"Ġstarben":7169,"Ġvertrauen":7170,"Ġgemeinsamen":7171,"Ġblaue":7172,"Ġlokale":7173,"ĠMolekÃ¼l":7174,"Ġtrafen":7175,"schmutzung":7176,"Ġbemerkte":7177,"Amer":7178,"ackt":7179,"Ġult":7180,"steh":7181,"Ġachten":7182,"Ã¤tzt":7183,"ĠDia":7184,"ĠTri":7185,"stechn":7186,"Ġums":7187,"ĠInspir":7188,"ĠBevÃ¶lker":7189,"Ġdurchzu":7190,"Ġunteren":7191,"Ġbesorgt":7192,"Ġverstand":7193,"ĠUnterhaltung":7194,"ĠSkulpt":7195,"Ġphysikal":7196,"ĠDarstellung":7197,"Ġschwarzen":7198,"behÃ¶r":7199,"Ġkostenlos":7200,"ĠÃ¶k":7201,"ĠÃ¶konom":7202,"Ġafrikanischen":7203,"ĠAussage":7204,"Stattdessen":7205,"Ġtrinken":7206,"Danach":7207,"karten":7208,"messen":7209,"tÃ¤u":7210,"Ġhielten":7211,"Ã¤hl":7212,"Ġgeholfen":7213,"ĠTÃ¶":7214,"ĠHandel":7215,"Ġok":7216,"Ġdarstellt":7217,"ĠWeltkrieg":7218,"ĠSpann":7219,"barer":7220,"ĠselbstverstÃ¤ndlich":7221,"ĠAusstellung":7222,"Ġirgendjemand":7223,"ĠPhase":7224,"ĠhÃ¶rten":7225,"Ġaltern":7226,"holz":7227,"ibiot":7228,"Ġbeeindru":7229,"ĠSkel":7230,"ĠBesuch":7231,"Ġkomplexen":7232,"Ġspeziellen":7233,"ĠKanada":7234,"leistungen":7235,"schneiden":7236,"Ġsogenannte":7237,"wahrscheinlich":7238,"cyc":7239,"ĠNigeria":7240,"azif":7241,"ĠgenÃ¼gend":7242,"Etwas":7243,"Sobald":7244,"aos":7245,"ep":7246,"ih":7247,"lager":7248,"muster":7249,"zn":7250,"eidet":7251,"Ġmechan":7252,"schaut":7253,"Ã¤um":7254,"Ġbaut":7255,"ĠMult":7256,"ĠAktion":7257,"ĠgÃ¼nst":7258,"tere":7259,"ĠBundes":7260,"ĠEmp":7261,"ĠFlie":7262,"Ġerm":7263,"Ġerhe":7264,"ĠPopul":7265,"ehrt":7266,"ĠNoten":7267,"Ã¤nner":7268,"ombe":7269,"ĠVerwand":7270,"ĠOhren":7271,"ĠAnwend":7272,"ĠstÃ¤dt":7273,"Ġlebe":7274,"atsÃ¤ch":7275,"ranche":7276,"Ġverlang":7277,"omputern":7278,"dienst":7279,"ordentlich":7280,"Ġsozial":7281,"Ġoffenen":7282,"ahnsinn":7283,"ĠStrand":7284,"Ġlangsamer":7285,"Ġbiologische":7286,"leistung":7287,"zweif":7288,"Ġisol":7289,"Ġstaat":7290,"ĠgrÃ¼nen":7291,"ĠAsien":7292,"ĠVorstellungskraft":7293,"ĠTeenager":7294,"Ganz":7295,"GroÃŁ":7296,"Sol":7297,"ias":7298,"modell":7299,"preis":7300,"ses":7301,"Ġenden":7302,"chtern":7303,"Ġwisst":7304,"ĠeuropÃ¤":7305,"stÃ¶":7306,"ĠSMS":7307,"Ġnannten":7308,"Ġwirken":7309,"ĠAc":7310,"Ġanhand":7311,"ĠLachen":7312,"ĠTreib":7313,"Ġsolange":7314,"ĠVÃ¶lker":7315,"Ġtreiben":7316,"ĠtatsÃ¤ch":7317,"Ġjung":7318,"ĠJames":7319,"andt":7320,"ilen":7321,"Ġvorge":7322,"Ġenthalten":7323,"ĠRett":7324,"uliert":7325,"Ġ22":7326,"ĠGeschenk":7327,"Ã¼cke":7328,"Ġherausf":7329,"Ġeiniges":7330,"Ġbetreiben":7331,"zÃ¤hlen":7332,"ĠBericht":7333,"ĠweiÃŁe":7334,"ĠAbfall":7335,"ĠRegionen":7336,"ĠbeschrÃ¤n":7337,"Ġgebrochen":7338,"ĠMÃ¤nnchen":7339,"Ġerkannt":7340,"Deswegen":7341,"Ġkonzentriert":7342,"freund":7343,"athie":7344,"Ġorganisieren":7345,"Ġdunkel":7346,"Ġversteckt":7347,"ĠKlassenzimmer":7348,"gedacht":7349,"Ġsuper":7350,"Ġantwortete":7351,"Ġstoppen":7352,"ĠMerkmal":7353,"Ġbetroffen":7354,"ĠKampagne":7355,"ĠSchicksal":7356,"NA":7357,"Reg":7358,"Tube":7359,"groÃŁ":7360,"Ġdynam":7361,"gesellschaft":7362,"ony":7363,"ĠSamen":7364,"iritu":7365,"ĠAlt":7366,"Ġfehlt":7367,"Ġverglichen":7368,"isierte":7369,"Ġschwe":7370,"ĠVen":7371,"ktionen":7372,"ĠZent":7373,"ĠStad":7374,"ĠSchaden":7375,"ĠIns":7376,"ĠOst":7377,"ĠArgument":7378,"rÃ¼stung":7379,"Ġnachts":7380,"Ġnachgedacht":7381,"Ã¶rtlich":7382,"tztlich":7383,"Ġunterrichten":7384,"fÃ¼llt":7385,"duktiv":7386,"sterben":7387,"rittens":7388,"Ġzusammenarbeiten":7389,"aktor":7390,"ĠRegierungs":7391,"Ã¤ltigen":7392,"ipedia":7393,"Ġverkauf":7394,"kehrt":7395,"ĠÃ¶ffentlich":7396,"ĠKapitel":7397,"Ġworauf":7398,"ĠHotel":7399,"Ġfrem":7400,"Ġwertvoll":7401,"ĠSonnenlicht":7402,"Ġpositiv":7403,"Ã¤sth":7404,"ĠErnÃ¤hrung":7405,"ynamik":7406,"ĠEreignisse":7407,"ĠWiderstand":7408,"ĠFrankreich":7409,"Ġbeteiligt":7410,"ĠDebatte":7411,"ĠAmazon":7412,"ĠPrÃ¤sentation":7413,"bringt":7414,"nommen":7415,"punkte":7416,"uls":7417,"Ġ$":7418,"anal":7419,"standen":7420,"ĠhÃ¤ngen":7421,"Ġkop":7422,"Ġwirkt":7423,"ĠGrippe":7424,"ĠEth":7425,"ĠFutter":7426,"sens":7427,"ĠTit":7428,"Ġvoneinander":7429,"amour":7430,"Ġschreibt":7431,"Ġland":7432,"ĠZer":7433,"Ġwoher":7434,"Ġ1000":7435,"Ġrechte":7436,"Ġrepar":7437,"weich":7438,"Ġhinauf":7439,"okuss":7440,"ĠUnterricht":7441,"Ġanget":7442,"ersonen":7443,"plos":7444,"ĠQuellen":7445,"Ġausgesetzt":7446,"ĠMangel":7447,"mittag":7448,"sondern":7449,"Ġfreien":7450,"linien":7451,"ĠMotiv":7452,"ĠSonnensystem":7453,"ĠDieses":7454,"Ġmoralische":7455,"ĠGerÃ¤usche":7456,"ĠMÃ¤rkte":7457,"Ġtraurig":7458,"Ġbegegnen":7459,"ĠRestaurant":7460,"ollywood":7461,"Jemand":7462,"dliche":7463,"lad":7464,"oberflÃ¤che":7465,"Ġsuchte":7466,"Ġew":7467,"onien":7468,"ĠSm":7469,"Ġderselben":7470,"ĠMeine":7471,"alent":7472,"ĠAst":7473,"ĠAlex":7474,"ĠFokus":7475,"ĠPen":7476,"ĠPra":7477,"ĠTab":7478,"Ġbewirken":7479,"ions":7480,"ams":7481,"Ġumfassen":7482,"Ġpri":7483,"ĠGeorge":7484,"ĠVerd":7485,"ĠAnfÃ¼hrer":7486,"Ġreagiert":7487,"Ġ27":7488,"Ġeinfaches":7489,"gelt":7490,"scheinend":7491,"ĠUniversity":7492,"ĠBoston":7493,"ĠYor":7494,"own":7495,"ĠParis":7496,"ĠEigent":7497,"ĠFreiwill":7498,"Ġteilweise":7499,"ĠMagie":7500,"ĠSymm":7501,"ĠJahrzehnte":7502,"ĠRÃ¤ume":7503,"ĠWettbewerb":7504,"ieinhalb":7505,"geschwindigkeit":7506,"Ġgrundlegend":7507,"Bo":7508,"Sc":7509,"frau":7510,"lesen":7511,"teils":7512,"Ãľ":7513,"Ġdoppelt":7514,"inal":7515,"Ġsystem":7516,"Ġunmittel":7517,"Ġheilen":7518,"Ġzit":7519,"ĠAp":7520,"ĠGPS":7521,"Ġgelie":7522,"ĠKoll":7523,"ĠLa":7524,"ĠTur":7525,"ĠStan":7526,"ience":7527,"rÃ¼che":7528,"ĠSpan":7529,"Ġneugier":7530,"Ġglaubten":7531,"gebiet":7532,"Ġbetrieben":7533,"Ġbekannte":7534,"Ġirgendeine":7535,"ĠSchlacht":7536,"ĠKindes":7537,"ĠMusiker":7538,"Ġwenigstens":7539,"Ġentz":7540,"ĠSpielzeug":7541,"ĠVersuche":7542,"hof":7543,"Ġanschaut":7544,"Ġverdient":7545,"Ġweltweiten":7546,"Ġgrosse":7547,"ĠverÃ¶ffentlichen":7548,"imulation":7549,"Ġgekauft":7550,"ĠerhÃ¶ht":7551,"Ġreduziert":7552,"ĠArmee":7553,"Ġvergangenen":7554,"ĠEntfernung":7555,"Ġweshalb":7556,"ĠYouTube":7557,"ĠiPhone":7558,"hir":7559,"manden":7560,"oder":7561,"pflanzen":7562,"tragen":7563,"uar":7564,"van":7565,"Ġdick":7566,"unklen":7567,"ĠSel":7568,"Ġnett":7569,"ĠBeit":7570,"ĠKategor":7571,"Ġergeben":7572,"ĠLad":7573,"ĠbezÃ¼glich":7574,"ĠVoll":7575,"bekommen":7576,"Ġjahr":7577,"ilitÃ¤r":7578,"omas":7579,"ĠComputern":7580,"ĠRezept":7581,"ĠgenieÃŁen":7582,"ĠZeitraum":7583,"werken":7584,"Ġbesessen":7585,"stero":7586,"ĠChaos":7587,"Ġbestand":7588,"ĠFlÃ¤che":7589,"ĠFlÃ¼ss":7590,"ĠHandys":7591,"Ġgelang":7592,"Ġinsbesondere":7593,"ĠRock":7594,"Ã¤tzung":7595,"Ġfolgendes":7596,"ĠAtlant":7597,"Ġhalf":7598,"ĠBiom":7599,"ĠAntibiot":7600,"ĠProgramme":7601,"ĠgrÃ¼nden":7602,"ĠRuhe":7603,"ĠStatus":7604,"ĠPotenzial":7605,"Ġrespekt":7606,"ĠAspekte":7607,"ĠBibliothek":7608,"Drei":7609,"Gleich":7610,"cin":7611,"unruh":7612,"Ġmomentan":7613,"Ġbeenden":7614,"ĠlÃ¶":7615,"Ġlande":7616,"ĠZerstÃ¶rung":7617,"agte":7618,"ĠÃ¼berqu":7619,"ĠSchicht":7620,"Ġmehreren":7621,"Ġrisk":7622,"Ġrelev":7623,"Ã¼nder":7624,"Ġarm":7625,"Ġversorgen":7626,"ĠverstÃ¤r":7627,"ĠAufnahmen":7628,"ĠNachhaltigkeit":7629,"prov":7630,"Ġerneut":7631,"ĠStÃ¼cke":7632,"ampe":7633,"Ġfolgenden":7634,"ĠPresse":7635,"ĠSchweden":7636,"Gesch":7637,"ĠZweifel":7638,"Ġschauten":7639,"ĠCharles":7640,"ĠverÃ¶ffentlich":7641,"Ġkontrolliert":7642,"ĠMarketing":7643,"ĠInstrumente":7644,"ĠKrieges":7645,"ĠspÃ¼ren":7646,"ĠFeind":7647,"ĠPersÃ¶nlichkeit":7648,"Kinder":7649,"winkel":7650,"Ġdienen":7651,"Ġeingeladen":7652,"ĠhieÃŁ":7653,"Ġkalt":7654,"its":7655,"auten":7656,"ĠMicro":7657,"Ġgele":7658,"Ġang":7659,"Ġangen":7660,"ĠDÃ¶r":7661,"ĠSchwer":7662,"schafft":7663,"Ã¤tte":7664,"halts":7665,"icket":7666,"angs":7667,"Ġunterwegs":7668,"flu":7669,"izont":7670,"Ġprofession":7671,"Ġproduktiv":7672,"ĠWeis":7673,"Ġ194":7674,"Ġverliert":7675,"fÃ¤llt":7676,"Ġmodern":7677,"Ġorgan":7678,"ĠDarwin":7679,"Ġintellektu":7680,"ĠSichtweise":7681,"Ġgehei":7682,"zÃ¼ge":7683,"ĠhinzufÃ¼gen":7684,"ĠHÃ¼hn":7685,"ĠProteine":7686,"Ã¶rdert":7687,"ĠFaktor":7688,"ĠursprÃ¼nglich":7689,"ĠKleidung":7690,"ĠmerkwÃ¼r":7691,"ĠDepression":7692,"ĠSchnee":7693,"ponent":7694,"ĠWikipedia":7695,"ĠKonsequenzen":7696,"ĠGemÃ¤lde":7697,"ĠBevÃ¶lkerungs":7698,"Fl":7699,"Wel":7700,"bie":7701,"dro":7702,"hÃ¤ngt":7703,"tÃ¤":7704,"ugen":7705,"zten":7706,"Ġdokument":7707,"ĠSuch":7708,"ĠMach":7709,"ĠAkte":7710,"ĠBeute":7711,"Ġaufgeregt":7712,"ĠNadel":7713,"ĠSchalt":7714,"Dass":7715,"ots":7716,"obel":7717,"flÃ¤che":7718,"gelÃ¶st":7719,"sterblichkeit":7720,"Ġwiederholen":7721,"Ġniemanden":7722,"ward":7723,"Ġletzter":7724,"eichern":7725,"Ġangeht":7726,"ĠSozi":7727,"Ġbedeutete":7728,"atein":7729,"ĠGerÃ¼":7730,"ĠÃĦra":7731,"ĠDecke":7732,"sproblem":7733,"Ġhinterlassen":7734,"berflÃ¤chen":7735,"Ġworan":7736,"Ġ250":7737,"ĠKrankenhÃ¤user":7738,"Ġhilf":7739,"ĠKameras":7740,"Ġbasierend":7741,"Ġverursachen":7742,"ussendlich":7743,"Ġ2010":7744,"ĠDimensionen":7745,"ĠCyber":7746,"Darum":7747,"Normal":7748,"Welt":7749,"bilder":7750,"kÃ¼n":7751,"lÃ¤nd":7752,"su":7753,"vin":7754,"wald":7755,"Ġwid":7756,"andern":7757,"stitut":7758,"ĠMel":7759,"decken":7760,"ĠAstero":7761,"urce":7762,"Ġgebl":7763,"ĠWitz":7764,"ĠEhem":7765,"Ġtrug":7766,"ĠNest":7767,"ĠVerkauf":7768,"Ġwovon":7769,"ĠReaktionen":7770,"Ġrech":7771,"Ġgerettet":7772,"haf":7773,"Ġlebendig":7774,"iox":7775,"ĠKredit":7776,"Ġgarant":7777,"ĠGebÃ¤uden":7778,"ĠRichtungen":7779,"Ġentscheidend":7780,"Spiel":7781,"Ġdeiner":7782,"ĠAlters":7783,"ĠhÃ¶here":7784,"ĠKurve":7785,"technologie":7786,"schlÃ¤ge":7787,"Ġzunehmend":7788,"lymp":7789,"ĠTiefe":7790,"ĠErwartungen":7791,"500":7792,"Ber":7793,"Mich":7794,"Video":7795,"back":7796,"bilden":7797,"gste":7798,"takt":7799,"erin":7800,"Ġdeut":7801,"Ġdiag":7802,"irbt":7803,"schreiben":7804,"eins":7805,"atischen":7806,"ĠMass":7807,"ĠMart":7808,"ĠMeister":7809,"seher":7810,"Ġveran":7811,"Ġbezeichnet":7812,"Ġbeunruh":7813,"ĠJung":7814,"ĠVerfahren":7815,"ĠIntern":7816,"illionen":7817,"Ã¤rme":7818,"endes":7819,"ĠEins":7820,"ittelt":7821,"aufnahme":7822,"ĠberÃ¼ck":7823,"ĠKlav":7824,"erkennung":7825,"hoben":7826,"ĠeingefÃ¼hrt":7827,"ront":7828,"Ġerfassen":7829,"ĠGesichts":7830,"kÃ¼ste":7831,"ĠTeams":7832,"ĠWachstums":7833,"deln":7834,"Ġinspirieren":7835,"abilitÃ¤t":7836,"ĠDetail":7837,"Ġumzugehen":7838,"wartung":7839,"ĠStreet":7840,"ĠEntdeckungen":7841,"ĠWÃ¼rde":7842,"ĠZwischen":7843,"Ġeigentliche":7844,"ĠPhysiker":7845,"Ġvorbereitet":7846,"ĠHypoth":7847,"ĠVerbreitung":7848,"ĠÃľberraschung":7849,"ĠJuni":7850,"ĠInspiration":7851,"BG":7852,"gut":7853,"iat":7854,"ipl":7855,"vater":7856,"viele":7857,"zir":7858,"Ġseht":7859,"Ġmikro":7860,"ire":7861,"irgend":7862,"ĠAth":7863,"Ġfokuss":7864,"Ġgezogen":7865,"ĠWh":7866,"Ġanpassen":7867,"ĠPrÃ¼":7868,"ĠToten":7869,"Ġmittels":7870,"Ġschmerz":7871,"stete":7872,"ikations":7873,"ĠSchm":7874,"Ġunsichtbar":7875,"ĠVerlauf":7876,"ĠAngeb":7877,"Ġlegt":7878,"schaftler":7879,"wellen":7880,"ĠGeschÃ¤fte":7881,"Ġkomm":7882,"ĠHerstellung":7883,"ĠAuÃŁer":7884,"ĠGebrauch":7885,"ĠSteve":7886,"Ġwunderbaren":7887,"ĠGegenden":7888,"Ġschwierige":7889,"Ġdeinem":7890,"rimine":7891,"ĠPsychologie":7892,"ĠgrÃ¼ne":7893,"Ġgrundlegenden":7894,"ĠFaktoren":7895,"ĠwÃ¼nschte":7896,"Ġelektrische":7897,"Ġdefiniert":7898,"ĠMobilte":7899,"ĠAlgorithmen":7900,"ĠGemÃ¼se":7901,"ĠErdbeben":7902,"Immer":7903,"Pl":7904,"dach":7905,"mon":7906,"sicherheit":7907,"Ġevolution":7908,"Ġad":7909,"ĠMr":7910,"ĠMas":7911,"ĠMale":7912,"ĠGanzen":7913,"ĠBIP":7914,"ĠDokument":7915,"ĠLeiter":7916,"Ġschul":7917,"ĠNur":7918,"ĠNÃ¤hr":7919,"Ġausgeben":7920,"ĠStimm":7921,"ĠSchok":7922,"reift":7923,"Ġvorhin":7924,"ĠAnstieg":7925,"ĠEnd":7926,"ĠUnser":7927,"fordern":7928,"Ġbesuchte":7929,"Ġbegreifen":7930,"same":7931,"Ã¼nden":7932,"ĠTeilnehmer":7933,"Ġdreidimension":7934,"ĠPho":7935,"prozess":7936,"ĠBox":7937,"these":7938,"zeichnungen":7939,"ĠMetall":7940,"mitglie":7941,"ĠSub":7942,"Ġbeeindruck":7943,"schnittlich":7944,"zÃ¼g":7945,"stÃ¼cke":7946,"Ġinvestiert":7947,"ĠErwachsene":7948,"Ġknapp":7949,"ĠMichael":7950,"ĠChinesen":7951,"Ġgetrennt":7952,"ĠFlagge":7953,"ĠDunkelheit":7954,"ĠTheorien":7955,"messer":7956,"Ġmel":7957,"schten":7958,"ĠzÃ¼":7959,"Ã¤den":7960,"ora":7961,"ory":7962,"elen":7963,"ĠWahlen":7964,"Ġdenselben":7965,"ĠDsch":7966,"ĠDial":7967,"ĠTreffen":7968,"ĠTaschen":7969,"ĠHal":7970,"ĠViele":7971,"betes":7972,"Ġausser":7973,"ĠStÃ¤":7974,"ĠÃ¼bersch":7975,"ĠprÃ¼":7976,"anzt":7977,"Ġmachst":7978,"Ġlehren":7979,"ĠspÃ¤ten":7980,"ĠAusgang":7981,"ĠAufbau":7982,"eichert":7983,"ĠweiÃŁt":7984,"ĠbekÃ¤mpfen":7985,"Ġlebenden":7986,"Anstatt":7987,"ĠSchuhe":7988,"ĠernÃ¤hren":7989,"schnitts":7990,"hana":7991,"ĠEigenschaft":7992,"gnÃ¼gen":7993,"Bevor":7994,"Ġrufen":7995,"Ġstudiert":7996,"Ġspezielle":7997,"ĠHiggs":7998,"ĠAngelegen":7999,"Ġgenetische":8000,"ĠIngenieur":8001,"ĠEisen":8002,"ĠBedrohung":8003,"ĠWeisheit":8004,"Hall":8005,"ZunÃ¤chst":8006,"eter":8007,"ect":8008,"hst":8009,"kst":8010,"kÃ¶rper":8011,"park":8012,"ĠSÃ¤":8013,"Ġneigen":8014,"aumen":8015,"ichtum":8016,"Ġfe":8017,"ĠBan":8018,"ĠBord":8019,"ĠWicht":8020,"ĠKart":8021,"Ġanhalten":8022,"Ã¼ren":8023,"ĠItalien":8024,"ĠHitze":8025,"Ġauss":8026,"iens":8027,"Ġvorsichtig":8028,"ĠArzn":8029,"schaff":8030,"Ã¤cher":8031,"gert":8032,"Ġliebte":8033,"ichtete":8034,"ĠzurÃ¼ckkehren":8035,"Ġwahrnehmen":8036,"ĠBerge":8037,"Ġinteressanten":8038,"Ã¤hern":8039,"ĠExtrem":8040,"Ġstarken":8041,"Ġanzusehen":8042,"systeme":8043,"ĠGeneral":8044,"ĠAnti":8045,"Ġentfern":8046,"ffizient":8047,"ĠIsland":8048,"Ġgrossen":8049,"zusp":8050,"Ġfantastische":8051,"ĠNachbarschaft":8052,"ĠIngenieure":8053,"produktion":8054,"Ġsogenannten":8055,"ĠKonsum":8056,"ĠDenkweise":8057,"ĠerfÃ¼llen":8058,"Ġoberen":8059,"Ġatmen":8060,"ĠProjekten":8061,"ĠÃĦnderungen":8062,"ĠZÃ¤hne":8063,"Ġkaufte":8064,"ĠOptim":8065,"ĠverblÃ¼ffen":8066,"DH":8067,"Lasst":8068,"Ohne":8069,"Wann":8070,"brech":8071,"di":8072,"gÃ¤nger":8073,"heuer":8074,"kultur":8075,"tion":8076,"ĠÃ¤r":8077,"ĠwÃ¤r":8078,"ĠsÃ¤":8079,"ĠzÃ¤hlt":8080,"llung":8081,"ĠMisch":8082,"lichkeiten":8083,"ĠBang":8084,"ĠEhr":8085,"ĠDan":8086,"ĠLaufen":8087,"ĠSchild":8088,"ĠSchmerzen":8089,"ĠCenter":8090,"ĠIniti":8091,"Ġbeigebracht":8092,"rink":8093,"Ġkonsum":8094,"ĠProblems":8095,"ĠFlÃ¼gel":8096,"ĠWeibchen":8097,"ĠMedium":8098,"Ġschlug":8099,"ĠReihen":8100,"Ġwundervoll":8101,"sprogramm":8102,"ĠAngriff":8103,"Ġcm":8104,"ĠUrsprung":8105,"Ġnaja":8106,"ĠPollen":8107,"ĠAbente":8108,"Ġbemerkenswert":8109,"ĠerklÃ¤rte":8110,"ĠBrustkrebs":8111,"ĠAnalyse":8112,"ĠauÃŁergewÃ¶hnlich":8113,"Ġdankbar":8114,"ĠAfrikaner":8115,"Ġchemische":8116,"Ġplanen":8117,"ĠÃĦgypten":8118,"ĠlÃ¤ndlichen":8119,"Ã¶ntgen":8120,"Aut":8121,"Kurz":8122,"ban":8123,"brauch":8124,"ils":8125,"oh":8126,"sun":8127,"iness":8128,"Ġsens":8129,"Ġsorg":8130,"Ġment":8131,"ĠSing":8132,"Ġharte":8133,"Ġbrechen":8134,"emin":8135,"derm":8136,"leicht":8137,"ĠFunktionen":8138,"ĠPosit":8139,"roht":8140,"ĠLo":8141,"ĠImmun":8142,"Ġsoweit":8143,"ÃŁern":8144,"ĠRuf":8145,"raun":8146,"ratet":8147,"ĠNiveau":8148,"Ġausmachen":8149,"Ġvorn":8150,"ĠAnruf":8151,"Ã¶rtern":8152,"ĠEnkel":8153,"ĠWeltbevÃ¶lkerung":8154,"ĠGeschmack":8155,"Ġbesucht":8156,"design":8157,"ĠUmstÃ¤nden":8158,"ĠWasserstoff":8159,"aktoren":8160,"ĠAbs":8161,"Ġgesunden":8162,"ischerweise":8163,"Ġbeschreibt":8164,"fÃ¼hlt":8165,"SchlieÃŁlich":8166,"ĠWissenschaftlern":8167,"Ġ2007":8168,"Ġschwere":8169,"ĠSchulter":8170,"konomen":8171,"ĠHinblick":8172,"aven":8173,"Ġworum":8174,"ĠKatze":8175,"Nichts":8176,"Ġtechnischen":8177,"Ġerforscht":8178,"Ġgenetischen":8179,"stausch":8180,"ĠInneren":8181,"Technologie":8182,"stuhl":8183,"ĠLebenserwartung":8184,"ĠYorker":8185,"Bet":8186,"Ne":8187,"Soll":8188,"fung":8189,"kap":8190,"viert":8191,"ĠÃ¤lte":8192,"eiben":8193,"tex":8194,"Ã¼d":8195,"Ġhind":8196,"Ġkoll":8197,"ĠMor":8198,"ĠEt":8199,"ight":8200,"ĠTin":8201,"Ġbeherr":8202,"Ġschock":8203,"Ġlin":8204,"beg":8205,"ĠJack":8206,"ffekte":8207,"Ġpf":8208,"twick":8209,"ĠCamp":8210,"Ġstre":8211,"ota":8212,"ogramm":8213,"appt":8214,"Ġgewann":8215,"ĠKongo":8216,"Ġgemessen":8217,"Ġgere":8218,"ĠBlock":8219,"Ġexponent":8220,"Ġverschiedener":8221,"gehensweise":8222,"wirkt":8223,"ĠSystemen":8224,"Ġ65":8225,"soft":8226,"enseits":8227,"ĠSubst":8228,"ĠRichtige":8229,"ĠObama":8230,"ĠglÃ¼cklicher":8231,"ĠKnie":8232,"Ġjenen":8233,"Ġblind":8234,"ĠBrow":8235,"ĠTerroristen":8236,"ĠGesprÃ¤che":8237,"ĠSaal":8238,"Ġkulturelle":8239,"operation":8240,"ĠChef":8241,"Ġberechnen":8242,"ĠwÃ¼tend":8243,"ĠSymptome":8244,"Ġkonfrontiert":8245,"\"]":8246,"Dem":8247,"Te":8248,"dringen":8249,"Ġunvor":8250,"ĠSorge":8251,"Ġzwe":8252,"Ġgezwungen":8253,"ĠLeid":8254,"Ġmitnehmen":8255,"ĠNutz":8256,"ĠkÃ¶nne":8257,"ĠVerm":8258,"Ã¤cheln":8259,"abl":8260,"ĠLevel":8261,"Ġvielmehr":8262,"rinzip":8263,"Ġangehen":8264,"ĠAutom":8265,"gefallen":8266,"âĢĿ":8267,"ĠSystems":8268,"ĠÃĦl":8269,"ĠReisen":8270,"Ġgestartet":8271,"alisierte":8272,"ĠGesundheitssystem":8273,"Ġhoher":8274,"ĠNeuigkeiten":8275,"ĠberÃ¼hren":8276,"ĠfranzÃ¶s":8277,"Ġbiologischen":8278,"Ġkreativen":8279,"Ġernsthaft":8280,"ĠhÃ¶chsten":8281,"ĠInvestitionen":8282,"Ġchinesische":8283,"melzen":8284,"stimmung":8285,"ĠlÃ¤cher":8286,"ĠTraining":8287,"ĠSpektrum":8288,"ĠSprung":8289,"ĠGipfel":8290,"ĠHacker":8291,"ĠnervÃ¶s":8292,"ĠAntibiotika":8293,"ĠKlavier":8294,"Bl":8295,"Gibt":8296,"Wahr":8297,"ammt":8298,"brochen":8299,"dy":8300,"fassung":8301,"uen":8302,"vir":8303,"ziel":8304,"Ġdunklen":8305,"Ġeth":8306,"anlage":8307,"Ġhassen":8308,"Ġfoss":8309,"Ġerl":8310,"ĠLinks":8311,"Ġverfolgt":8312,"Ġwieviel":8313,"hlend":8314,"Ġdazwischen":8315,"ĠVerwendung":8316,"ĠVergnÃ¼gen":8317,"ĠOberflÃ¤chen":8318,"ĠalltÃ¤":8319,"Ã¤tten":8320,"fache":8321,"fÃ¼hlen":8322,"ĠEinrichtungen":8323,"chester":8324,"Ġgewiss":8325,"Ġkommer":8326,"ppich":8327,"ĠAusnahme":8328,"ĠzurÃ¼ckgehen":8329,"ĠMetern":8330,"Ġgelassen":8331,"ĠÃĦhn":8332,"Ġbesonderen":8333,"ĠAmerikan":8334,"Ġerneuer":8335,"ĠDipl":8336,"ĠBehinder":8337,"ĠGleichgewicht":8338,"oppel":8339,"ĠÃ¶fter":8340,"ĠKuh":8341,"stoÃŁen":8342,"Ġwinzig":8343,"Ġwinzigen":8344,"Ġvisuelle":8345,"Ġkorre":8346,"ĠAlternative":8347,"ĠvernÃ¼nft":8348,"ĠMitglieder":8349,"Interess":8350,"ridge":8351,"Ġsinnvoll":8352,"ĠChirur":8353,"Ġidentifizieren":8354,"ĠJanuar":8355,"Ġdiagnost":8356,"--":8357,"Frauen":8358,"Heutzutage":8359,"Offen":8360,"kord":8361,"wÃ¤hlen":8362,"xis":8363,"chtet":8364,"chite":8365,"Ã¼ter":8366,"aucht":8367,"Ġgete":8368,"ĠBibel":8369,"Ġanstelle":8370,"ĠEuch":8371,"Ã¼rzen":8372,"ĠHir":8373,"ĠRitu":8374,"ĠVag":8375,"Ġtr":8376,"Ġmanip":8377,"ĠGefangen":8378,"ĠSchreiben":8379,"ives":8380,"ĠCart":8381,"ĠErste":8382,"Ġstirbt":8383,"riebs":8384,"ĠsaÃŁen":8385,"Ġabgesch":8386,"gebiete":8387,"Ġwenden":8388,"Wieder":8389,"hai":8390,"ĠGebur":8391,"utzend":8392,"Ġmusikal":8393,"ĠÃľberwach":8394,"ĠMusl":8395,"Ġalter":8396,"ĠMamm":8397,"gemacht":8398,"ĠNeugier":8399,"ivileg":8400,"Ġ120":8401,"Ġmolekul":8402,"osexu":8403,"ĠhÃ¶heren":8404,"Ġschaue":8405,"Ġlernten":8406,"Ġseltsame":8407,"twortet":8408,"Ġunerwar":8409,"ĠMosk":8410,"ĠregelmÃ¤ÃŁig":8411,"Ġkaputt":8412,"Ġruhig":8413,"Ġlangweilig":8414,"ĠerwÃ¤hnen":8415,"ĠBelohnung":8416,"ĠEpidemie":8417,"ĠPlattform":8418,"ĠSkelett":8419,"Hallo":8420,"Ġhindurch":8421,"Fre":8422,"Vers":8423,"Wow":8424,"mat":8425,"ps":8426,"tausende":8427,"station":8428,"Ġatt":8429,"Ġuniver":8430,"Ġmon":8431,"ars":8432,"Ġklet":8433,"ĠMama":8434,"ĠGlet":8435,"ĠGhana":8436,"Ġgesetzt":8437,"Ġverkl":8438,"Ġvergleich":8439,"ĠHaw":8440,"ĠRÃ¶":8441,"Ġtanzen":8442,"Ã¤nz":8443,"reibstoff":8444,"ĠProzesse":8445,"Ġstimmen":8446,"Ġstieg":8447,"Ġleer":8448,"adurch":8449,"Inner":8450,"ologischer":8451,"Ġlieb":8452,"ĠKonstru":8453,"ĠVorgang":8454,"ĠVorschlag":8455,"Ġ32":8456,"ĠBlÃ¤tter":8457,"quem":8458,"Ġangemessen":8459,"ĠAlpha":8460,"ĠNachfrage":8461,"DafÃ¼r":8462,"ĠUniversitÃ¤ten":8463,"mph":8464,"ĠGroÃŁen":8465,"ĠDesigns":8466,"Ġriesiges":8467,"ĠFÃ¼ÃŁe":8468,"ĠFahrzeug":8469,"Ġjenem":8470,"ianer":8471,"ĠBeton":8472,"ĠgrÃ¼ndete":8473,"Ġelektrischen":8474,"ĠWirtschaftswachstum":8475,"ĠPrivatsphÃ¤re":8476,"ĠjÃ¼nger":8477,"ĠSzene":8478,"ĠwunderschÃ¶ne":8479,"Ġirgendeinem":8480,"ĠSensoren":8481,"ĠKonflikte":8482,"ĠTragÃ¶":8483,"ĠKomponenten":8484,"ioxid":8485,"AR":8486,"Her":8487,"ise":8488,"pass":8489,"wenn":8490,"Ġwem":8491,"Ġsub":8492,"ĠhÃ¤ss":8493,"arenz":8494,"Ġbildet":8495,"ĠMad":8496,"deckt":8497,"ĠArab":8498,"Ġfrustr":8499,"lichem":8500,"Ġgefl":8501,"Ġgeteilt":8502,"Ġgeeig":8503,"ĠKe":8504,"letzt":8505,"leger":8506,"Ġanscheinend":8507,"ĠFa":8508,"ĠFrie":8509,"ĠDame":8510,"umpf":8511,"Ġverpf":8512,"ĠRÃ¶ntgen":8513,"ĠVon":8514,"ikale":8515,"twa":8516,"ĠScham":8517,"ĠProben":8518,"etisch":8519,"Ġ26":8520,"Ġ28":8521,"Ġunternehmen":8522,"gerufen":8523,"gerÃ¤te":8524,"ĠKonz":8525,"leiter":8526,"ektes":8527,"Ġinterpret":8528,"Ġkeines":8529,"ĠDieser":8530,"ĠUmgang":8531,"ĠAutob":8532,"Ġheiraten":8533,"ĠGeruch":8534,"ĠMuskel":8535,"alisierten":8536,"Ġ2005":8537,"iums":8538,"âĢľ.":8539,"ĠfrÃ¼he":8540,"ĠPartei":8541,"Ġdrehte":8542,"ianischen":8543,"ĠSchwestern":8544,"ĠHaiti":8545,"âĻª":8546,"arry":8547,"ĠProtein":8548,"Ġmoralischen":8549,"Ġphysische":8550,"Ġbenutze":8551,"ĠBedÃ¼rfnis":8552,"ĠSchwarz":8553,"Ġmittleren":8554,"Ġignorieren":8555,"ĠKatastrophe":8556,"Trotzdem":8557,"ĠKapitalismus":8558,"Erinnern":8559,"ĠWÃ¤lder":8560,"ĠTreibhaus":8561,"ĠStanford":8562,"Os":8563,"Talk":8564,"bit":8565,"funktion":8566,"jekten":8567,"material":8568,"put":8569,"wachsen":8570,"ĠÃ¤rm":8571,"ches":8572,"Ġwomit":8573,"Ġmisst":8574,"ĠmilitÃ¤r":8575,"Ġeingeb":8576,"gespr":8577,"Ġvierte":8578,"ĠSha":8579,"Ġinvol":8580,"ĠMig":8581,"ĠGrie":8582,"ĠGute":8583,"ĠBier":8584,"ĠKle":8585,"ĠEur":8586,"ĠFundament":8587,"ĠFÃ¼nf":8588,"Uns":8589,"Ġverur":8590,"ĠTÃ¤u":8591,"ĠOl":8592,"ĠOhr":8593,"Ġspiritu":8594,"fachen":8595,"edy":8596,"klasse":8597,"ĠFlÃ¤chen":8598,"selbe":8599,"ordnet":8600,"ĠÃľbergang":8601,"Ġinsgesamt":8602,"ĠMuskeln":8603,"ĠManh":8604,"stÃ¤ndige":8605,"ĠStudio":8606,"kohol":8607,"Ġrom":8608,"ĠAtomen":8609,"ĠOrganismus":8610,"Ã¼tte":8611,"Ġfliegt":8612,"Ġpolitisch":8613,"ĠVertei":8614,"ĠKÃ¼che":8615,"ĠKÃ¶nnen":8616,"Ġ1990":8617,"ĠTrÃ¤nen":8618,"DarÃ¼ber":8619,"ĠPrÃ¤sidenten":8620,"ĠmÃ¤chtig":8621,"ĠStrategien":8622,"Ġmittlerweile":8623,"Ġ1960":8624,"ĠPrototypen":8625,"ĠEinfachheit":8626,"ĠBatterie":8627,"Ġneugierig":8628,"For":8629,"IS":8630,"gÃ¤nge":8631,"gÃ¼lt":8632,"kol":8633,"ua":8634,"wehr":8635,"wandeln":8636,"ĠÃ¤nderte":8637,"Ġwelt":8638,"asern":8639,"Ġwirksam":8640,"ĠMent":8641,"Ã¶ch":8642,"ichtung":8643,"ĠgeÃ¶ff":8644,"ĠBenz":8645,"ĠBase":8646,"ĠWut":8647,"legte":8648,"ĠEhre":8649,"ĠEffizienz":8650,"ĠPazif":8651,"ĠDon":8652,"ĠDutzend":8653,"ĠLast":8654,"ĠTherap":8655,"annter":8656,"ĠHumor":8657,"Ġumso":8658,"ikationen":8659,"ĠVerschw":8660,"ĠVerlangen":8661,"ĠAnstren":8662,"Ġstammen":8663,"Ġleg":8664,"eta":8665,"Ġweibliche":8666,"Ġrum":8667,"istin":8668,"rÃ¤um":8669,"Ã¤ude":8670,"formation":8671,"brigens":8672,"ĠAutismus":8673,"ĠSequenz":8674,"Ġwundervolle":8675,"Ġschwerer":8676,"ĠGlÃ¼h":8677,"ĠPolio":8678,"Ġabgesehen":8679,"ĠGeschÃ¤ftsm":8680,"ortex":8681,"ĠHaie":8682,"ĠMathematiker":8683,"Ġfreund":8684,"ĠMedikamenten":8685,"zÃ¤hler":8686,"ĠScience":8687,"Ġorganisiert":8688,"ĠHÃ¶hepunkt":8689,"Ġislam":8690,"ĠLiebling":8691,"ĠOrgane":8692,"fÃ¤ltig":8693,"Ġschickte":8694,"Ã¼hrung":8695,"ĠFigur":8696,"Ġanalysieren":8697,"ĠUrsache":8698,"Ġexplod":8699,"ĠPhilosophie":8700,"ĠWeihnacht":8701,"ĠDiabetes":8702,"Ġreparieren":8703,"ĠSchokol":8704,"De":8705,"Geh":8706,"MA":8707,"fischen":8708,"gin":8709,"hel":8710,"iop":8711,"kopf":8712,"ĠwÃ¤":8713,"steine":8714,"eige":8715,"Ġmobil":8716,"Ġeingehen":8717,"Ġhand":8718,"Ġhuman":8719,"llige":8720,"Ã¤men":8721,"Ġinzwischen":8722,"deuten":8723,"Ġfeiern":8724,"Ġgift":8725,"Ã¼rzt":8726,"ĠDaumen":8727,"ĠValle":8728,"Ġtre":8729,"Ġjapan":8730,"weils":8731,"orth":8732,"Ġbeides":8733,"Ġleuchten":8734,"ĠLeber":8735,"Ġreflekt":8736,"aufgaben":8737,"Ġ36":8738,"ĠgegenwÃ¤rt":8739,"Ġmuslim":8740,"ĠMarken":8741,"ĠDeshalb":8742,"ĠRollen":8743,"ĠKarik":8744,"Ġ2009":8745,"mÃ¶gliche":8746,"ĠBedarf":8747,"ĠKnopf":8748,"Ġnebenbei":8749,"Ġindischen":8750,"schuldigung":8751,"ĠApple":8752,"staaten":8753,"ĠThomas":8754,"ĠDiagnose":8755,"ĠgewÃ¶hnt":8756,"Ġsetzten":8757,"ĠSalz":8758,"ĠBudget":8759,"ĠHunderte":8760,"Letzten":8761,"ĠWichtigste":8762,"Ġspannend":8763,"ĠMotivation":8764,"Ġromant":8765,"Neu":8766,"Test":8767,"oben":8768,"ule":8769,"wendet":8770,"yto":8771,"Ġdient":8772,"eitern":8773,"Ġhy":8774,"Ġzurecht":8775,"Ġgesammelt":8776,"ĠverlieÃŁ":8777,"ismen":8778,"ĠHard":8779,"ĠHandeln":8780,"ĠRel":8781,"ĠVie":8782,"ola":8783,"ĠNÃ¤ch":8784,"reide":8785,"ĠVermÃ¶gen":8786,"Ġjeweils":8787,"raucher":8788,"zukommen":8789,"Ġnachdenkt":8790,"ĠEner":8791,"Ġdurchschnittlich":8792,"Ġret":8793,"Ġbeseit":8794,"Ġrichten":8795,"Eins":8796,"Ġwiederholt":8797,"Ġberuh":8798,"ĠAufstieg":8799,"ĠUmstÃ¤nde":8800,"ĠGebieten":8801,"Ġlebende":8802,"Ġexakt":8803,"ordnen":8804,"Ġkleinere":8805,"ĠMannes":8806,"Ġsozialer":8807,"ĠÃ¤hnlichen":8808,"ĠHÃ¶hlen":8809,"ĠKatzen":8810,"Ã¤mpft":8811,"Ġempfinden":8812,"Ġenormen":8813,"sammlung":8814,"Ġechtes":8815,"Darauf":8816,"Ġhingehen":8817,"Ġtraditionelle":8818,"Anders":8819,"Ġbenutzten":8820,"Ġkomplizierter":8821,"ĠMitglied":8822,"ĠerÃ¶ffnet":8823,"ĠLogik":8824,"Ġexperiment":8825,"Ġbeitragen":8826,"Ġinfiziert":8827,"Ġpotent":8828,"Ġarabischen":8829,"ziplin":8830,"Normalerweise":8831,"Ġkommerzie":8832,"Innerhalb":8833,"FrÃ¼":8834,"Machen":8835,"bir":8836,"hh":8837,"komp":8838,"leiten":8839,"ohlen":8840,"vo":8841,"waffen":8842,"ĠdrÃ¼ck":8843,"Ġsimul":8844,"Ġehem":8845,"stÃ¤d":8846,"ask":8847,"ĠWÃ¤nde":8848,"ĠFantasie":8849,"ĠTasche":8850,"ish":8851,"raktiv":8852,"Ġleist":8853,"ĠZum":8854,"agern":8855,"ĠGet":8856,"ĠSchauen":8857,"ĠVerz":8858,"ĠIntu":8859,"obby":8860,"ĠEinschrÃ¤n":8861,"Ġgeraten":8862,"ĠFlor":8863,"ĠTechniken":8864,"Ġwahren":8865,"eitete":8866,"Ġverlor":8867,"gefÃ¤":8868,"ruppe":8869,"ĠMeere":8870,"ogenese":8871,"ĠMarke":8872,"ĠÃĸkonomen":8873,"Ġfestgestellt":8874,"Ġoffenbar":8875,"ĠInternets":8876,"ĠgemeinnÃ¼tz":8877,"Ã¤ufer":8878,"ĠflieÃŁt":8879,"ĠKÃ¼hl":8880,"Ġqual":8881,"Ġkreative":8882,"amera":8883,"ĠfrÃ¼heren":8884,"Ġnahezu":8885,"ĠKugel":8886,"Ġaktuelle":8887,"Ġemotionale":8888,"Ġabstra":8889,"ĠResultate":8890,"ĠHaare":8891,"archie":8892,"Komm":8893,"ĠTexas":8894,"ĠStaub":8895,"ĠVerbesserung":8896,"ĠSpezial":8897,"ĠAnwendungen":8898,"ĠMicrosoft":8899,"ĠCarto":8900,"Gehen":8901,"PlÃ¶tzlich":8902,"baut":8903,"etzen":8904,"ios":8905,"jet":8906,"lament":8907,"pern":8908,"politik":8909,"rieren":8910,"enkt":8911,"anlagen":8912,"stat":8913,"steht":8914,"assten":8915,"eifen":8916,"gesetzt":8917,"ĠSektor":8918,"Ġheben":8919,"Ġnu":8920,"Ã¤ger":8921,"ary":8922,"Ġint":8923,"Ġinklus":8924,"ĠAug":8925,"Ġfein":8926,"Ġfrie":8927,"Ġflex":8928,"lehnen":8929,"Ġantworten":8930,"Ġanbieten":8931,"Ġerlaub":8932,"ĠLÃ¤cheln":8933,"igungen":8934,"Ġverarbeiten":8935,"ĠStick":8936,"Wirklich":8937,"Ġvorgestellt":8938,"ĠâĢľ":8939,"Ġletztlich":8940,"Ã¤tig":8941,"ĠSpinnen":8942,"Ġrest":8943,"werte":8944,"ektar":8945,"zenten":8946,"Ġgeworfen":8947,"edback":8948,"Ġverbr":8949,"ĠverstÃ¤nd":8950,"Ġsonder":8951,"Ġkeinem":8952,"aku":8953,"Ġeinziges":8954,"Ġwahrhaft":8955,"quellen":8956,"ĠAlkohol":8957,"ĠHandlungen":8958,"ĠMittler":8959,"Dazu":8960,"ĠunglÃ¼ck":8961,"itute":8962,"ĠSchweine":8963,"Ġrob":8964,"Ġinnere":8965,"ĠBÃ¼chern":8966,"Ġtrocken":8967,"errt":8968,"ĠDurchschnitts":8969,"ĠverrÃ¼ckte":8970,"Ġheutige":8971,"Ġtauchen":8972,"ĠhÃ¶chste":8973,"ĠTransparenz":8974,"ĠSerie":8975,"Ġchinesischen":8976,"ĠKonsumenten":8977,"ĠToiletten":8978,"ĠPflanze":8979,"Ġbegrenzt":8980,"ĠKlinik":8981,"Ġstets":8982,"ĠUngleichheit":8983,"Ġverpflich":8984,"Lie":8985,"Mails":8986,"PA":8987,"eah":8988,"kÃ¤":8989,"lÃ¤sst":8990,"nicht":8991,"wÃ¤":8992,"Ġdanken":8993,"Ġsym":8994,"eigung":8995,"Ġmy":8996,"ĠSur":8997,"ĠzuhÃ¶ren":8998,"Ġkg":8999,"ĠAct":9000,"Ġgefahren":9001,"ĠBomben":9002,"lefon":9003,"ĠEbenen":9004,"ĠFal":9005,"ĠPreise":9006,"ĠDist":9007,"ĠRos":9008,"Ġausgehen":9009,"ĠStich":9010,"ĠÃ¼bersetzen":9011,"ĠÃ¼berlebt":9012,"Ġunsicht":9013,"weist":9014,"ĠvorwÃ¤rts":9015,"Ġlegte":9016,"ĠUng":9017,"Ġreicher":9018,"schieben":9019,"Ġhinsichtlich":9020,"Ã¼nde":9021,"Ġverbrei":9022,"ĠVorder":9023,"akul":9024,"?\",":9025,"Ġbedeckt":9026,"meter":9027,"ĠLebensraum":9028,"ĠEntsteh":9029,"âĢĵ":9030,"ĠRobert":9031,"Schl":9032,"ĠMac":9033,"ĠVersorgung":9034,"Ġbefassen":9035,"Ġbefreien":9036,"skraft":9037,"ĠGlÃ¼cks":9038,"Ġweltweite":9039,"Ġflog":9040,"ĠErfolgs":9041,"Projekt":9042,"ĠRechts":9043,"ĠÃ¶ffnet":9044,"ĠMaÃŁnahmen":9045,"ĠDrucker":9046,"ĠanfÃ¤ngt":9047,"ĠBush":9048,"Ġverstecken":9049,"Ġ1980":9050,"Ġschlimmsten":9051,"ĠRÃ¼ckenmark":9052,"ĠSchlagz":9053,"ĠreprÃ¤sentiert":9054,"Ġverletzt":9055,"Ġverliebt":9056,"ĠÃĦnderung":9057,"ĠSchauspieler":9058,"ĠFremden":9059,"Ġdiskutieren":9060,"ĠjÃ¤hrlich":9061,"Ġdurfte":9062,"Ġmochte":9063,"ĠPrior":9064,"Ġgetestet":9065,"ĠgeÃ¶ffnet":9066,"ĠValley":9067,"Hat":9068,"Masch":9069,"Zusammen":9070,"eder":9071,"fasst":9072,"ganda":9073,"hil":9074,"nÃ¤":9075,"ood":9076,"asien":9077,"ĠSar":9078,"ĠServ":9079,"schalten":9080,"Ġbo":9081,"ĠMÃ¤use":9082,"ĠAbl":9083,"ĠGramm":9084,"Ġgelegen":9085,"Ġgelangt":9086,"teren":9087,"lechter":9088,"ĠFer":9089,"ĠverÃ¤nder":9090,"Ġverteilen":9091,"ĠTu":9092,"ĠTum":9093,"ĠTherapie":9094,"Ġwartet":9095,"Ġschreibe":9096,"Ġlasse":9097,"Ġtrat":9098,"ĠZut":9099,"steckt":9100,"Ġausmacht":9101,"spunkt":9102,"ĠVerzwei":9103,"ĠVerteilung":9104,"ĠInseln":9105,"ĠAnweis":9106,"ĠAnsichten":9107,"ĠBewohner":9108,"Ġstat":9109,"ĠfÃ¼llen":9110,"izz":9111,"Einen":9112,"duktion":9113,"ĠAusland":9114,"ĠAusrÃ¼stung":9115,"Ġ1950":9116,"ĠExplos":9117,"ĠEnergieverbrauch":9118,"Ġausgegeben":9119,"Stud":9120,"otto":9121,"ronen":9122,"ĠMount":9123,"ĠSchwanz":9124,"ĠUnternehmens":9125,"ĠGebÃ¤udes":9126,"Ġerhielten":9127,"setzungen":9128,"Ġfreiwill":9129,"ampag":9130,"Programm":9131,"jÃ¤hriger":9132,"Ġinternational":9133,"ĠErfinder":9134,"ĠFels":9135,"Ġkreiert":9136,"organisationen":9137,"Ġbillig":9138,"drehen":9139,"ĠEntwicklungslÃ¤nder":9140,"Ġinstall":9141,"Ġprivaten":9142,"ĠToilette":9143,"ĠAchse":9144,"Ġbeeindruckend":9145,"18":9146,"Chin":9147,"JÃ¤hr":9148,"baum":9149,"pack":9150,"sitzen":9151,"thmus":9152,"unft":9153,"Ġsan":9154,"anischen":9155,"schlieÃŁen":9156,"Ġfair":9157,"ura":9158,"ĠWaffe":9159,"ĠWÃ¤rme":9160,"ĠKy":9161,"ĠKoch":9162,"Ã¼rze":9163,"Ġverlei":9164,"reht":9165,"Ġaufeinander":9166,"ĠHorm":9167,"ĠVi":9168,"befinden":9169,"bezogen":9170,"andem":9171,"ĠStil":9172,"anzig":9173,"Ġentwar":9174,"laube":9175,"uld":9176,"ric":9177,"imb":9178,"ĠKonzentr":9179,"ĠKonzepte":9180,"ĠWasch":9181,"ĠbetrÃ¤gt":9182,"aker":9183,"ĠUnterwasser":9184,"ĠAbhÃ¤ng":9185,"Ġheim":9186,"Ġgesunde":9187,"stands":9188,"ĠEntwurf":9189,"now":9190,"Ã¶lf":9191,"Ġbefest":9192,"Ġoffene":9193,"mith":9194,"Ġselbe":9195,"ĠFahrer":9196,"ĠauszudrÃ¼cken":9197,"Ġverschwindet":9198,"ĠBetrieb":9199,"ĠÃ¤ltere":9200,"Ġbedeutend":9201,"Ġpositiven":9202,"Ġschreckliche":9203,"Ġniedrig":9204,"Ġniedriger":9205,"ĠhÃ¶chst":9206,"ĠMyth":9207,"ĠberÃ¼hmt":9208,"Ġphysischen":9209,"Ġaktuellen":9210,"Ġungeheuer":9211,"Ġkulturellen":9212,"ĠSchwarze":9213,"heimer":9214,"Ġzentrale":9215,"krankheiten":9216,"ĠausschlieÃŁlich":9217,"ĠOxford":9218,"ĠPferd":9219,"ĠkÃ¼mmert":9220,"ĠWurzeln":9221,"ĠBetracht":9222,"Ġverringern":9223,"ĠFlÃ¼ssigkeit":9224,"Ġgelehrt":9225,"ĠEhemann":9226,"ĠDialog":9227,"ĠManhatt":9228,"ytocin":9229,"Ġleistungs":9230,"Bahn":9231,"Frau":9232,"Fast":9233,"Gem":9234,"Viel":9235,"WÃ¤re":9236,"afe":9237,"car":9238,"ucken":9239,"gegangen":9240,"arren":9241,"orien":9242,"ĠMeg":9243,"eltern":9244,"Ġgeg":9245,"Ġgefr":9246,"ĠBis":9247,"lever":9248,"ĠPop":9249,"ĠLive":9250,"eitungen":9251,"reut":9252,"Ġschrieben":9253,"Ġlasst":9254,"Ġjenseits":9255,"ĠausdrÃ¼cken":9256,"ĠJer":9257,"Ġwerdet":9258,"bteilung":9259,"spanne":9260,"ĠVerhand":9261,"ĠCr":9262,"Ġherab":9263,"flie":9264,"Ġkonserv":9265,"ĠKond":9266,"ĠAusgaben":9267,"odelle":9268,"Ġ195":9269,"ĠTee":9270,"icherung":9271,"Ġaltes":9272,"ĠschÃ¶ner":9273,"Ġglobal":9274,"ĠSÃ¼ÃŁ":9275,"ĠFahrzeuge":9276,"Ġkomplexer":9277,"Ġerledigen":9278,"ĠÃ¤lteren":9279,"ĠIntegr":9280,"Ġfreie":9281,"ĠThun":9282,"Ġumzusetzen":9283,"Ġirgendwelche":9284,"ĠFeedback":9285,"Ġeinzigartig":9286,"bedingungen":9287,"Ġbenutzte":9288,"Ġwirklichen":9289,"ĠPeter":9290,"ĠAuftrag":9291,"aktivitÃ¤t":9292,"ĠMechanismus":9293,"ĠBerechnungen":9294,"Ãľbrigens":9295,"ĠAbenteuer":9296,"Ch":9297,"Jahr":9298,"bru":9299,"ĠÃ¶rt":9300,"any":9301,"ĠSmith":9302,"irca":9303,"schild":9304,"Ġnationale":9305,"ĠkÃ¼nstler":9306,"Ġderer":9307,"aters":9308,"ĠBitte":9309,"ĠKok":9310,"ĠKuchen":9311,"ĠKÃ¼nst":9312,"ĠKosm":9313,"ĠDort":9314,"ĠTreibstoff":9315,"ĠHÃ¶r":9316,"ĠRatten":9317,"ĠlÃ¶st":9318,"Ġtrain":9319,"iene":9320,"zugehen":9321,"ĠProbe":9322,"ĠCA":9323,"ĠAnh":9324,"aller":9325,"Ġunterhalten":9326,"Ġunterhalb":9327,"ĠEinblick":9328,"aps":9329,"Indem":9330,"verkehr":9331,"Ġbetreffen":9332,"ical":9333,"projekt":9334,"Ġgestaltet":9335,"ĠGedichte":9336,"ĠHinweise":9337,"ĠLehrern":9338,"ĠBiologen":9339,"ĠSelbstmord":9340,"ĠUrkn":9341,"uropa":9342,"Ġ[\"":9343,"azitÃ¤t":9344,"wertung":9345,"ĠBrut":9346,"ĠAllgem":9347,"riedenheit":9348,"ĠGleichung":9349,"wesenheit":9350,"Ġteilnehmen":9351,"ĠBlickwinkel":9352,"ĠOnkel":9353,"streben":9354,"ĠFrÃ¼hl":9355,"ĠInvestition":9356,"ĠberÃ¼hmte":9357,"ĠauÃŁergewÃ¶hnliche":9358,"Ġbilliger":9359,"ĠkÃ¼nstliche":9360,"ĠzukÃ¼nftigen":9361,"ĠWilli":9362,"ĠhÃ¼b":9363,"ĠPinguine":9364,"ĠEngagement":9365,"ĠBeitrag":9366,"ĠAngebot":9367,"ĠGriechen":9368,"Gott":9369,"binden":9370,"ku":9371,"ocken":9372,"uste":9373,"Ġemp":9374,"Ġaben":9375,"Ã¼chtern":9376,"onym":9377,"Ġhung":9378,"Ġzogen":9379,"atom":9380,"Ġintu":9381,"achs":9382,"Ġfuhren":9383,"Ġgegessen":9384,"ĠEver":9385,"ĠPause":9386,"ĠLu":9387,"ĠLaut":9388,"ĠLux":9389,"umpen":9390,"igant":9391,"Ġverlangen":9392,"Ġvergewalt":9393,"cks":9394,"ĠHandels":9395,"Ġschief":9396,"Ġoper":9397,"beziehen":9398,"stecken":9399,"uth":9400,"Ġdemonstr":9401,"ĠProp":9402,"mengen":9403,"Ġstra":9404,"ĠReichtum":9405,"Ġspont":9406,"iller":9407,"ĠLeg":9408,"ogie":9409,"ĠSpe":9410,"Ġklingen":9411,"ophren":9412,"ĠUganda":9413,"Ġras":9414,"ĠrÃ¼ber":9415,"izophren":9416,"igerweise":9417,"Ġkooper":9418,"Ġdumm":9419,"ĠAuswirkung":9420,"ĠzurÃ¼ckkommen":9421,"Ġberu":9422,"ĠFlasche":9423,"ĠBlase":9424,"ĠKohlend":9425,"ĠLichter":9426,"Ġ2004":9427,"Ġ700":9428,"ĠWerke":9429,"Ġanzugehen":9430,"ĠflieÃŁen":9431,"ĠHÃ¶lle":9432,"ĠBÃ¼rgermeister":9433,"Ġbewahren":9434,"Ġeinzusetzen":9435,"straÃŁe":9436,"ĠBelast":9437,"ĠTÃ¼rk":9438,"abhÃ¤ngigkeit":9439,"ĠWohlbefinden":9440,"ĠLÃ¶wen":9441,"Ġbehaupte":9442,"ĠwÃ¼nschen":9443,"Ġkomplizierte":9444,"ĠStatistik":9445,"Ġ1970":9446,"ĠSzenar":9447,"ĠzukÃ¼nftige":9448,"ĠNervenzellen":9449,"ĠGlobalisierung":9450,"ĠKatastrophen":9451,"ĠJournalisten":9452,"tragung":9453,"ĠFlederm":9454,"Ġdramatisch":9455,"Ġallgemeinen":9456,"firma":9457,"Ġillegal":9458,"WÃ¼rden":9459,"ĠPopulation":9460,"ĠPraxis":9461,"Ġinklusive":9462,"KW":9463,"Kopf":9464,"Rob":9465,"Teil":9466,"ci":9467,"fro":9468,"hten":9469,"ius":9470,"ippe":9471,"nam":9472,"wa":9473,"Ġy":9474,"chron":9475,"undern":9476,"Ġsuchten":9477,"Ġmar":9478,"gekommen":9479,"Ġhalt":9480,"Ġnationalen":9481,"ĠzusÃ¤tzlich":9482,"ĠMÃ¼n":9483,"ĠMahl":9484,"ĠMauer":9485,"Ġgreifen":9486,"els":9487,"ĠKandid":9488,"Ġersetzt":9489,"ĠHon":9490,"Ġschie":9491,"steten":9492,"ĠNov":9493,"ĠNutzer":9494,"raut":9495,"ĠOption":9496,"ĠenttÃ¤u":9497,"ingung":9498,"ops":9499,"well":9500,"Ġkonkur":9501,"kept":9502,"Ġliebt":9503,"Ġargument":9504,"klar":9505,"hafen":9506,"Ġzweit":9507,"Ã¤ndler":9508,"grunde":9509,"Ġschlussendlich":9510,"Ġvermittelt":9511,"Ġoffensicht":9512,"ĠGegenstÃ¤nde":9513,"ĠAmerikas":9514,"mitten":9515,"ĠVortrÃ¤ge":9516,"Ġentdeckten":9517,"ifest":9518,"ĠKore":9519,"Ã¼tteln":9520,"Ġerkunden":9521,"ĠParlament":9522,"ĠReserv":9523,"ĠLife":9524,"ĠStandpunkt":9525,"Ġverschm":9526,"ĠMagnet":9527,"Ġtechnische":9528,"ĠBÃ¤umen":9529,"Ġbedroht":9530,"Ġblock":9531,"ĠZufriedenheit":9532,"Ġvorhersagen":9533,"Ã¼chtig":9534,"ĠNotiz":9535,"Ġvisuellen":9536,"Ġliefert":9537,"ĠBallon":9538,"Ġnachhaltig":9539,"Ġnachhaltige":9540,"grÃ¶ÃŁe":9541,"ĠRaketen":9542,"ĠAlltag":9543,"ĠOktober":9544,"ĠFliege":9545,"ĠTitan":9546,"Ġlinke":9547,"Wahrscheinlich":9548,"ĠMuslime":9549,"ĠÃ¤rmsten":9550,"ĠBaseball":9551,"ĠEntstehung":9552,"Zeit":9553,"bein":9554,"da":9555,"dauer":9556,"ks":9557,"way":9558,"ymm":9559,"zo":9560,"Ãĸ":9561,"stil":9562,"stÃ¤r":9563,"Ġhell":9564,"Ġbraun":9565,"ĠGift":9566,"ĠKeine":9567,"ĠKÃ¶pfen":9568,"leute":9569,"Ġerlangen":9570,"rott":9571,"ĠImm":9572,"Ġbefr":9573,"Ġbeachten":9574,"Ġaufmerksam":9575,"ĠHai":9576,"ĠRichtig":9577,"Ġoffiz":9578,"Ġtheor":9579,"ĠausfÃ¼hren":9580,"Ġpfl":9581,"ĠInhalte":9582,"hnte":9583,"Ġstimm":9584,"oto":9585,"ular":9586,"ulation":9587,"ĠSpur":9588,"ĠSpeicher":9589,"heber":9590,"Ġunterscheidet":9591,"ĠZeitungen":9592,"Ġzweitens":9593,"ĠEinheiten":9594,"Ġgewinnt":9595,"ĠKontroll":9596,"ĠKonkur":9597,"ĠHeran":9598,"garten":9599,"Ġangekommen":9600,"ĠAlz":9601,"ĠLebensqualitÃ¤t":9602,"Ġgebildet":9603,"kunst":9604,"ĠGroÃŁvater":9605,"Ġfestge":9606,"Ġ800":9607,"ĠschÃ¶nes":9608,"ĠWerten":9609,"Ġschwierigen":9610,"ĠGeschichtener":9611,"Ġhoffnungs":9612,"ĠParty":9613,"ĠHÃ¶hle":9614,"ĠMikroskop":9615,"Woher":9616,"ĠFuÃŁball":9617,"ĠTempo":9618,"ĠSchÃ¼lern":9619,"Ġwidersp":9620,"Ġwinzige":9621,"ĠGrav":9622,"Ġtiefe":9623,"ĠFelsen":9624,"ĠBerufs":9625,"Ġintelligente":9626,"ĠNiemand":9627,"Ġnutzten":9628,"ĠÃľbung":9629,"wissenschaftler":9630,"ĠreligiÃ¶sen":9631,"Ġvirtuellen":9632,"ĠStiftung":9633,"ĠSammlung":9634,"ĠDamit":9635,"ĠArbeitsplatz":9636,"ĠIllusion":9637,"ĠÃ¼berprÃ¼fen":9638,"Ġprofitieren":9639,"ĠSchÃ¤del":9640,"Ġschnelle":9641,"Ġangetrieben":9642,"Ġhilfreich":9643,"summen":9644,"ĠMoskit":9645,"ĠGletscher":9646,"Ġehemal":9647,"BI":9648,"ET":9649,"aver":9650,"kette":9651,"wort":9652,"erdings":9653,"Ġeffizient":9654,"Ã¼hle":9655,"schÃ¶nen":9656,"ĠnÃ¶r":9657,"llte":9658,"Ã¤ser":9659,"Ġzugrunde":9660,"orter":9661,"auch":9662,"Ġwirft":9663,"ĠMR":9664,"ĠAv":9665,"lichung":9666,"terte":9667,"terung":9668,"ĠBeinen":9669,"ĠBron":9670,"ĠKenn":9671,"ĠFront":9672,"Ġerfordert":9673,"ĠDichte":9674,"ĠDÃ¼n":9675,"row":9676,"igma":9677,"ĠTode":9678,"ĠTrink":9679,"isierten":9680,"ĠHals":9681,"ray":9682,"ĠschÃ¤d":9683,"Ġtreibt":9684,"bew":9685,"ĠZig":9686,"Ġumwelt":9687,"ĠÃ¼bersetzt":9688,"ĠGefahren":9689,"ĠSchnell":9690,"ĠSchreibt":9691,"zustand":9692,"ĠOel":9693,"ĠErschein":9694,"Ġstruktur":9695,"rugen":9696,"ĠSpenden":9697,"ĠSpuren":9698,"wecken":9699,"rix":9700,"flei":9701,"ĠfÃ¼hlten":9702,"geld":9703,"Ġweiterentwick":9704,"Ã¤ub":9705,"gebungen":9706,"Ġverbrauchen":9707,"ĠFlu":9708,"reichend":9709,"ĠheiÃŁe":9710,"unterricht":9711,"thiop":9712,"eimittel":9713,"ĠDez":9714,"Ġ2006":9715,"zeichnung":9716,"ĠProduktivitÃ¤t":9717,"Ġcirca":9718,"ĠGegenstand":9719,"fÃ¤llig":9720,"Ġbevorzu":9721,"ĠFotograf":9722,"werkraft":9723,"geschÃ¤ft":9724,"ĠÃ¼ben":9725,"ĠFlugzeuge":9726,"Ã¤chtigen":9727,"ĠEuropÃ¤":9728,"Ġquer":9729,"ĠKilo":9730,"ĠRuanda":9731,"organisation":9732,"ministerium":9733,"Ġafrikanische":9734,"ĠSchriftsteller":9735,"ĠGestaltung":9736,"Ġsexuelle":9737,"ĠTrends":9738,"ĠHomo":9739,"Ġprogrammieren":9740,"ĠungewÃ¶hnlich":9741,"ĠzusÃ¤tzliche":9742,"Jedenfalls":9743,"zweifelt":9744,"ĠSymmetrie":9745,"Ġgeblieben":9746,"Br":9747,"Bes":9748,"Or":9749,"breite":9750,"griffen":9751,"ln":9752,"lem":9753,"uden":9754,"vas":9755,"enten":9756,"Ġdicht":9757,"inationen":9758,"ani":9759,"Ġmalen":9760,"gehÃ¶r":9761,"ĠSatur":9762,"ati":9763,"ĠMist":9764,"ĠAuch":9765,"ĠGand":9766,"urr":9767,"Ġert":9768,"Ġerrichten":9769,"ĠDinger":9770,"ĠDynamik":9771,"ĠLau":9772,"ĠTV":9773,"ĠTÃ¤tigkeit":9774,"ĠId":9775,"reter":9776,"Ġbedenken":9777,"Ġaufrecht":9778,"ĠHaben":9779,"ĠschieÃŁen":9780,"Ġlagen":9781,"Ġtrennen":9782,"ildeten":9783,"ĠStille":9784,"ĠStÃ¶rungen":9785,"ĠVeranst":9786,"ĠOlymp":9787,"ĠMenschlichkeit":9788,"ĠAnerkennung":9789,"Ġallzu":9790,"Ġspiele":9791,"ĠWeltall":9792,"opt":9793,"ĠEinige":9794,"gerung":9795,"Ġweitermachen":9796,"dustr":9797,"Ġverbraucht":9798,"Ġirr":9799,"ĠWeiter":9800,"ĠgesÃ¼nder":9801,"ĠerzÃ¤hlten":9802,"ĠbeschÃ¼tzen":9803,"Ġsicherstellen":9804,"âĢ¹":9805,"Ġclever":9806,"ĠHinweis":9807,"Ġforder":9808,"Ġabgeschlossen":9809,"ĠJeff":9810,"Ġerinnerte":9811,"jenige":9812,"ĠÃĦrzten":9813,"eidung":9814,"Ġreiste":9815,"ĠHÃ¼gel":9816,"ĠAdam":9817,"Ġauftreten":9818,"ĠCarol":9819,"sichtigt":9820,"ĠNahrungsmittel":9821,"ĠDienstleistungen":9822,"Ġausgebildet":9823,"Ġprivate":9824,"ĠAstron":9825,"Ġprimit":9826,"ĠAsteroiden":9827,"Ġattraktiv":9828,"ĠGlÃ¼hbir":9829,"ĠManhattan":9830,"ĠKohlendioxid":9831,"ĠAlzheimer":9832,"80":9833,"BC":9834,"MÃ¶":9835,"PM":9836,"Sicher":9837,"].":9838,"col":9839,"flex":9840,"krise":9841,"mod":9842,"ris":9843,"sucht":9844,"sitz":9845,"sorge":9846,"erkennen":9847,"inson":9848,"Ġsign":9849,"strÃ¤ger":9850,"eis":9851,"Ġunangen":9852,"Ã¼ster":9853,"ĠSeil":9854,"Ġnirgend":9855,"Ã¤me":9856,"Ġzugleich":9857,"ĠWelle":9858,"ĠKing":9859,"ĠKnoten":9860,"ĠFalle":9861,"ĠPenn":9862,"ĠPunkten":9863,"ĠLesen":9864,"Ġverne":9865,"regung":9866,"Ġbeendet":9867,"ÃŁte":9868,"ehnte":9869,"Ġto":9870,"Ġtollen":9871,"Ã¶ne":9872,"besch":9873,"ĠNobel":9874,"agd":9875,"Ġdiesmal":9876,"ĠIntens":9877,"ĠIndustr":9878,"ĠAnzeichen":9879,"Ġleeren":9880,"aby":9881,"block":9882,"Ġherbei":9883,"werten":9884,"obi":9885,"flÃ¤chen":9886,"ima":9887,"ĠbegrÃ¼":9888,"verl":9889,"ĠChip":9890,"...\"":9891,"ĠAustausch":9892,"Ġzwingen":9893,"Ġeinziger":9894,"ĠKooperation":9895,"ĠAutoren":9896,"ĠLehre":9897,"ensystem":9898,"Ġwohlhaben":9899,"Ġfolgender":9900,"ĠGleichheit":9901,"drÃ¼cke":9902,"ĠNordamerika":9903,"eigern":9904,"ĠAppar":9905,"ĠhÃ¤ufiger":9906,"graben":9907,"ĠAbstand":9908,"ĠerfÃ¼llt":9909,"ĠKÃ¤fer":9910,"ĠElektronen":9911,"ĠFiguren":9912,"ĠMathe":9913,"Ġallgemeine":9914,"Ġerzielen":9915,"ĠGreen":9916,"tagessen":9917,"ĠMartin":9918,"ĠGeburts":9919,"ĠBenzin":9920,"ĠPazifik":9921,"ĠIntuition":9922,"ĠMittleren":9923,"ĠAllgemeinen":9924,"Met":9925,"SS":9926,"grad":9927,"handel":9928,"kamen":9929,"uell":9930,"vern":9931,"Ġass":9932,"une":9933,"Ġsinken":9934,"Ġechter":9935,"ĠmÃ¼":9936,"schel":9937,"Ã¤nen":9938,"Ġkosm":9939,"auben":9940,"ĠApfel":9941,"Ġgigant":9942,"ĠGriff":9943,"ĠGates":9944,"ĠKÃ¶pfe":9945,"Ġansprechen":9946,"Unternehmen":9947,"ĠTaten":9948,"amide":9949,"ĠHollywood":9950,"ĠRio":9951,"ĠRiff":9952,"Ġlenken":9953,"Ġtrage":9954,"Ġtausenden":9955,"omos":9956,"ĠSchwerkraft":9957,"Ġunsicher":9958,"ĠCal":9959,"ĠCamb":9960,"ĠâĢº":9961,"ĠErwÃ¤rmung":9962,"ĠEinwohner":9963,"ĠChines":9964,"designer":9965,"ĠKindersterblichkeit":9966,"ĠHerkunft":9967,"Ġdreimal":9968,"ĠKluft":9969,"orenen":9970,"Ġeinzeln":9971,"Ġangepasst":9972,"ativer":9973,"anders":9974,"Ġirgendwas":9975,"Ġendet":9976,"ipend":9977,"ĠStudium":9978,"fÃ¤llen":9979,"Ġ95":9980,"Ġanzuschauen":9981,"geschritten":9982,"Ġerfuhr":9983,"Ġstattfinden":9984,"ĠFlughafen":9985,"ĠBewegungs":9986,"ĠBehÃ¶r":9987,"ĠPocken":9988,"ĠInstitute":9989,"ĠKÃ¼sten":9990,"ropfen":9991,"ĠbewÃ¤ltigen":9992,"ĠAbendessen":9993,"ĠVortrags":9994,"Ġtolles":9995,"Ġverhei":9996,"Ġregion":9997,"Ġethn":9998,"pressiv":9999}