#version: 0.2
e n
e r
c h
Ġ d
i n
i e
Ġ w
u n
Ġ s
i ch
Ġ e
a n
s t
a s
e i
Ġd ie
Ġ a
Ġ un
Ġ m
Ġe in
t e
g e
Ã ¼
Ġ i
o n
Ġ v
Ġ S
i r
s ch
Ġ h
Ġ n
Ġ z
l l
Ã ¤
Ġun d
Ġd as
a r
g en
t en
Ġ b
e s
h r
Ġz u
Ġ k
Ġd er
o r
e in
a t
i t
e m
d er
Ġ in
a u
Ġw ir
Ġ M
Ġa u
Ġi st
Ã ¶
ich t
d e
d en
a l
Ġ A
a ch
i er
Ġ f
l ich
b en
Ġ g
b er
Ġ G
e l
u r
Ġ ge
t er
Ġ ich
Ġ B
Ġ W
Ġe s
Ġ K
un g
l e
s e
Ġ an
Ġ E
Ġ F
Ġ er
Ġs ie
U n
s en
Ġd en
Ġ P
Ã¼ r
Ġ D
m m
r o
Ġ L
u m
n en
i g
Ġn icht
Ġv er
l s
Ġ T
Ġ I
ei t
Ġv on
Ġdas s
r e
Ġb e
i s
Ġein e
c k
s er
Ġau f
Un d
an n
Ġh a
Ġs o
Ã Ł
t z
e h
Ġm it
ĠS ie
i on
in d
Ġw ie
i sch
a m
Ġ H
en n
Ġ R
Ġa ls
r a
Ġw ar
Ġs ch
Ġ V
Ġs ich
u s
k t
en t
Ġ l
e u
Ġ o
Ġ t
f t
a hr
o l
Ã¼ ber
Ġs ind
Ã¶ n
b e
e hr
Ġha ben
Ġf Ã¼r
Ġ Z
ll e
Ġ j
st e
Ġh at
Ġm an
I ch
Ġ N
Ġau s
Ġ J
a g
Ġ um
an d
ie l
i l
i k
Ã¤ n
f f
ĠS t
Ġ Ã¼ber
Ġk Ã¶n
ein e
Ġ p
o ch
u t
Ġw er
ll en
t w
st en
o m
Ġ "
h l
Ġ â
Ġd a
ĠG e
ei l
Ġdie se
ĠS ch
Ġd em
Ġw as
Ġi m
D ie
i gen
D as
er n
h en
r ei
Ġi hr
Ġ -
b t
Ġw enn
Ġun s
s p
Ġein en
ch en
mm en
Ġdie s
ier en
E s
en sch
n e
ĠV er
W ir
ĠkÃ¶n nen
Ġd es
Ġun ser
Ġj e
i en
Ġwer den
ĠJ ahr
w ei
i v
Ġo der
un gen
r au
z u
ĠP ro
Ġ C
Ġv or
eh en
i ge
ĠI n
Ġs ein
el t
ier t
Ġ O
ĠA r
sch a
r Ã¼
at ion
Ġan der
Ġk ann
Ġw o
Ġau ch
Ġa ber
Ġein er
S ie
m en
Ġâ Ģ
Ġein em
ĠM ensch
g t
ĠA n
ĠE r
Ġn ach
Ġ 1
an z
k en
Ġm ein
or t
Ġm ach
u ch
h nen
Ġn ur
Ġwir d
Ġe tw
Ġs ehr
Ġb ei
ĠB e
isch en
Ġh ier
Ġa ll
0 0
un d
Ã¶ r
o s
h t
Ġd ar
au s
i bt
ĠMensch en
f en
Ġ ent
h n
Ġ- -
Ġm ich
ur ch
Ġs t
A ber
Ã¤ ch
Ġg ibt
is sen
Ġ le
o t
ĠâĢ ĵ
Ġw ur
ĠR e
l au
Ġd ann
Ã¤ t
Ġs p
h al
Ġals o
i ll
tz t
a b
eu te
ĠL e
in g
r u
Ġn och
o g
der n
ĠE n
scha ft
Ġetw as
b l
i ck
r ie
o mmen
mm er
Ġh er
e t
te t
an g
Ġs ehen
Ġha be
Ġw ei
ĠW elt
Ġv ie
Ġs a
Ġm ir
Ġdie ser
u l
b ei
Ġm ehr
h eit
Ġd urch
Ġ Un
ĠS p
Ġk l
isch e
er s
ro ÃŁ
o p
Ġs ag
Ġ re
m al
lich en
k eit
w e
a ll
Ġ gen
ach t
Ġv iel
an k
h e
. "
ff en
ĠLe ben
h er
lich e
A ls
Ã¼ s
Ġ U
Ã¤ r
Ġa lle
ch t
Ġ 2
us s
f ach
Ġg anz
k lich
en d
Ġwur de
Ġzu m
Ġm Ã¶
Ġun ter
r in
as s
es s
f Ã¼
r i
ĠZ eit
Ġw Ã¼r
z e
Ã¤ hr
ĠI hnen
b st
W enn
u f
as sen
Ġmach en
tz en
o ll
Ġs te
Ġg roÃŁ
e ch
Ġa b
Ġz wei
Ġwir klich
f or
Ġein fach
ĠGe sch
Ġi mmer
w er
Ġm eine
ung s
Ġb es
o b
rÃ¼ ck
f l
Ġ r
Ġa m
in ge
Ġk on
Ġw eil
ter n
b ar
Ġt un
ch te
e kt
mm t
Ġf Ã¼
sch ie
ar t
n er
n te
a ten
Ġ Ã
ĠE in
a d
Ġn eu
i st
Ġm Ã¼s
Ġhat te
i z
in den
Ġunser e
E in
a p
l ie
Ġb is
Ġâ Ļ
Ġdies es
eh men
ch e
ĠI ch
el bst
le ich
Ġh in
p er
Ã¼ ck
Ġk eine
ge l
ei ten
E r
g er
i m
g lich
Ġihr e
ion en
Ġw issen
ĠG r
ig er
r ach
ste ll
ĠmÃ¼s sen
ĠL eute
e st
hl en
un kt
s a
Als o
Ġdies em
d em
Ġso ll
om p
I n
Ġvie le
p t
Ġwar en
ÃŁ en
ĠAr t
it te
ol og
k e
r Ã¤
Ġd am
Ġsag te
Ġsa gen
ĠD inge
l t
Ġdie sen
gen d
un den
ĠJahr en
Ġ Und
ĠI hr
bl em
ĠG es
Ġwei ter
Ġbe g
Ġl ie
Ġb in
ĠW ir
il d
Ã¤ u
s am
Ġein es
d u
z en
a ge
ein en
Ġander e
k ommen
Ġge w
at s
e d
ĠâĻ «
v er
h m
ĠO r
Ġje tzt
ĠK on
Ġz ei
Ġk o
Ġander en
it Ã¤t
st er
Ġwie der
l an
au f
Ġe igen
ich te
W as
de t
icht ig
lle icht
in der
n is
Ġg lau
ĠwÃ¼r de
ge b
ĠPro blem
p p
Ġall es
Ġzu r
z i
e g
Ã¼ n
ĠE s
Ġs elbst
Ġn ie
Ġdam it
se hen
Ġd u
Ġver b
Ġa r
Ġw en
u g
au en
el n
an de
ĠC h
y st
Ġge ht
Ã¤n der
un der
a st
Ġge m
ĠM ill
ĠW as
l er
sp iel
ĠA us
Ġver s
ĠJahr e
hal ten
te s
yst em
Ġo b
Ġzu rÃ¼ck
Ġb er
al e
b eit
Ġg er
k l
o ff
Ġm uss
r Ã¶
ra gen
ĠV or
p f
Ġw el
m er
w ar
ÃŁ er
an gen
Ġden n
in n
Ġg ut
Ã¤ re
sch l
n ten
am en
ĠF rau
ig keit
Ġsch on
D er
Ã¤ch lich
v on
ĠD as
r an
Ġher aus
d es
z eu
ĠN e
a ar
W ie
Ġver st
M an
l ei
v or
o k
ĠmÃ¶ chte
r it
ste llen
e ll
ier te
Ġi hnen
f ahr
z ent
Ġbe st
ech n
a hl
ĠB ei
rin gen
Ġzu sa
ĠK inder
Ġvie lleicht
er t
Ġle tz
ation en
Ġp ass
Ġzusa mmen
i mm
h a
ĠH er
Ġs on
ĠT eil
ats Ã¤chlich
Ġb rau
ĠI de
ĠG eh
Ġp ro
Ġd rei
Ġ 3
Ġda von
z ie
ĠF l
a de
Ġd ort
Ġar bei
al en
h ne
u chen
re chen
al t
an t
Ġg leich
ĠL and
Ġh eute
hal b
a gen
e k
ĠA uf
Ġhat ten
for m
w o
00 0
Ġgen au
Ġin ter
at Ã¼r
N un
ĠGesch ichte
ck en
at t
. .
es en
Ġein ige
Ġbe t
at er
ich ten
Ġk ein
wei se
m lich
ĠA u
ĠT echn
Ã¤n dern
au t
ĠB ild
el d
an den
au m
ne t
Ġi hn
Ġj em
z Ã¤
ĠkÃ¶n nte
a k
ĠAr beit
Die s
ĠD ie
Ġi r
ra ge
sch en
en nen
at z
u d
ĠZ u
iel en
ĠF or
ĠK l
olog ie
Ġz w
Ġwo llen
ĠB l
un de
or en
Ġp aar
ir n
ĠU m
Ġmein er
in e
Ġwo ll
Ġge hen
Ġwur den
re ich
Ġein z
Ġw ahr
Ġdar Ã¼ber
f Ã¼r
ra g
q u
Ġn un
f r
w ick
Ã¤ d
Ġwer de
unkt ion
Ġb en
ĠUn ter
? "
t lich
Ġbes ser
u tzen
hr en
Ġt atsÃ¤chlich
H ier
e ich
schie den
Ġver w
g ar
ĠK o
ĠIn ter
Ġg rÃ¶
ĠBei spiel
Ġan ge
h Ã¶r
Ã¤hr end
Ġz ie
at ur
ĠB er
ĠW ei
ach e
Ġwei ÃŁ
f ol
Ġunser er
Ġg ab
a h
atÃ¼r lich
at iv
ei sten
Ġson dern
Ġg u
ĠGe b
Ġs eine
an der
Ã¤n d
Ġbe de
ĠW issen
Die se
ĠS o
Ġbe k
Ġw Ã¤re
Ġle ben
ĠWas ser
a kt
Ġneu e
o de
sch ei
Ġda zu
ul t
f e
sch ein
Ġv om
Ġw ill
Ġden ke
Ġge f
Ġ 5
t eil
ĠF re
i te
ĠG en
ĠA b
Ġh Ã¤t
Ã¶ glich
ach en
h in
ei te
Ġir gend
g ie
Ġf inden
b r
ĠA ut
Ġden ken
Ġent wick
Ġk ommen
Ġso gar
m e
Ġden en
u tz
Ġmach t
Ġein mal
Ã¶ ff
itte l
Ġh ei
ĠGr und
m a
Ġge gen
ĠA l
Ġl ang
Ġzw ischen
ĠM on
Ġge s
Ġger ade
ĠT ag
ľ ber
Ġgem acht
ar k
Ġglau be
f ten
ier ung
Ġer zÃ¤
Ġf unktion
Ġw ichtig
Ġinter ess
Ġge ben
ĠGeh irn
Ġko mmt
ers on
Ġ2 0
in gen
Ã¤ h
ande l
ge ben
Ġe x
ĠF rage
r ank
Ġer st
ĠLeben s
ik a
en den
rÃ¼ n
k eiten
ĠEn t
l Ã¼ck
Ġbede u
Ġo hne
Ġm us
y s
ĠN ach
Ġn Ã¤ch
g an
Ġje der
h em
ĠFrau en
Ġletz ten
t schaft
ĠD ank
Ġnicht s
ĠM al
a te
Ġ1 9
Ġihr en
Ġzei gen
al ten
ĠwÃ¼r den
e llen
S o
Ġda fÃ¼r
Ġver l
o d
we g
ach te
J e
Ġkon nte
i c
Ġpass iert
Ġver schieden
ge f
Ġer sten
a y
Ġ 4
ch ten
Ġsie ht
ĠD aten
ge hen
Ã¤ l
ĠPro zent
ch er
ik an
Ġm eisten
g r
Ġverst ehen
ne ll
ĠM ed
ÃŁ t
ĠRe g
i mmt
Ġdar an
s s
isch er
ru pp
Ġw Ã¤hrend
Ġbe sch
w ir
au fen
ie le
ĠMill ionen
Ġetw a
ĠE x
s el
f er
Ġm al
st and
w ie
Ġer ste
ÃŁ e
Ġwar um
er st
Ġl assen
Ġsich er
ĠM e
Ġsoll te
z eit
hr t
or d
b s
ĠH and
s icht
â Ģ
Ġm ensch
Ġsoll ten
er k
t s
ag t
Ġn atÃ¼rlich
ĠP h
ig n
y p
j ekt
lich er
iv ers
Ġsch w
ĠIde e
o gen
Ġ1 0
ier e
Ġmein en
al s
uch t
stell t
er gie
Ġmein em
e lle
ĠkÃ¶n nten
omp u
ge w
Ġsch nell
ĠÃ ľber
c e
Ġwoll te
ĠG eld
ĠP erson
f te
Ġge l
Ġk omp
ig t
Ã¤ lt
Ġj a
ĠR aum
i a
Ġge sch
t ro
Ġge b
Ġganz e
ĠgroÃŁ e
i de
p ro
au pt
ra mm
ĠW eg
schie d
Ġjem and
ck t
an ge
ll t
Ã¶ s
Ġsp rechen
Ã¶r per
Ġzie mlich
in nen
Ã¤r en
Ġsch a
on der
Ġkl ein
Ġin s
Ġbe kommen
Ġihr er
oll ar
ĠSch l
r icht
l ung
Ġarbei ten
Ã¤n g
Ġda bei
ĠM it
ĠIn form
ad t
Ġg ing
kt iv
Ġsag t
Ġk am
ĠS e
ĠM ar
ĠS te
k un
Ġh Ã¶r
er nen
i o
ĠS ystem
ier ten
tw ort
ompu ter
Ġdar auf
ar um
ĠG er
ĠÃ Ħ
schein lich
Ġn ehmen
am il
t t
ei st
D a
ol ut
st r
ut ter
kt ur
lau b
d ien
en z
a hm
Ã¤ ter
ĠP lan
m us
or den
ĠA ber
ĠUn ivers
ĠIhr e
Ġber eit
Q u
ol it
f inden
rei ben
ĠK re
ra d
Ġwen iger
ĠEn de
el e
ur z
Ġkl einen
p l
Ġsch l
fÃ¼ hl
Ġd och
ĠK ind
ĠP l
ĠD ollar
" .
Ġv ier
ĠD es
ĠG em
ĠR o
S ch
i d
kun ft
Ein e
ĠSt ra
ĠWissen schaft
l o
k er
ĠM en
Ġbedeu tet
ar bei
ĠE l
ĠB o
r at
Ġunser en
ĠF amil
ĠU S
s st
enn t
ĠM in
Ġso l
ĠÃ ĸ
i al
Ġd ir
it z
us st
Ġ Qu
or gen
ĠM us
ann t
as ch
ĠVer b
Ġun g
ĠEn tw
ĠS ache
gan is
ĠR ei
Ġd achte
ĠEn ergie
ĠTechn ologie
Ã¤ ft
ĠM Ã¶glich
ĠC omputer
ank e
te te
Ġb ringen
ru ck
n o
g l
Ġi hm
ĠSt a
Ġwel che
ĠM ann
m p
Ġs eit
Ġkl eine
ĠmÃ¶ glich
Ġbrau chen
Ġge sehen
Ġeigen tlich
ĠW e
ĠT e
n it
t r
om ent
Ġs ei
al d
ĠL ie
iv e
Ġ Y
ra ft
un k
ach sen
u ten
un ter
ĠgroÃŁ en
Ġge st
ĠS eite
a ben
Ġwen ig
f all
e tz
Ã¤ tz
it ion
ĠWei se
" ,
sch w
ĠM Ã¤n
ige s
i sten
Ġje den
Ġ en
Ġaus ge
A n
ĠGe w
al is
scha ften
I m
ĠSt adt
Ġganz en
op f
ĠSch u
ich er
in de
ar d
n ung
le gen
Ġ 6
Ġsch le
Ġk einen
ra f
Ġh och
Ġau ÃŁer
eh t
ĠhÃ¤t te
Ġv oll
hal t
fol g
u st
Ġa l
ĠM an
we gen
ĠZu kunft
ĠMen ge
hl t
ĠK Ã¶rper
ĠW och
Ġsp Ã¤ter
Ã¶ff ent
Ġges agt
stell ung
ĠT age
Ġvers uchen
ĠG rupp
ĠL icht
ĠfÃ¼ n
o ur
ult ur
f ft
ern t
i p
Ã¤ hn
Ġg ern
le ben
Ġglau ben
t h
in det
is s
den ken
ach ten
rie ben
or mal
Ġver m
ĠGe d
wo hl
ĠB uch
ĠG roÃŁ
und heit
ĠOr t
h ol
Ġviel en
ĠK ar
.. .
le x
Ġbei m
es sen
Ġung laub
ĠEntw ick
i ar
ĠF il
as se
ei m
ĠW ie
le kt
ĠAu gen
ĠâĢ ŀ
ĠM a
ĠSp iel
Ġ te
Ã¶ l
Ġste llen
Ġkon nten
e ten
au sen
eil en
al itÃ¤t
Ġhei ÃŁt
Ġf est
g ramm
ĠD e
Ġeigen en
Ġo ft
Ġge hÃ¶r
Ġl ernen
fahr en
ĠGem ein
ĠF all
ĠVer s
Ġbes onder
Ġge t
Ġso zi
ah men
Ġf ast
Ġfunktion iert
el fen
zeu g
D ann
n ehmen
on nen
ru ktur
st Ã¤nd
a den
Ġ2 00
ĠfÃ¼n f
se tzen
reich en
Ġw under
Ġin dem
ĠW o
Ġje des
Ġscha ffen
a llen
Ġn Ã¤
Ã¤nder t
lie ÃŁ
Ġ rie
ĠSt ud
ge s
Ġbe f
ĠN atur
ei le
rei s
ĠgrÃ¶ ÃŁ
i um
st off
ĠEr de
ĠUn tern
fr ika
rit t
Ġgu te
s o
Ġl ange
o ten
Ġsch wer
ze ich
Ġo ffen
S t
s atz
Ġn utzen
ĠM utter
ĠM oment
ĠProblem e
ĠSch ul
ĠH aus
Ġg l
h o
ĠMill iar
au se
W arum
in ner
gef Ã¤hr
âĢ ľ
ĠP at
h le
ĠSp rach
i b
ĠInter net
ot t
ech s
nis se
ĠPro du
ei den
lich keit
Ġsein er
ik er
m pf
z ahl
ĠGes ell
sp ro
E D
w usst
isch es
v olut
et t
a ck
Ġsa h
Ġwahr scheinlich
ĠW enn
Ġall er
Ġh elfen
ĠGes undheit
a hlen
Ġa llen
es ser
a mmen
Ġ 8
eu ten
Ġw eit
ĠK am
ĠAn g
k on
Ġw eg
it u
Ġander s
Ġ c
Ġf ol
Ġein ge
Ġgen ug
Ġzei gt
Ġher um
Ã¼n st
Ġsch Ã¶n
ch mal
Ġunser em
Ġneu en
du z
Ġw icht
Ġf rÃ¼
ĠerzÃ¤ hlen
il der
Ġkl ar
volut ion
D enn
f angen
ĠFor m
ĠH in
h eiten
den t
ĠnÃ¤ch sten
g lichen
Ġver k
Ġ 7
os sen
ĠUS A
p h
un st
y n
Ġk ennen
Ġbeg ann
r en
lich es
Ġn e
rau m
g leich
ĠL ehr
ĠW ahr
k ay
w elt
rie g
Ġs e
ĠgrÃ¶ ÃŁer
Ġw us
scha ffen
Ġbe h
k o
z ess
schei d
' s
a be
Ġun gefÃ¤hr
Ġw e
Ġbet rach
g angen
l Ã¶
l and
Ġb auen
Ġ1 00
Ġje de
Ġst ar
r on
ĠV ide
andel n
ken nen
u ft
ĠM o
um en
Ġ1 5
eh n
ĠGe gen
Ġr ichtig
h under
f Ã¤
Ġb lei
se tzt
ll ig
ĠM et
in a
re ffen
Ġbe vor
zie h
Ġgem ein
Ġ3 0
Ġ5 0
Ġlie gt
Ġver Ã¤ndern
Ġbis schen
ĠPlan eten
Ã¶ t
ĠA mer
ĠDes ign
Ġ 9
Ġre cht
ĠB Ã¼r
ĠNe w
ek te
Ġh Ã¶
Ġn ormal
er e
mm un
ĠL euten
Ġsein en
en s
ig keiten
Ġg ar
ĠF Ã¤h
Ã¤ch e
ĠPro jekt
Ġf al
ĠK unst
eu t
for der
b o
Ġk urz
ĠSchu le
as st
Je tzt
ĠR ob
ĠIde en
ch n
ĠM ater
Ã¤n de
in k
Ã¤d chen
ĠF ot
ĠInform ationen
ĠW er
ĠÃ¼ber all
m Ã¶
ĠSch w
a v
sch e
kt ion
om en
ĠEr fahr
d ig
Ġ ro
Ġsag ten
Ġste hen
ĠFor sch
u tzt
ĠMus ik
an ken
m it
m ittel
Ġer n
Ġin ner
M it
Ã¼ tz
ĠD i
ĠT ED
rin gt
it zen
ĠgehÃ¶r t
is mus
ĠA t
ĠAr ten
Ġvers uch
ĠM u
l os
ĠM ode
Ġer kl
ĠK opf
Ġhin ter
or ten
ĠP unkt
Ġdar um
Ġn ennen
Ġan zu
ien ten
m and
Ġschw ier
i mmen
en ken
ĠS u
ĠWir tschaft
ĠK rank
ĠAn twort
s y
Ġe ben
Ġmus ste
ĠA ls
us ammen
Ġihr em
Ġre den
ĠMilliar den
wer k
ge sch
ĠUntern ehmen
er en
anz en
p r
Ġs el
rie b
Ã¤n ger
Ġander es
ĠV ort
ie f
ze pt
iz in
Ġd ich
ĠGeb Ã¤u
schei den
Ġbereit s
ĠNe tz
f ang
Ġb em
b ringen
ĠEx per
ĠMÃ¤n ner
o lle
Ġh al
au er
ĠgroÃŁ art
V ielen
Ġe uch
ĠJahr hunder
u bl
ĠUnivers um
g ung
ĠSt u
ĠB i
ge m
ĠF ragen
ĠR icht
amen s
ri ff
Ġentwick elt
ein ander
Ġf ragen
ĠGesch ichten
s k
v oll
Ġer kennen
ĠBe d
Ġer reichen
ĠMin uten
z ei
ĠB Ã¼
Ã¶ hn
Ġf rag
ĠAut o
w as
Ġh alten
Ġste ht
ĠL Ã¶s
Ġbesonder s
Ġo ben
Ġer h
ĠGesell schaft
Ġsp ielen
Ġn amens
ie lleicht
Ã¶ sen
om e
Ġben utzen
Ġverschieden e
iel t
Ġent de
ĠFamil ie
i f
ĠO b
in en
ĠhÃ¤t ten
ĠM Ã¤dchen
Ġsein em
Ġgern e
il fe
ĠVer halten
Ġ Ã¼
a un
a hn
p en
er v
ann te
zent r
ck e
ind ung
M eine
n ahm
Ġd e
Ġmach te
ande lt
r as
ĠA frika
Ġdar in
ĠhÃ¶r en
ĠEnt scheid
ĠFil m
Ġer f
ĠK or
Ġh o
Ġ Ã¤hn
de ut
D anke
o ter
ĠG l
ĠT hem
ĠGrupp e
ak ter
i ent
Ġs echs
un ge
ro m
Ġgl ob
k te
Ġbe ein
ĠSt Ã¼ck
Ġwo hl
Ġst att
gr und
sch nit
M ein
ĠEr geb
bar e
r ichten
Ġje dem
Ġbrau cht
ĠG lÃ¼ck
in dern
gel n
Ġbest imm
ĠFl ug
Ã¶l ker
on en
ur s
eu er
ĠBe weg
ĠOr ganis
b ild
k ehr
Ã¼ t
Ġge sam
ĠIn dien
lieÃŁ lich
ĠM acht
le t
ĠF ar
ing s
Dies es
ĠAng st
ĠS elbst
Ġentwick eln
s on
ĠF ir
A ll
Ġ ch
en det
mal s
se tz
Ã¤ch t
Ġr icht
o ck
an ten
ĠZ usammen
Ġvor stellen
ĠHer z
ĠEl tern
Ġrie s
ĠPat ienten
d r
ĠB ilder
F Ã¼r
Ã¤ uf
um e
he or
Ã¼ tzen
Ġt ro
fÃ¼ hrt
as e
Ġm ag
sy ch
Ġg lÃ¼ck
a mm
s ystem
ĠGe fÃ¼hl
ĠL uft
ik ro
A uf
p unkt
ĠMÃ¶glich keit
ĠFre und
e zie
gen ommen
Ġf lie
ĠB au
ĠK ultur
Ġer halten
ĠâĻ ª
Ġein igen
ĠS Ã¼
Ġbe wegen
zu g
ĠU r
er r
ĠSt unden
ĠV ater
Ġirgend wie
a i
ĠSprach e
an te
Ġn a
ur op
i der
ik en
Ġverschieden en
icher heit
ĠB eh
re ten
ĠSt r
g te
Ã¤ sst
ĠF Ã¼
Ġbei den
ers Ã¶n
Ġ %
Ġh off
Ġer w
o w
u er
ĠF ol
Ġman chmal
h aupt
an nen
zeu gen
Ġ Ã¤ndern
in ieren
es se
ok rat
Ġa lt
Ġwoll ten
o hn
or k
s ie
ĠW ort
ĠfÃ¼ hren
V or
Ã¤ ten
ĠBer eich
g al
ĠD u
ĠVer Ã¤nder
ĠAr m
Ġf rei
Un ser
ĠR Ã¼ck
Ġd rau
Ġbe sten
ge stellt
Ġste ll
Ġeinz ige
te ten
ĠL in
Ġab s
ĠnÃ¤ mlich
ĠVide o
v est
ten s
ĠG rÃ¼n
Ġer k
ĠH ause
Ġeinz el
ĠReg ierung
U m
g ang
ur e
ĠSt Ã¤d
ĠMe er
is k
ubl ik
Ġver t
b te
Ġun be
ĠS achen
Ġf or
ĠP art
ĠGen er
Ġunter schied
ĠRob oter
in anz
ĠBe g
ĠS inn
ĠD em
z t
Ġverw enden
te l
Ġver Ã¤ndert
h Ã¤ng
ĠA m
ĠBe zieh
ĠGes icht
I hr
Ġe her
Ġunglaub lich
Ġp er
zu stellen
Ġsa ge
Ġd r
eh e
sten s
fÃ¼ hr
on e
Ġinner halb
ar ten
ĠM asch
hl te
Ġbeg innen
Ġ Ã¶ffent
Ġmensch lichen
B ei
er weise
Ġf and
J a
rei fen
ĠW erk
ĠK indern
Ġgemein sam
st ehen
ĠM ein
ĠAuf g
ĠGebÃ¤u de
d ruck
ĠÃ¼ber haupt
Ġwel ch
Ġwe gen
V ielleicht
k ten
te m
y m
den ten
Ġl os
ĠHer aus
ĠKre bs
Ġb rach
ĠK omp
sen t
ĠH Ã¶
ick en
Ġget an
en zen
ĠG ott
hem at
ĠP ol
no v
ie t
ber fl
ĠP o
schl ossen
ĠS k
ĠS on
ĠZ iel
ĠF ahr
mm e
ĠL Ã¤nder
u ÃŁ
Ġ [
er ikan
Ġab ge
fÃ¼ hren
Ġgleich en
a z
ein t
Z u
Ġbe ob
ĠN eu
Ġan sch
rau en
Ġg r
Ġvers ucht
Ġz war
ig ten
ff ekt
v Ã¶lker
Ġsch auen
r acht
on t
ĠL age
iv i
D och
ĠEntwick lung
h an
in gt
Ġver d
Ġall em
Ġwel tw
ativ e
en de
at hemat
ab or
u te
ĠAr ch
Ġp olit
ĠK n
Ġt reffen
ĠWoch en
ĠMater ial
Ġauf ge
k Ã¼
ĠD er
am p
Ġl ei
ĠHeraus forder
ĠB ab
Ġj en
ĠCh ina
a w
ent r
ĠK rieg
ĠT o
Ã¤n gt
i ff
f el
ĠN acht
ublik um
en k
h aus
ei gen
ĠGr Ã¶
Ġnie mand
ĠUm welt
i men
Ġaus zu
ĠAls o
Ġ rau
wer t
d lich
Ġmein es
Ġmus sten
ĠB r
um ent
ĠRe st
O der
ĠP ar
ĠAn t
bar en
nahm e
ei ster
Ġb el
ach st
ĠPro zess
Ġwus ste
ĠErfahr ung
os s
Ġd re
ĠAn fang
m Ã¶glich
w Ã¤r
ur en
ĠD ingen
Ġfol gen
N ach
Ġb l
S te
Ġk amen
enn e
aus o
Ġweiter e
Ġ4 0
el ig
ĠT iere
Ġ ...
Ġent f
ĠnÃ¤ch ste
ĠT ier
s ein
Ġle icht
ran ken
Ġ1 8
Ġpro duz
d och
s Ã¤tz
Ġv Ã¶
ĠP rÃ¤
Ã¤ch st
ar e
ar beit
ĠfÃ¼ hlen
ag er
ĠEs sen
ĠM ittel
Ġer re
ĠVer ein
eh l
Ġbek o
i an
ar en
ĠA ll
ĠP ap
tz lich
Ġt ut
ĠGr unde
Ġs ter
ĠGesch Ã¤ft
ĠLehr er
achst um
D es
an ach
ĠK ap
ann ten
Ġsol che
ĠTage s
Ġer sch
ra gt
an twort
ĠFre unde
ĠS icherheit
Ġf l
ĠZ ug
zie hen
it ze
rie den
Ġex ist
Ġun ten
ĠSt ruktur
Die ser
Ġvor her
Ġeigen e
ĠY ork
ol d
ĠJ a
ĠJ e
Ġ1 2
ll igen
ĠE igen
ĠF rei
ran sp
ĠKl im
Ġmensch liche
Ġfal sch
n ahmen
Ġw orden
Ġauf zu
ĠS itu
ation al
sp h
all s
ĠKon t
a x
m an
Ġletz te
Ġerst aun
ĠMÃ¶glich keiten
or te
Ġer war
ĠP f
Ġl Ã¤sst
ĠC o
ation s
Ġunter s
ĠBo den
Ġw Ã¤ren
Ġb ringt
Ġdam als
ĠUnter schied
Ġw or
Ġder en
ĠPro gramm
ĠIn st
ze an
h Ã¤lt
ĠG leich
Ġver schw
Ġje doch
Ġher vor
l ungs
ĠD urch
im ent
Ġ '
ĠVer t
m in
iz ieren
x t
st att
ĠR es
ste t
Ġgr und
k sam
el ten
Ġer lau
Ġsch reiben
ha ft
ĠGed anken
d rÃ¼ck
ĠH ilfe
sicht lich
tro ll
fall s
ĠvÃ¶ llig
ĠS ek
ĠM ikro
ĠB es
Ġob wohl
ahr en
ien en
ze llen
Ġgleich e
ĠP r
Ġm o
Ġ or
ĠS ter
ĠBe t
imm e
ĠT yp
Ġber Ã¼
u e
ĠJ ob
Ġblei ben
Ġfrag te
b auen
op p
lan gen
inn t
ĠThem a
Ġh under
uch e
og raf
fl uss
Ġdir ekt
ĠSta aten
w esen
ĠF ort
Ġent scheiden
Ġl Ã¶sen
iz iert
olog ien
ge t
ĠF ern
ĠD r
Ġdes sen
b au
b ung
bl ick
ĠMar kt
Ġso llen
Ġt eil
Ġp h
ĠSch we
lie ÃŁen
ĠWoch e
Ġer inner
ing er
Ġ2 5
Ġfunktion ieren
u b
Ġs uchen
Ġbest eht
S p
W o
Z um
ĠD N
ra kt
Ġst ark
Ġbetrach ten
m ot
ĠN u
Ġverb esser
hÃ¶r en
ĠMon ate
b es
sch t
ĠP olit
ĠL i
am ent
il den
ausen de
f ort
z ogen
eh m
ĠH aupt
wir k
c en
al ien
ĠK Ã¼
ĠN amen
lÃ¶ tzlich
Ġt eilen
zi p
ikan er
Ġzu vor
fl anzen
Ã¤ hlen
ĠO zean
Ġgen auso
schnit t
ĠL Ã¤ndern
ĠT r
geb ung
tr em
l icht
Ġp ersÃ¶n
ĠNe ur
ĠE lekt
sp r
erst Ã¶r
Ġschwier ig
Ġge d
arbei tet
Ġz ehn
at ten
os it
Ġinteress ant
W issen
v ers
ĠK raft
ĠH a
Ġste llt
V er
ĠZ ellen
Ġsp rach
ri fft
ĠGes etz
Ġben Ã¶t
Ġlang sam
zei gt
a f
o ol
el be
ĠK at
Ġer mÃ¶
ĠD ar
ĠfÃ¼ hrt
Ġgef unden
Ġtro tz
on d
am e
Ġbem er
ĠLÃ¶s ung
w end
ĠN ahr
inn ern
ĠFamil ien
ĠTe am
Ġge scha
Ġzwei te
akt ion
ch ter
Ġunser es
heor ie
W eil
wei sen
ĠIhr en
Ġverb unden
ĠÃĸ l
Ġin te
ĠgrÃ¶ÃŁ ten
ge gen
or e
Ġsie ben
ro p
ĠFÃ¤h igkeit
L assen
N ein
sp iele
Ġster ben
ie ten
ĠMode ll
Ġb itte
Ġk aufen
zeu ge
ĠMed ik
berfl Ã¤che
al ter
ĠH o
Ġam erikan
Ġkomp lex
N icht
ĠW ahl
ĠP er
j ekte
ben e
Ġsch eint
ĠEr folg
ite in
ĠAut os
P ro
ĠP rin
ig ung
ff e
tw orten
sp ir
iv en
Ġlie be
ĠLie be
ĠgrÃ¶ÃŁ te
al er
Ġander er
ĠEn gl
b ten
Ġl esen
rei ten
ĠL abor
Ġheraus zu
au ft
ĠB ru
Ġdrau ÃŁen
l ine
ĠB ro
spro chen
ĠZ ahl
ĠIn d
ĠBeweg ung
ĠGemein schaft
Ġbeein fl
Ġwelch es
vÃ¶lker ung
d ie
j Ã¤hr
Ġd ein
Ġha st
ĠBe deut
ĠfÃ¼ hr
un ehmen
Ġm itein
Ġein s
Ġer innern
ĠIn nov
Ã¤u ft
wo hn
ff iz
a ÃŁ
D u
ĠI s
ĠSt and
Ġn ahm
ĠF r
ĠP ublikum
war e
Ġsch lieÃŁlich
Ġgel ernt
Ġg ro
l assen
iv er
du st
Ġgew esen
ĠArch ite
j en
Ġer schaffen
ĠT ats
Ã¼nst ler
it y
ag ieren
sie ht
z w
Ġhin ein
ĠMed ien
b el
an s
Ġf anden
Ġbe wusst
och en
o se
in ne
Ġpass ieren
ĠAl ter
Ġs ehe
an ce
i mmer
ĠM il
Ġes sen
re ck
eh ler
ol z
ik o
Ġerkl Ã¤ren
ĠglÃ¼ck lich
i ft
ĠE is
ĠE urop
Ġgegen Ã¼ber
ĠRei he
W er
n ern
Ġl Ã¤nger
ĠVerb indung
G e
Ġer le
ĠBÃ¼r ger
ĠMu ster
A m
ĠG o
ĠN icht
Ġ6 0
f ern
Ġw achsen
Ġer folg
Ã¤l ter
ĠJahrhunder t
was ser
l in
Ã¤ ÃŁ
es e
Ġdar aus
ĠTechn ik
Ġjem als
ĠÃĦ r
f in
g liche
Ġb ist
it ut
le tt
Ġsch war
rei bt
Ġunter st
Ġgew orden
gew Ã¶hn
Ġgeb aut
ink s
Ġn immt
Ġhin aus
Ã¤l fte
Ġschle cht
ges sen
ĠWahr heit
ĠStu denten
ĠSÃ¼ d
ĠW ert
ĠZ wei
ĠÃ¼ br
O kay
Ġkon zentr
f Ã¤h
n t
Ġ qu
ge fÃ¼hl
Ġf r
ĠK ranken
ivi du
Ġmitein ander
ĠmÃ¶ chten
ĠFÃ¼ hr
m o
Ġb r
it Ã¤ten
Ġaus sehen
ĠSch ritt
ĠEr w
Ġwissen schaft
ĠTechn ologien
ĠRicht ung
g n
or al
ĠR is
zeu gt
ĠBl ut
ĠWissenschaft ler
Ġne ben
Ã¤ mp
ĠH off
ĠV ir
Ġdes halb
ĠAn zahl
Ġnach dem
d ass
Ġmach e
Ġbeg innt
Ġan fangen
Ġbe w
Ġverl oren
Ġklein es
lau f
ei d
Ã¶r ter
ĠPl atz
H eute
Ġklein er
Ġ8 0
B e
k el
r Ã¤n
Ġver sch
ĠC hr
ativ en
j a
at or
ĠBl ick
Ġper f
Ġso fort
wei s
mer ksam
ig it
Ġt ief
dust rie
C A
ĠS icht
Ġge zeigt
kt u
Ã¤n gen
Ġp lÃ¶tzlich
Unser e
Ġd anach
Ġein zu
Ġh il
Ġsch rieb
ĠEr k
l ang
ĠT est
rau ch
ri ft
ĠAufg abe
w and
Ġb i
Ġf indet
ĠRe cht
Ġstell te
ĠÃ¼ber ras
ĠIhr em
ĠKrank heit
Ġl aufen
sp ekt
ĠUm gebung
V iele
d urch
Ã¤n den
Ġwer t
Ġgu ten
ĠA ben
ĠF uÃŁ
f on
Ġbesch Ã¤ft
ĠForsch ung
Ġrau s
e y
zeit ig
ĠTats ache
s m
st ra
Ġgen annt
ed izin
Ste llen
as z
Ġin d
ĠM ot
ĠIhr er
G en
as en
es ent
Ġf ort
Ġall ein
ech an
ĠVor stellung
ĠRo lle
wusst sein
ĠVerÃ¤nder ung
ĠT eile
unk te
ĠhÃ¶ her
Ġentf ernt
Ġbeko mmt
s i
ĠDank e
ĠBedeut ung
e zi
Ġa cht
Ġg rÃ¼n
Ġverw endet
ĠRei se
Ġsch au
ĠSitu ation
k raft
p rÃ¤
de te
sp rechen
Ġnach zu
ĠCh ar
Ġe gal
Ġk Ã¼
ur t
ĠH Ã¤lfte
Ġt at
Ġt Ã¶
ĠGew alt
. âĢľ
N atÃ¼rlich
c t
Ġa ktiv
ĠB el
ra ten
Ã¤n ge
Ġson st
K Ã¶n
gen de
Ġbe we
ĠBild ung
ĠGrÃ¶ ÃŁe
re cht
Ġsa mm
Ġe lekt
ĠS onnen
ier ungen
ĠD a
Ġver Ã¶ffent
Ġnach denken
rad ition
ĠFot o
ĠG al
el te
ĠRe alitÃ¤t
Ġben utzt
a ce
z us
in es
ĠM ag
ĠM itte
Ġgef Ã¤hr
ĠKam er
ĠStÃ¤d te
ĠA ktiv
Ã¤u ser
Ġnie mals
Ã¤nd ig
Ġhoff e
ĠMein ung
O h
l age
Ġge h
Ġre ich
g ten
i ten
ĠHerausforder ung
Ġ rei
ĠT Ã¼r
ĠSt imme
Ġbei de
ĠStud ie
z Ã¼
Ġ Ã¶ff
sph Ã¤re
m ent
ich tet
ro h
Ġbe ste
ys ik
ĠStra ÃŁen
imm el
Ġjem anden
tro lle
Ġweltw eit
Ġerre icht
Ã¤ ss
ĠK il
teil t
wir tschaft
Ġsozi ale
ĠVort rag
ar m
ĠM athemat
ĠK Ã¶n
ĠF Ã¤
Ġver rÃ¼ck
Ġbek annt
Ġte chn
Ġerfolg reich
a ffen
ĠT em
ck er
ĠmÃ¶ gen
lan t
ĠDem okrat
Ġk re
Ġal ten
ĠEntscheid ungen
â Ļ
Ġg ingen
tz ut
pp e
rit ten
Ġbek am
Ġex trem
ĠF isch
eu tzut
ĠN ord
om b
ĠEr d
ap p
ĠInform ation
eutzut age
Ġr ein
Ġzei ge
Ġkomp lett
Ġ ur
Ġt oll
uch s
Ġent st
et te
T atsÃ¤chlich
Ġkon troll
Ġzie hen
arbei ten
v e
Ġ ru
Ġge geben
Ġhin zu
Ġgen ommen
ĠStra ÃŁe
ĠPrin zip
ei g
ĠJ u
des sen
ert ig
t u
ar te
Ġb lau
ĠT at
eh mer
Ġlie ben
t ten
Ġa k
Ġf ahren
Ġda her
ĠCh em
ĠKo lle
ĠG eist
ĠW achstum
ite l
ĠEntwick lungs
Ġwicht iger
ĠSon ne
ar kt
ra b
Ġl au
ol ogen
ĠSch Ã¼
ĠMed izin
Ġschnell er
bild ung
ie gen
Ã¤ llt
or f
le kÃ¼
ĠR ad
ĠP reis
Ġmach ten
Ġst and
ant ast
jen igen
w issen
Ġe mpf
sch ul
Ġz er
ar i
Ã¶ st
re ch
ĠZ ahlen
schie ht
ĠKo sten
Ġse tzen
ĠDN A
ĠD ro
ri m
Ġinteress iert
ĠGe f
og ra
ist an
I st
st Ã¼ck
Ã¤ tzen
ar r
Ġge schieht
ĠK al
ĠSt rom
ist er
Ġbrach te
ĠVerein igten
Z wei
ĠB Ã¤
ĠAmer ika
Ġherauszu finden
st ein
le gt
ft ware
ĠO berflÃ¤che
ran s
Ġgeb oren
st ruktur
ĠMe ter
au ern
Ġf asz
ĠR u
Ġlie gen
Ġflie gen
v iel
z te
Ġn ennt
geb racht
ĠFÃ¤h igkeiten
ĠErgeb nis
ĠFir ma
5 0
k re
at te
am er
ĠZ eu
Ein ige
ĠMa ÃŁ
ĠfrÃ¼ her
ĠPap ier
W Ã¤hrend
g or
i le
s sen
in z
on s
ĠB akter
ĠF ehler
is se
Ġ1 1
uch ten
ĠEin z
Ġb as
ind ungen
Ġst immt
ĠNach richten
Ġabs olut
Ġt ot
Ġen or
ĠGener ation
ĠMasch ine
au ber
ĠI m
Ġbe d
tw as
ab hÃ¤ng
og le
itz t
ĠBezieh ung
Ġ 000
ra in
ĠIn f
ess our
Ġgesam te
Ġeinfach e
ob il
Ġneu es
sa mm
ĠGesundheit s
ĠFort sch
schl agen
! "
a lle
ie g
Ġz erstÃ¶r
Ġwir tschaft
im p
schl ag
Je der
ĠKar te
ĠBÃ¼ cher
wirk ungen
it ter
ĠJahr z
inde st
h and
Ġd achten
ie gel
Ġn ein
Ġer for
ĠD ruck
ĠZ eich
ik el
Ġbeg annen
Ġsozi alen
o llen
ĠG el
ĠD ing
ĠH ier
gend es
Ġd igit
ĠT od
Ġl ok
Ã¼s s
Ġgesch rieben
ĠEurop a
e cht
t ler
ĠT ele
merksam keit
ver b
Ã¤mp fen
c o
g lie
Ġzu erst
ĠA pp
Ġge sprochen
se ll
Ġt ragen
ik ation
Ġ9 0
f ess
Ġh eut
Ġver urs
ĠSt at
ĠÃ¼ber t
igen s
ell er
Ġver g
is st
Ã¼s sel
ĠKo mmun
Ġ19 9
ĠProdu kt
l ungen
Ġge be
Ġan statt
ĠV iel
us sen
ĠRe volution
ĠDie s
ĠExper iment
ĠHoff nung
ĠP ark
im e
ĠWir klich
v ent
Â »
is u
ĠH och
Ġp rÃ¤
ĠgroÃŁ er
Ġab zu
ĠAuf merksamkeit
Ġbewe gt
Ġgleich zeitig
o te
ĠD o
ra te
Ġl ern
Ġpass ierte
Ġern st
ĠS eiten
al es
ĠBe wusstsein
Ġsa hen
b eh
Ġ Ã¤lter
ĠS au
Ġb ein
lau fen
ĠÃ¤hn lich
ĠBeh and
Des halb
ĠPolit ik
i ot
p fen
Â «
ne te
iv il
de ck
ĠE volution
am a
ĠBe vÃ¶lkerung
hn ung
ĠEin e
pf er
ĠGrupp en
ĠSchul en
f eld
h ode
ĠP sych
alt ung
Ġverl assen
Ġbeob achten
ĠL eiden
Ġvor bei
ĠIn te
Ġwicht ige
Ġbestimm ten
in s
in ken
ie ll
de l
Ġer g
Ġst ud
Ġko sten
ĠHin ter
ĠZug ang
Ġf re
ĠD orf
ĠÃ¼ber w
Ġbest immt
Ġna he
h ang
Ġver fÃ¼
im ul
ĠVers uch
Ġf inanz
Ġge arbeitet
Ġan f
Ġj unge
Ġschle chte
ĠnÃ¤ her
Ġversuch te
Ġan sehen
ĠR essour
ick t
x u
ĠG u
ĠK Ã¼nstler
Ġ1 6
ĠMon aten
Ġkomp l
ele gen
Ġk ur
Ġf inde
olog ische
S ehen
or fen
Ġau t
mm ern
ĠU hr
ĠOr te
Ġe hr
Ġbedeu ten
All es
l ern
ri st
ĠEin fluss
ĠUnivers itÃ¤t
ĠArm ut
ĠP flanzen
ĠH immel
elt sam
Ġst Ã¤ndig
A lle
ĠW Ã¶rter
ĠKon trolle
ĠSo hn
br acht
Ã ľber
Ġ end
Ġn atÃ¼r
Ġin spir
Ġf antast
ĠK a
ĠRe geln
Ġsp ezie
ĠStud ien
w Ã¼r
Ġin tern
ĠW ind
ĠK an
ĠD enn
ĠSp ezie
ĠKon zept
Ġbesser e
Ġ Ã¶
Ġs itzen
Ġm edizin
Ġb lo
Ġb ald
ĠB aum
ĠMensch heit
her ap
ap an
ĠWe bs
err or
ĠDemokrat ie
D am
ĠRe gen
ĠWo hl
Ġverbesser n
i x
l es
Ġw ider
Ġin vest
ab el
Ġoffen sichtlich
ĠSu per
Ġricht ige
Ã¼ tzt
ind igkeit
ĠH ig
Ġp rakt
ĠEr inner
Ġ1 4
Ġblei bt
ĠMedik amen
Ġf alls
Ġricht igen
I V
ie s
Ġge k
schl uss
ĠNach bar
stÃ¤nd nis
Ġwus sten
gem ein
Ġeinzel ne
ĠGo ogle
b lich
st es
Ã¤ hlt
at isch
Ġver gessen
ĠSch Ã¶n
Ġihr es
ĠKrank heiten
d igen
m achen
ĠSte lle
ko mmt
u fen
Ġb ilden
ĠT rÃ¤
ĠBe sch
ab il
ri se
pp en
ĠDie se
ĠSo ftware
Ġmo der
it Ã¤r
ig ner
ĠH Ã¼
ĠgroÃŁ es
ĠMit gefÃ¼hl
ausen d
ĠPol iz
Ġbemer ken
f re
t o
Ġp osit
ĠmÃ¶ glichen
zÃ¤ hl
Ã¤tz e
M ensch
ĠM orgen
iel ten
ĠPh il
ĠMo lekÃ¼
ĠS ym
ĠL auf
eit s
eit ung
ĠH el
Ġda hin
ĠOr ten
Ã¼n ft
d ung
sch ung
um s
ĠBei spiele
Ġarbei tete
Ġansch auen
ĠK ern
ĠT on
ĠT agen
be t
ĠVer gangen
sch ir
at h
ĠH IV
ĠPro te
Ġkann st
ĠSp aÃŁ
ĠGr enzen
Ġverl ieren
Ġer zeugen
Ġver h
Ġl inks
uch te
kl Ã¤r
qu enz
ĠNach richt
ĠEntscheid ung
ĠZeu g
or ge
Ġden kt
ĠGeb iet
Ġvoll er
Ġe chte
ĠA d
ĠK u
Ġaus sieht
lau ben
Ġzum indest
ek ten
Sch auen
âĻ «
st o
ei sen
Ã¤ chen
or g
Ġf ertig
Ġp l
ĠerzÃ¤ hlt
Ġerlau bt
ĠVergangen heit
ĠB us
Ġnachzu denken
ĠSchÃ¼ ler
ĠWirklich keit
D ar
u z
Ġd eine
ĠV ol
ĠAn ge
rÃ¤ fte
ĠOr d
teil en
Ġerkl Ã¤r
g o
r ig
au p
Ġge bracht
Ã¼r z
ĠT error
Ġproduz ieren
it al
ĠB ot
ĠL eist
ig te
Ġman che
wer fen
Ġirgend wo
ĠGal ax
m ut
m Ã¤ÃŁ
ĠM iss
ier ter
Ġst Ã¤r
Ġre g
Ġarbei tet
ĠSpezie s
w ill
st ru
ĠW orte
ĠF euer
Ġsch reck
ĠKon fl
ĠPerson en
Ġh Ã¤uf
Ã¤ te
ste lle
mer z
Ġkein er
tro ffen
ĠGer Ã¤t
Ġgesam ten
ĠSek unden
a il
e ben
f alt
st a
kt or
ĠO n
ĠAr bei
ĠEr f
op h
zeich net
ĠInst itut
ĠfÃ¼hr te
s ion
Ġauf t
ĠR elig
fol gen
Ġsol chen
Ġversuch e
Ġtrotz dem
ĠInnov ation
V on
w eil
Ġd est
Ġw inz
Ġm orgen
Ġk aum
ĠM Ã¼
ĠW and
ĠE bene
ĠT h
Ġt raf
ĠN ein
Ġgew alt
Ġ7 0
ĠFir men
Ġ1 7
ĠGesch w
Ġgew innen
ĠErgeb nisse
N ur
Ġs eltsam
ĠS ol
ĠS ign
ĠB ill
le tz
Ġbe finden
il det
Ġre tten
Ġinteress ante
fer enz
licher weise
ĠEl em
hol en
ĠMathemat ik
ĠBakter ien
m et
ĠS c
Ġh eutzutage
al tet
ĠH Ã¤nde
ĠVer antwort
Ġbestimm te
A uch
Ã¤ st
ĠD et
ĠT heorie
ĠâĢ Ķ
ing ungen
zi mmer
utz ung
Ġe t
Ġb au
or ben
Ġge kommen
ĠZ uf
ĠZ entr
ĠN erv
Ġum zu
Ġzei gte
ĠArbeit s
ĠMon at
Ġgesch ehen
ĠOb jekt
A us
N a
u p
Ġn enne
Ġr unter
ĠBab y
ogra ph
b all
f g
Ġer fahren
Ġso dass
Ġverb inden
pr ess
Ġglob alen
an ter
Ġh ol
gen ie
Ã¶ pf
rei tet
wer ke
Ġries ige
Ġunters uchen
Ġauf re
os ition
ĠCh ance
Ġ20 1
Ġne un
Ġeinzel nen
u hr
Ġun mÃ¶glich
it ten
ĠG ol
Ġvor h
Ġgef ragt
ĠSta mm
ĠNetz werk
ome ter
ĠMeer es
Ġdr itte
ĠRessour cen
in iert
ĠR au
ĠV ielen
sp rach
per atur
Ã¼ cht
Ġauf grund
tw end
ĠLand es
Ġerh Ã¶
ĠGef Ã¤ng
w enden
ge st
ĠF rieden
ĠH e
Ġt Ã¤
ĠN ot
Ġr und
ĠLin ie
D enken
ĠG ra
ĠN Ã¤
ass ung
Ein es
ei ter
ck te
Ġt ie
ation alen
ĠEr n
ĠBe zug
rÃ¤ gt
Ġal te
ĠAmer ikaner
Ġentde cken
Ġhil ft
o v
em and
ĠD ien
re t
is ieren
eh me
ĠJ ohn
Ġle bt
Ġirgend w
ĠgroÃŁart ige
k ul
sch Ã¶n
ĠD enken
ĠGe fÃ¼
zi al
ss ystem
ĠKam pf
ĠKolle gen
ĠTele fon
l am
ĠS y
Ġha b
ĠH eim
Ġj ungen
Ġre duz
Ġnie dr
Ġheraus finden
Ġverst anden
Ġd anke
ber t
ĠN a
sp rÃ¼n
ĠPart ner
ĠOrd nung
g rupp
Ġzu fÃ¤
Ġso wohl
ĠH aut
Ġp sych
ĠJahr es
ĠO per
Ã¶r der
Ġent schieden
ĠAus wirkungen
ĠhÃ¶r te
ĠgroÃŁart ig
ĠPrÃ¤ si
Ġor ganis
fg han
Ġd unk
sch u
ĠF e
re che
Ġl eisten
Ġl Ã¤uft
ĠAn der
ed es
lei st
stÃ¤nd ig
ĠDi ag
o twend
Ġw ann
Ġm oral
Ġh inge
rei se
ĠerzÃ¤ hlte
ĠReg ierungen
gl icht
gleich en
st re
as che
Ġein ander
Ġv isu
Ġh Ã¤lt
Ġge stellt
Ġda durch
Ġ1 3
Ġzwei ten
ode ll
ĠHÃ¶ he
ĠNahr ung
st Ã¤nde
ĠD ann
ĠD isk
tw or
ĠVer l
ation ale
ab r
Ġgen et
olog ischen
Ġko mmun
ĠermÃ¶ glicht
ĠErw achsen
Ġsamm eln
g rÃ¼n
i lle
w art
ĠS inne
Ġf ing
ĠG elegen
Ġl ag
Ġarbei te
ĠFor men
stoff e
Ġrecht s
Ġnormal erweise
ĠÃ¶ffent lichen
mot ion
a c
o u
v olle
z ahlen
z unehmen
ĠB as
Ġwar ten
Ġt au
ĠC ar
ast rop
ĠWie der
u de
in ter
de ten
Ġge schaffen
ĠF rÃ¼
Ġt radition
ĠMill ion
arbei ter
ĠWo hn
ĠÃ¼br igens
z wei
Ġdie jenigen
au r
re g
Ġent we
ĠGeh eim
Ġeinz ig
fr ikan
ĠauÃŁer halb
b uch
n ungen
Ġun er
ĠM ark
Ġ2 1
Ġbest ehen
ativ itÃ¤t
Ġbef indet
Ġc a
ĠMet hode
ĠhÃ¶ ch
ter t
schie de
ĠFot os
ĠBru st
ro chen
Ġver ste
ĠZ ivil
ĠRe aktion
ĠGeb urt
ĠGehirn s
ĠSystem e
ĠBÃ¼r o
h y
sch n
Ġh andelt
ĠA k
ĠW esen
ĠC O
ĠIn vest
ĠAr zt
Ġher unter
Da her
yn am
Ġentde ckt
ĠOrganis ation
ĠBezieh ungen
ffiz ien
ĠKranken haus
Ġi s
ĠK er
Ġsch Ã¼tzen
Ġo f
Ġt aten
fol ge
ĠSe x
l en
p ar
r itte
ie ÃŁen
Ġm essen
it i
Ġge sp
le b
anz e
Ġbis her
ĠSchl Ã¼ssel
ĠGrÃ¼n de
ĠFrei heit
Ġdest o
g reifen
ĠB ienen
Ã¤n omen
ĠSt re
Ġst a
Ġwel cher
ĠFl uss
Ġeben so
v en
un Ã¤chst
ar f
it er
Ã¼r f
ĠH irn
ra k
Ã¤hr t
ĠEnt deck
Mensch en
R e
st ern
as chen
sch te
ĠM y
ur g
ĠK ur
ĠVer stÃ¤ndnis
Ġsp ielt
stell ungen
Ġgew Ã¶hn
Ġeinz igen
ĠBer g
ĠGer Ã¤u
Ġsel ben
ĠBeg inn
m t
Ġan t
ĠT ransp
ick s
ĠLie bl
Ġbetrach tet
ĠFlug zeug
ĠArchite ktur
Ġunterst Ã¼tzen
O b
st Ã¤
Ġm Ã¤cht
Ã¶ nen
ĠW arum
is ion
iv at
lie gen
ĠGes pr
ĠDro gen
n ehm
on ie
or n
ĠV o
wÃ¤r ts
ĠLi ste
KÃ¶n nen
Ġentwe der
i llen
t ag
Ġ Ã¤u
Ġe ffekt
Ã¼ gen
ĠS and
ĠL Ã¶
ĠfÃ¼ hlte
sel ben
dien en
ĠFar be
ĠAben d
Ġg rÃ¼
Ġbe an
ĠJ ungen
ĠSt unde
Ġher stellen
geb aut
ĠKlim aw
ĠberÃ¼ hm
ĠKÃ¶n ig
schir m
i for
o o
ie ls
st ag
ĠP unkte
ĠVer fÃ¼
ĠZeit punkt
ap t
ĠArt ikel
Ġlie f
ĠHer r
ĠBÃ¼ hne
Ġph ys
z er
Ġge troffen
Ġdass elbe
ĠH ar
Ġo pt
ĠN ame
ĠRe gel
lo se
An der
ĠMasch inen
Ġgrund legen
Ġd rin
ach tet
ung er
le bt
ĠIn genie
Ġdurch ge
ĠHer zen
ĠInter esse
Ġgu ter
ĠBehand lung
a ke
p assen
s uch
Ġs etz
Ġer leben
ĠT raum
ieren d
Ihr e
Ġerwar ten
Ġ Â»
ĠN un
ĠO kay
ĠAn al
Ġgu tes
ĠÃĸ k
Ġbel ie
Ġamerikan ischen
Ã¤ mpf
or gt
am b
il dern
ma ÃŁen
ĠErfahr ungen
ĠJahrhunder ts
Ġheut igen
k ur
k op
z ut
se h
be d
il ien
ĠIn se
ĠMu se
ĠLÃ¶s ungen
Ġhunder t
st Ã¼tz
Ġun ver
sch er
ĠE rei
ĠL ond
Ġmehr ere
Ġwen ige
Ġben utz
ĠMar s
Ġc ool
Ġbeh aup
Ġerinner e
ĠEngl isch
ĠÃĦr zte
ie te
ĠW eil
ĠP ass
ĠP oten
ĠT isch
Ġum ge
ĠEin kommen
rit ann
Ġjen e
ĠInd ividu
ĠGefÃ¤ng nis
un t
Ġn ahmen
Ġk n
ĠF inanz
ĠF inger
ĠN ational
Ã¶r p
rÃ¼ck en
gef unden
f assen
p lan
s ser
Ġa ktu
ĠS an
ĠB en
Ġsch icken
Ġsp richt
bar keit
ĠEinz el
en te
ei gt
Ġun ge
ĠS a
ur m
ĠF el
Ġso wie
ent lich
ist or
ĠGen e
ĠfrÃ¼ h
Ġverk aufen
Ġeben falls
g aben
v ie
Ġ on
hr e
ĠF akt
gn or
b rechen
Ġw Ã¼n
Ġw Ã¤hlen
el che
ĠW orten
ĠF en
Ġvor aus
ĠIn str
et ten
pt ion
ma ÃŁ
gr ess
ĠQu ad
Ġbeh andeln
Ġsel ten
ĠVerÃ¤nder ungen
ĠRis iko
i kt
s ichtig
ei en
Ġk rei
ĠM Ã¤r
Ã¶ se
Ġf Ã¤llt
ĠB all
ra struktur
ĠZ eiten
Ġp r
pro du
ĠÃĦ n
ĠWe ge
Ġehr lich
k rieg
ier ungs
rÃ¤ ge
ĠBer uf
ĠSo mmer
Ġ5 00
ĠKamer a
ifor n
g ien
l agen
in os
Ġh art
Ġk m
Ġeinfach en
ist isch
ĠTeil en
Ġjemand em
Ġerf unden
ai ls
Ġged acht
ĠMedikamen te
ĠVerantwort ung
A r
d ings
p rÃ¼
s eite
um or
ĠT he
is ser
ĠauÃŁer gewÃ¶hn
ĠBed Ã¼rf
Ã¼t ter
old aten
wend ung
Ġgescha h
Ġinte lligen
ĠErk ennt
f ter
k am
Ġw esent
or ganis
ĠA fghan
be wer
il t
ĠAu ge
alis mus
Ġunterschied liche
imen te
ritann ien
Ġd Ã¼r
ĠS er
au l
Ġer wei
ĠIn dustrie
ĠEigen schaften
Ġelekt r
zus agen
ĠLond on
p ekt
sch utz
ĠA hnung
ĠF unktion
ĠN ie
ĠJ apan
we ch
Ġko mme
Ġunglaub liche
ĠVol k
Ġk ultur
ĠK ol
ĠMÃ¤n nern
Ġexist iert
" -
b ald
un sch
ĠK reis
ĠL ernen
ĠT ieren
is iert
ĠH y
ĠVer gleich
ĠO K
we be
Ġverb ringen
ĠKomp lex
Ġkonzentr ieren
b ieren
te chn
Ġb ill
ĠW under
ĠÃ¼ber leben
ĠSch war
Ġ19 8
erst off
ĠStÃ¤d ten
prÃ¤ sent
Ġfasz inieren
ĠNÃ¤ he
ĠÃ¤u ÃŁer
en ze
st ieg
Ġn utz
rei b
ĠZu stand
Ġwunder bar
ĠÃ¶ff nen
ĠverrÃ¼ck t
ĠB ar
ieren den
Ġnach halt
Ġent sp
ĠWe sten
alis ierung
our n
ĠfrÃ¼ hen
ĠWer te
Ġlern te
b ol
b ritannien
f rage
t ra
Ġd ank
Ġz eich
au ert
ĠM ut
Ġf angen
Ġso bald
rau cht
Ġeigen es
ĠFre unden
ĠBi ologie
ĠChar akter
ĠInte lligen
ĠRelig ion
Ġe motion
st adt
ein er
ĠG lauben
Ġge gangen
ĠW ol
enn ung
Ġange fangen
ĠSchÃ¶n heit
A u
m asch
Ġun abhÃ¤ng
Ġi dent
it ionen
Ġt rifft
ĠSch utz
ĠPro jekte
Ġsp reche
ĠSp itze
ĠPh ysik
Ġkontroll ieren
ĠVerfÃ¼ gung
s eit
ĠW Ã¼r
hl ten
ĠAn tworten
ĠFre ude
ĠKar r
Ġur sprÃ¼n
sell schaft
1 9
a fen
b Ã¼
d as
ge g
Ġge he
ĠW ald
och ter
ĠKo mm
ĠReg ion
ĠDes igner
ĠÃĸ ff
ĠMaterial ien
u ster
ie lle
Ġf allen
Ġent stehen
rach te
Ġbeg onnen
ha ben
ĠhÃ¶r t
Ġen g
ĠWahr scheinlich
ĠGelegen heit
g ier
or gung
ĠI dent
ik as
ĠPro t
Ġher zustellen
Ã¤r m
ĠProdu kte
Ġries igen
Ġgescha fft
h ei
ĠG rad
Ġer zeugt
ieren de
Ġsein es
ĠUnter stÃ¼tz
ĠSchl uss
ĠgrÃ¶ÃŁer e
drÃ¼ck en
ĠSau erstoff
Ġw est
Ġe cht
an e
icht bar
Ġgen utzt
isten z
kon om
fÃ¤ lle
Ġglob ale
Ġch ines
Ġbeeinfl usst
ace bo
s inn
ĠB io
ĠW affen
ĠZ elle
op er
Ein er
Ġlie ÃŁ
Ġbrau chte
Ġ3 00
ĠgrÃ¶ÃŁer en
ĠWirtschaft s
ĠNu mmer
Ġak zept
ĠInf rastruktur
ĠJahrz eh
ĠKommun ikation
ĠErei g
Ġon line
2 0
ĠW or
ĠT al
ĠT ro
Ġauf genommen
ĠOr gan
ĠVerb indungen
halt ung
ĠGeschÃ¤ft s
ĠhÃ¤uf ig
I D
a in
ĠK rie
ĠT ochter
ne ten
ĠAr me
Ġre agieren
Ġ2 4
stell te
Ġwichtig sten
ĠÃľber leben
ĠStra te
ĠAt mo
setz ung
Ġerw Ã¤hn
Gen au
d re
o x
Ġk or
Ġk Ã¤mpfen
ĠM assen
le f
Ġbe zahl
Ġmit tler
ĠSch iff
ne tz
ĠC l
ĠFar ben
Ġpolit ischen
Ġerstaun lich
wohn er
ĠViel falt
ĠHig h
ĠPoliz ei
ĠFen ster
ĠW ider
ĠP al
Ġso gen
am i
ĠfÃ¼ hlt
lan ge
ett bewer
ĠKn ochen
sÃ¤tz lich
ĠermÃ¶ glichen
ĠÃ¼berras chen
ĠLeiden schaft
a ber
f s
h Ã¶
h ause
ge ht
ĠS uche
Ġn otwend
Ġwir k
ra el
eu tlich
ut lich
ĠO pfer
sa gen
Ġweiter hin
ĠAus druck
ĠUnter schiede
gesch ichte
E n
te xt
Ġf ehl
Ġver antwort
ri ffen
ĠKon s
ĠKl asse
Ġschl imm
zeich nen
ĠRÃ¼ck en
min ister
Ġbeeinfl ussen
ĠEntwicklungs l
Ġend lich
ĠGeschw indigkeit
J edes
r um
sch auen
at ter
ĠE p
ĠH Ã¤user
Ġl ust
ru g
he ben
Ã¼s se
ĠfÃ¼ hle
ĠAl tern
ĠKre ativitÃ¤t
ĠGroÃŁ britannien
ĠWerk zeuge
k ung
an a
Ġh andeln
Ġn Ã¶t
Ġb lie
Ġk enne
ĠM ehr
ĠP il
Ġo kay
Ġt yp
ĠAn satz
Ġent lang
Ġeinfach er
ist ische
wie sen
ĠPh Ã¤nomen
ĠPl ast
hol t
ĠGl as
Ġproduz iert
ĠPr ivat
ĠNahr ungs
ĠBÃ¤ ume
m el
w ahr
Ġd eutlich
st ab
Ġg ilt
ĠB u
ĠB ank
ĠK lei
le un
Ġl angen
ĠZ w
ĠO sten
Man chmal
Ġdort hin
Ġsei en
Ġvert rau
ĠKil ometer
Ġkompl iz
Ġh ielt
Ġn Ã¼tz
le cht
ver t
schl Ã¤
ĠGeh ir
ĠKl assen
ĠMon d
ĠSchl ag
ĠVers ion
tem ber
ĠTo des
ĠStand ard
N och
r enz
z ur
ĠS h
ĠL och
ĠV ari
Ġt ransp
und ament
ekt ion
art ig
ierte l
ak ten
ĠWe b
Dam it
ĠGefÃ¼ hle
f allen
g ra
Ġn ehme
Ġb uch
Ġk rit
ĠK Ã¶rp
Ġan al
ĠD el
Ġsch aut
ĠSp ort
ĠGew icht
Ġstell ten
Ġerlau ben
Ġa bst
ĠW al
op ul
br uch
ĠSchl af
Ġde fin
fÃ¼hr er
ĠTem peratur
gor it
N ehmen
d imen
s wer
Ġer stellen
ĠD enk
Ġver bl
Ã¤nder te
Ġentst eht
ĠAfghan istan
S A
k a
Â ł
Ġ Ã¤ndert
Ġg aben
ĠZ it
Ã¶r t
Ġko stet
Ġbeh andelt
umen te
ĠZusammen hang
ĠBeg riff
spekt ive
ĠStat ist
acebo ok
h ilfe
ge d
Ġzu g
ĠK unden
ĠH olz
ĠR Ã¤
ĠJ unge
Ġdar f
ot yp
Ġsp ezi
Ġganz es
ĠTe xt
ĠGesell schaften
Ġpolit ische
ĠMÃ¼ ll
H aben
ei tet
Ġk Ã¼rz
ĠF rank
ĠT el
ind ust
Ġda gegen
os ystem
Ġent schied
et ter
for men
ĠEin satz
ande ls
ĠProdu ktion
ĠNeur onen
vie w
ĠKarr iere
a cken
f isch
g ern
l aden
s eln
Ġk Ã¼nst
ĠP osition
ĠD av
Ġl eiden
Ġle gen
pf el
Ġverk auft
mÃ¶ gen
ĠTyp en
zw ischen
ĠVir us
Ġerfor schen
ĠZeich en
ĠBot schaft
d it
k auf
p fl
ĠS atz
sch rÃ¤n
Ġk rie
ĠA fr
ĠP e
Ġj Ã¼n
ik al
Ã¤n glich
Ġp assen
et r
ger e
Ġbet rifft
ĠKo hlen
alis ieren
ĠKar ten
ĠBed ingungen
Ġerh Ã¤lt
iforn ien
indust rie
b ank
c y
f it
Ã¼ h
Ġan d
ĠT im
and a
Ġr es
art ige
Er stens
ĠMater ie
ĠWerk zeug
ĠverÃ¶ffent licht
ĠDisk uss
f il
o ge
Ġa frikan
Ġi P
ĠG ang
ĠF acebook
be weg
Ġda vor
ĠSch rift
sp l
Ġall eine
Ġst eigen
ĠRe p
Ġsa ÃŁ
Ġweiter es
ok ument
ĠLebens mittel
Ġ19 7
Ã¤l te
Ġsol ch
ho den
ĠverfÃ¼ g
ĠKomplex itÃ¤t
o st
ĠS al
ĠW unsch
re cher
ĠO h
uf e
ĠAus bildung
Ġletz tes
ĠQu alitÃ¤t
Ġch em
ĠRes ult
ĠbenÃ¶t igen
ĠFortsch ritt
Ġverurs acht
Ġblo ÃŁ
Ġinvest ieren
ĠUnterstÃ¼tz ung
ĠAtmo sphÃ¤re
v el
y r
ten d
Ġha bt
ĠH aar
Ġsch n
Ã¤hr ung
Ġgew onnen
Ġbesch reiben
ĠGemein de
dig ung
ĠKont akt
ĠDr ittel
klÃ¤r ung
d ingt
ĠS oldaten
Ġh e
ĠP ort
ĠT itel
ĠÃ¼ber zeugt
ĠBe f
Man che
Ġentwick elten
gew icht
ho w
ĠKor allen
ĠAufg aben
ĠSek unde
Ġkommun izieren
Ġs Ã¼
st imm
ĠS zen
Ġver n
ĠZ iele
ot ograf
Ġsp Ã¼r
hal te
Ġbeg eister
wir ken
ĠAm eisen
ĠKlimaw andel
i mal
s Ã¤chlich
v ollen
Ġ us
Ġd auer
on g
Ġv ir
ĠA uss
ber eich
om at
zu bringen
Ã¶r dern
urch t
Ġkl ingt
spiel t
Ġscha fft
inde stens
ĠUniversum s
Ġlei der
elig i
ĠKlim a
ID S
or m
ĠB rie
ĠD is
ĠH eil
ĠH und
Ġum gehen
Ġ2 000
ap pen
schl oss
lo sen
ĠFern sehen
ĠZentr um
ĠÃĸk osystem
ĠInse kten
ĠIntelligen z
i pp
k n
Ġz entr
ar ch
ĠA bst
ĠW andel
ĠK op
ĠF eld
re u
ĠÃ¼ber zeugen
Ġneu er
ĠUnter such
Ġunbe dingt
ĠJu gend
Ġbuch stÃ¤
en der
ser v
am es
rÃ¼ck e
Ġr el
hin dern
ĠSe e
Ġverm utlich
Ġwunder schÃ¶n
ĠSter ne
ĠFÃ¤ llen
Ġlau tet
ourn al
dimen sion
Ġm erk
Ġh aupt
au ran
ĠF ach
Ġer fÃ¼
ĠSt Ã¤r
Ġre chten
ĠAu ft
ate ll
ĠMit glie
ĠZusammen arbeit
hÃ¤lt nis
ĠHinter grund
S eit
in ation
as i
ei ls
ĠB and
ĠB ud
ĠK ir
ĠE ind
ĠT rans
Ġo ber
Ġt rau
Ġt olle
ĠC ity
ĠÃ ľ
Ġheraus gefunden
ĠBl og
ĠauÃŁer dem
Ġvoll kommen
ĠOrganis ationen
aur ier
Ġdurchge fÃ¼hrt
f rist
h ar
ĠW ar
ann e
Ġdies elbe
os oph
for d
Ġverb reitet
ĠGen om
Ġ19 6
ĠHand y
Ġunterschied lichen
ĠHerausforder ungen
ĠBab ys
ĠJob s
imp an
ĠÃ¼bert ragen
ĠVo gel
c a
Ġk rank
Ġin st
ĠM ich
Ġge ha
ĠF ein
ĠSp ielen
stell er
In ter
Ġwieder um
ĠSchw ier
Ġfrag ten
ĠOb jekte
ĠGrÃ¼n den
Ġdre hen
ĠbeschÃ¤ft igt
Au ÃŁer
ĠWahrscheinlich keit
Ġs orgen
Ġs itzt
ĠS Ã¤u
ĠK Ã¤
ĠD eut
Ġver dienen
Ã¤n n
ĠSp iele
Ġbes itzen
ĠProblem en
ater ial
Ġsicher lich
Ġgest alten
Ġsel ber
ĠGesetz e
kre bs
fess or
ĠerklÃ¤r t
g ument
m ung
Ġ .
Ġwir st
ĠM c
Ġge fÃ¼hrt
ĠB al
ĠW est
le ge
ĠF abr
ĠI rak
Ġbe zahlen
ĠH under
Ġent w
Ġsp iel
Ġab sch
richt ung
ĠGroÃŁ teil
ehn t
fÃ¼hr ung
ĠbenÃ¶t igt
ĠPlast ik
Ġus w
ĠbuchstÃ¤ blich
S elbst
f Ã¤lt
l ing
u ll
Ġb itten
Ġzu k
ĠE i
ĠI st
ĠZ we
ĠSch merz
ĠC he
ĠRe d
ru f
ri d
Ġste cken
tern ehmen
spiel er
ĠLand wirtschaft
hÃ¶r t
fol gt
Ġerst es
pl atz
let te
ĠJe tzt
Ġerwar tet
ĠVert rauen
opp elt
Ġind ividu
ĠBas is
Ġa t
ĠM asse
Ġge langen
ĠB eine
is ation
ent wick
ĠSt off
ĠRe ich
ekt or
ĠMe x
ĠSte llen
zeich en
ĠschÃ¶n e
ĠnatÃ¼r liche
ĠzufÃ¤ llig
B is
N ie
ch tz
ie ÃŁ
Ġs u
Ġs inn
Ã¼ gel
ĠM obil
ĠW Ã¼
is ierung
Ġso zusagen
Ġander em
Ã¤t sel
ist ischen
Ġhin weg
ĠKon ferenz
Ġbest immen
fr ont
Ã¤cht nis
ĠkÃ¼ mmern
ĠstÃ¤r ker
ĠIdent itÃ¤t
f ert
g rÃ¶
r ing
ie llen
Ġm indestens
Ã¶ tet
Ġwer fen
Ġwo hin
Ġre prÃ¤sent
fÃ¼ gen
ad a
ha fte
ĠBild schirm
akt ionen
Ġho hen
Ġdre ht
ĠBro t
wissen schaft
Ġmoder nen
ĠdÃ¼r fen
Ġzuk Ã¼nft
a ir
p e
u h
Ġ &
Ġn ah
Ġder zeit
ĠA ffen
ĠG raf
Ġl Ã¤ch
ungs kraft
teil ung
ic e
ĠSte in
ĠMilliar de
Ġwissenschaft liche
ĠDien st
Ġm ot
ĠS orgen
ĠM Ã¶
ĠF o
Ġauf w
Ġt ra
Ġaus einander
ĠJ o
Ġent werfen
ĠRe de
Ġste ckt
spiel en
ĠzurÃ¼ck zu
Ġbet eil
Ġerinner t
Zwei tens
ĠLeist ung
ĠtÃ¤ glich
, "
s se
Ġw Ã¤chst
Ġh Ã¤ngt
al a
ier tes
ĠF est
ĠL os
Ġver le
ĠBe tt
Ġst olz
for schung
stell ten
Ġlie ber
lei sch
Ġverw ir
ĠKind heit
Ġfal sche
herap ie
ĠMuse um
inos aurier
C hr
D urch
m ann
w in
Ã¤ be
ĠD re
Ġver lie
Ġt ausende
Ġda ÃŁ
ĠBe ste
Ġr eligi
Ġ15 0
ĠÃ¶ffent liche
b and
i ste
m arkt
ch ern
Ġd isk
ĠG old
ĠK en
Ġver folgen
ĠR at
ĠR om
ĠN utzen
ĠSch n
ungs system
Ġinter agieren
ĠSta at
ĠForsch er
ĠGol f
Ġirgendw ann
g s
i ag
s h
Ġ rad
Ġe l
Ġein setzen
sch au
ĠB ildern
Ġer Ã¶ff
ĠT rain
Ġsch einen
ĠGe fahr
ĠC olle
Ġweiter en
ĠKon text
Ġglau bt
ĠCh in
ĠAu str
Ġverw andeln
Ġinteress anter
Ġte sten
Ġget Ã¶tet
Ġwe der
ĠStruktur en
jÃ¤hr igen
ĠÃ¼berras cht
ĠErinner ung
3 0
u ern
z eiten
Ġ ,
Ġi gnor
ĠS atell
Ġf ragt
Ġan s
ĠSch impan
ĠPro j
kl us
ĠGer Ã¤te
nit t
ausen den
ĠMode lle
ĠThem en
Ġperf ekt
ĠMot or
ĠtÃ¶ ten
ĠKa ffe
apt op
g abe
m acht
sch m
ur f
ĠE cke
Ġsch lie
ĠVer kehr
ad em
gel aden
alis iert
ib el
ĠOn line
ĠInstitut ionen
ĠÃĦn der
Ġhaupt sÃ¤chlich
M ir
f rieden
l Ã¶s
n issen
p ag
w eit
on om
ĠP aar
ĠD ir
Ġver ein
ĠT w
ĠT au
ĠH il
Ġl aut
ĠGe st
ĠSch wei
Ġwei ss
acht ung
ri z
ĠTeil chen
ĠAut or
Ġletzten dlich
pro gramm
ĠGegen teil
ink el
Ġhal te
ĠFÃ¼hr ung
ĠKal ifornien
ĠÃĸff ent
K l
M S
i dem
w ahl
an st
Ġm athemat
ĠE m
ĠF Ã¼r
ĠL ern
ĠR ahmen
Ġsch ick
Ġt ue
ut t
ĠSch au
Ġverb racht
Ġwichtig ste
Ġinteress ieren
ĠmÃ¶glich erweise
gende twas
ĠHeim at
k rank
l Ã¤ss
n immt
r y
ei ste
ĠS yn
ĠF ran
Ġsch lieÃŁen
ĠN orden
Ġaus sch
Ġgegen seit
ĠnÃ¤ch stes
ĠSe p
ĠWahr nehm
ĠBru der
ĠPrÃ¤si dent
Ġbegeister t
d ige
ar b
ber n
le g
ĠE ing
ĠI ran
Ġbe geg
ĠN ation
ĠO der
qu enzen
Ġ4 00
Ġvoll stÃ¤ndig
ĠgefÃ¤hr lich
ĠAktiv itÃ¤t
Ġvorh anden
ĠLiebl ings
ĠKohlen stoff
G ut
L etz
Ġ X
Ġd einen
at oren
ĠM os
ĠF ische
Ġaus b
Ġre gel
Ġgen er
Ġgew isse
ver stÃ¤nd
Ġbesser en
akt iv
ĠDe press
Ġeinge setzt
Ġversuch ten
ĠBau ern
jÃ¤hr ige
Ġgeha bt
b liche
ei der
Ġm er
ĠM eilen
ĠA sp
Ġf rage
ĠL iter
Ġver hindern
ĠV Ã¶
ĠV ision
Ġaus geb
ĠJ ungs
rei te
ing u
wo od
Ġges und
richt ungen
Ġschl immer
ĠBo ot
Ġschwar z
ĠChr is
Ġkre ativ
K o
h i
h men
h Ã¤user
Ġz unehmen
al te
Ġan twor
am t
ĠZ immer
ĠAu ÃŁen
ĠerzÃ¤ hle
ĠSprach en
ĠVerhalten s
Ġexist ieren
Ġamerikan ische
Ġbas iert
ĠGalax ien
b ahn
st au
Ġb ieten
Ġer ster
ĠD inosaurier
ĠT re
ĠGe webe
sp iels
ĠVer stand
Ġste lle
Ġgew isser
lan gt
ĠKo hle
ĠFil me
Ġwunder bare
Ġstar b
ĠVide os
Ġnormal en
Ġho he
Zu erst
Ġbemer kt
ĠEngl and
Ġvir tu
ĠÃĸffent lichkeit
ĠSep tember
b lichkeit
k le
s weise
y l
Ġd auert
ie ben
Ġs auber
Ġein sch
Ã¼ hr
ĠM aus
Ġg Ã¤be
ĠF leisch
am in
ĠH aufen
om it
Ġir gendetwas
ĠAugen blick
ĠMil itÃ¤r
Ġprakt isch
ĠNerv en
schu le
T he
a frika
s ver
Ġ Ġ
as ste
Ġein t
Ġein st
ĠP u
ĠH Ã¤nden
ĠR and
Ġsch Ã¶nen
ĠSt ift
Ġdurch schnitt
Ġunter scheiden
Ġarbei teten
Ã¤ng st
Ġte uer
kehr en
Ġabs ol
Ġunterschied lich
ĠBr enn
ĠElekt ro
ĠFr em
Ġhol en
Ġpr iv
Ġentw orfen
f ragen
p o
r ennen
Ġn annte
Ġk ennt
ĠM I
ĠG ut
ĠC on
ĠSp ekt
ech sel
Ġwen igen
fahr t
Ã¤d t
hin gt
ĠFol ge
Ġhunder te
ĠErkennt nis
Ġverantwort lich
d s
m utter
p ort
s wert
un ken
Ġm eist
Ġf iel
ĠB ras
rei en
Ġ3 5
utz er
pro blem
St att
ĠExper ten
ĠStr ess
Ġkur ze
ĠLauf e
ĠGespr Ã¤ch
chtz eit
e x
l y
n ehmer
Ġein iger
ĠS il
ĠM echan
ĠL og
Ġsch ien
Ġl inken
ĠVer letz
ĠIn ner
Ġle bte
Ġher r
olog isch
age ment
ĠGed anke
ĠPat ient
ĠSchwe ster
fÃ¤h igkeit
Ġschau te
ĠprÃ¤ sent
Ġbean tworten
ĠDav id
hingt on
i den
k an
z y
ich ard
Ġn eg
Ġk ap
ier er
Ġge halten
ĠW esent
ĠW ettbewer
ĠE he
ĠT er
eu cht
wer den
art igen
weg s
Ġmeisten s
Ġse xu
Ġbem erk
ĠElekt ron
ĠIs rael
ĠQuad rat
h te
k eln
Ġd ritten
sch rift
ĠW ill
Ġauf hÃ¶ren
Ġso mit
ĠH all
ĠN or
ĠkÃ¶n nt
hl ung
ĠO x
Ġnoch mal
ul ieren
ĠmÃ¼s ste
ĠGr as
Ġlie ÃŁen
Ġange sehen
ĠSo zial
no st
Ġwicht igen
Ġse tzt
ĠGl ob
ĠRest auran
Ġentst anden
vent ion
Ġentsp richt
r gend
s ichten
ie sen
ge geben
ĠM und
ĠL aptop
be wesen
ĠZ Ã¤
ag iert
ĠBe weis
Ġeigen t
ĠLie d
ĠDe b
ĠDe fin
Ġhal b
Ġhoff entlich
ĠTr end
mÃ¤ÃŁ ig
ĠKonfl ikt
b as
c is
h eim
p ret
ie tet
sch auer
Ġk om
Ġf otograf
ĠF ehl
Ġver gleichen
ĠH om
ĠSch ei
ĠIn nen
og nit
ĠSp r
ĠU N
ungs k
Ã¤u se
ĠLand schaft
Ġbek amen
Je de
ĠPh ys
Ġaller dings
ĠGegen satz
Ġerk annte
Ġerle bt
ĠMolekÃ¼ le
masch ine
ĠKÃ¶rp ers
L e
a he
f ische
ei ger
Ġk auf
ĠD en
ĠD unk
ig sten
ck ten
Ġmit ten
ĠC ol
ot h
et ing
Ġkl ass
ze lle
sam t
ĠCh ir
Ġber ech
Ġdenn och
ĠAl gorit
ĠSte uer
ĠMin ute
ĠSpiel er
hÃ¤ng ig
ĠTo i
sÃ¤tz e
ĠKat astrop
ĠPer spektive
Ġtot al
ĠIndividu en
d igt
Ġd ran
ĠS ehen
Ġz og
ĠM em
ĠA s
ĠF ig
ĠP fl
Ġsch m
us ion
ĠN ationen
ĠJ ournal
ab ei
Ġher gestellt
ĠIhr es
Ġgenau er
ĠExper imente
Ġho ffen
ĠRad io
echt igkeit
grupp e
Ġeffekt iv
ĠEind ruck
D en
D ort
m eister
p te
s ionen
t rag
an en
st Ã¤nden
ĠS amm
Ġn utzt
ĠM at
Ġf Ã¶rdern
ro tz
isch t
ĠR Ã¤tsel
Ġdem okrat
ĠAn w
ĠWas hington
Ġirgend ein
Ġmus st
gew alt
Ġschle chter
Ġro ten
ĠDi men
riff e
ĠMedik ament
Ġsta mmt
ĠColle ge
p ft
w achstum
ĠM omen
ĠA ma
ĠW ichtig
ĠK rÃ¤fte
ĠE ffekt
ol oge
igen d
ĠBe ob
ri ppe
ĠZeit alter
ĠGr enze
Ġbrau chten
ic a
Ġgel esen
ĠQu anten
Ġgest ern
wÃ¤r t
Ġersch einen
a tes
d lichen
f inieren
g yp
r asch
Ġz ahlen
es kop
ĠG anze
ĠW ellen
ĠK omb
Ġver f
Ġauf bauen
Ġsch lau
Ġl ernt
Ġt rin
ĠN an
ĠIn sel
og ar
Ġviel er
hm us
Ġpro gramm
eich er
Ġentwick elte
ord nung
ĠBeweg ungen
Ġbrach ten
ĠGleich e
ĠDiag ramm
ĠEntdeck ung
ĠGehir ne
Ġanal ys
ĠTw itter
F alls
T echn
a ster
v ard
Ġe chten
Ġzu zu
ĠM Ã¼tter
ĠG ar
Ġer finden
ĠP fer
Ġwie so
Ġt ausend
ĠO pt
os m
ri ften
Ġwel chen
Ġbrau che
onder e
ĠUntern ehmer
Ġstar ke
ĠForsch ungs
ĠMiss ion
Ġreduz ieren
ĠSatell iten
ich en
ĠA kt
ach er
ĠG as
Un ter
ĠT ie
ĠI mpf
re chte
Ġbe schlossen
Ġauf s
Ġauf gew
ĠSt immen
ĠRe chte
ak te
Ġschl agen
sk op
Ġverschw inden
ĠpersÃ¶n lich
Ġbezahl t
Ġrel ativ
Ġdisk ut
. ,
K ann
l d
u se
y se
Ġa g
Ġein deut
te st
ĠA tem
ĠG i
Ġo h
Ġt rÃ¤gt
ĠZ ell
ĠSch ne
rau chen
ĠEr leb
ru ption
et rie
ĠSp iegel
ers eits
Ã¤hr en
bar es
Ġverb rachte
Ġwahr e
ĠHin sicht
Ġnormal e
ĠKont in
ĠPolit iker
Ġbein hal
AuÃŁer dem
riz itÃ¤t
ĠBras ilien
E igen
l Ã¤uf
ĠS ens
Ġz unÃ¤chst
ĠB ein
ĠE lef
ĠF ett
he k
Ġverb reiten
ade l
ĠZu cker
ele v
Ġgest orben
Ġen gl
ĠGemein den
ko sten
ĠMet ap
ĠMet hoden
ĠVort eil
ĠFol gendes
Ġinte gr
ĠMil ch
Ġreich en
ĠGesundheits wesen
Ġstud ieren
Ġlust ig
ĠSchimpan sen
2 00
a ff
d ru
w agen
Ġ rÃ¼ck
Ġm Ã¤nn
Ã¼ te
Ġz eit
ĠF le
ĠF akten
ĠD am
Ġbe halten
Ġl as
ĠN A
rei sen
ĠC om
Ġvor ber
oll y
ĠZu hause
Ġstar ten
ĠLin ien
amer ika
Ġident if
O K
u mm
u ck
Ġf uhr
ĠK rise
ĠH yp
ĠVer br
rÃ¼ ben
ĠAn sicht
Ġab hÃ¤ngig
Ã¼n f
ĠAus maÃŁ
schl and
ĠSta ats
forder t
Ġkurz em
ĠFol gen
Ġkur zen
ĠDet ails
Ã¶pf e
Ġtie fer
ĠnÃ¶t ig
M ann
h am
j ahr
u x
w ach
Ġz ahl
Ġk Ã¶rper
au chen
ĠA spekt
Ġf Ã¤ngt
Ġge Ã¤ndert
ĠE mpf
Ġj Ã¤hr
ĠLe bewesen
Ġnie der
ĠKl ein
ĠKl ang
Ġverm ittel
ĠBuch st
ĠAt om
Ġhal be
ĠOrganis men
ĠGener ationen
ĠMikro ben
Ġschwar ze
Ġmedizin ische
ĠProt otyp
ĠkÃ¼rz lich
ĠAustr alien
ĠFran cis
? âĢľ
A b
h Ã¼
o sen
Ã ©
ar a
it t
ĠK rit
Ġan geb
ĠL aden
Ġver gangen
ĠN iger
ik e
Ġent gegen
Ġher an
ant as
ĠInter essen
ĠEx istenz
ĠgehÃ¶r en
ĠNetz werke
mÃ¶glich keiten
ĠWebs ite
ĠArbei ten
ĠElem ente
Chr is
S ind
m ehr
o c
Ġd rÃ¼ben
Ġm eiste
Ã¼ ge
Ġz Ã¤hlen
at ik
Ġf ern
Ġf Ã¤h
Ġge tr
um b
ĠT anz
isch em
Ġp ar
Ġwo bei
Ġle bten
Ġre icht
rach ten
Ġbeg renz
mer zen
Ġzusammen ge
ĠWei le
Ġ4 5
Ġgesch ickt
Ġde finieren
ohn t
Ġbeob achtet
ĠbeschÃ¤ft igen
ĠnatÃ¼r lichen
ĠKonfl ik
Ġopt im
Ġblie b
Ġzug Ã¤nglich
ĠDiskuss ion
K eine
b y
u be
Ġw echs
Ġe ure
st eigen
ĠS itz
Ġin form
au st
ĠW etter
ĠE d
um an
Ġbe schloss
Ġp asst
ĠPro fessor
ĠC ode
Ġent sprechen
ĠWelt raum
ĠVor fahren
ĠFl ag
atur en
olit ik
ĠTe x
mot ionen
Ġwissenschaft lichen
Ġaufre gend
I P
k r
Ġk omb
ĠG arten
ff er
Ġp lan
ĠBe weise
Ġdar stellen
bl iot
Ġre de
ĠUm feld
schein t
ĠAb schluss
ĠStr eit
Ġsprach en
Ġkomplex e
ĠIs lam
ĠzerstÃ¶r t
verb rauch
ĠTrÃ¤ ume
Ġmorgen s
Ġgrundlegen de
ĠGraf ik
ĠWahrnehm ung
O k
p art
an cen
st ung
Ġun gewÃ¶hn
Ġm ass
ĠB ri
Ġan wenden
ĠE motionen
Ġer scheint
ĠP ak
ĠD ach
om ben
ĠO ber
ĠAr men
ĠAn gel
ĠEr klÃ¤rung
Ġst eigt
Ġsp annen
ĠGesch lecht
ed ia
Ġverb indet
kl en
ĠArbeit spl
ate gor
Ġerk ennt
Ġdr am
ĠElekt rizitÃ¤t
ĠVir en
Ġtradition ellen
spiels weise
p on
t in
t ial
Ġd auern
Ġw uchs
on es
Ġh istor
ĠK urz
ĠSch ool
Ġdes wegen
ĠBe st
Ġst op
Ã¤t igkeit
ru fen
ĠGen au
Ġex per
Ġbesch leun
Ġfol gt
let ten
Ġenor me
ĠEntwicklungsl Ã¤ndern
ĠverfÃ¼g bar
ĠMI T
Z ur
p asst
t on
z on
on str
Ġb at
Ġzu t
ein bar
em ent
icht er
ĠA ch
ĠB lau
ĠW ik
Ġver schl
ĠT ausende
Ġbe wer
Ġl a
ehr en
ĠVer hÃ¤ltnis
Ġall gem
Ġkl in
ers agen
end ung
ĠEin fach
ĠKon se
Ġverw ende
sicht s
ĠQu elle
Ġausge st
ĠGed icht
umen ten
Ġaufzu bauen
ĠBes itz
wirk ung
ĠÃ¼br ig
ĠTest s
ĠMaÃŁ stab
ĠzerstÃ¶r en
ĠNachbar n
ĠKer l
Ġsetz te
ĠZit at
beweg ung
ĠSchwier igkeiten
Nie mand
B itte
k arte
m ark
Ġ 0
ge ber
Ġan nehmen
ĠF ischer
Ġer stellt
ĠP ersÃ¶n
re cken
Ġauf gebaut
ĠH ack
ĠSch atten
rÃ¤ umen
ĠÃĦ gyp
ĠKap ital
ograf ie
ĠWohl stand
ĠSol ar
ĠThe ater
Ġspiel te
ĠZwe ck
S ehr
T rotz
m ord
t alien
en ter
ei se
ĠS en
ĠA IDS
ĠL ang
ĠI mp
ĠV iertel
ol er
her r
Ġgew issen
ell es
ĠInter ess
ĠMit arbeiter
ĠPlan et
Ġschle chten
ĠFreund in
Ġlei d
ĠGrÃ¶ ÃŁen
ĠFÃ¤ lle
Ġru h
ograph ie
Ob wohl
Ġwesent lich
ĠerwÃ¤hn t
ĠKaffe e
Eigen tlich
Ġvermittel n
. Â«
H ey
g ibt
in o
Ġa bl
ĠS l
ĠS ei
ar ia
gen er
Ġb eit
or ient
Ġver halten
Ġum geben
Ã¤n e
ĠmÃ¼s sten
rÃ¤ ume
Ġzie ht
Ġhei ÃŁen
str en
ĠKre uz
Ġsol cher
ĠKor ruption
ĠBereich en
ĠAll es
spr uch
sprach e
ĠnÃ¼tz lich
ĠTim es
Ġmot iv
verstÃ¤nd lich
r t
Ġun end
Ġm iss
Ã¤ hm
em ber
Ġau ÃŁen
Ġg rau
Ġkann te
ĠVor stell
ĠAu ff
Ġscha ff
ĠKultur en
Ġfor men
ĠKap it
Ġwor Ã¼ber
ĠDN S
ĠNu ll
vers orgung
zÃ¼ glich
Ġenor m
Ġerg ibt
ĠErwachsen en
Ġw Ã¼
st u
Ġi de
Ġn erv
Ġzu sÃ¤tz
Ġin f
ĠM erk
Ġge p
ro t
Ġt reten
ĠSt au
ern e
ul en
ger Ã¤t
ĠOr ig
zie ht
ĠKl in
ĠBer echn
ĠSe ele
Ġrie f
Ġentde ckte
ĠUr s
ĠNeu es
ĠFern seh
ĠArchite kten
ĠNicht s
Ġwirtschaft lichen
ĠMex iko
M ail
a el
b i
f ir
j emand
n ach
Ã¼ lt
it iv
ĠB atter
Ġer setzen
eh lt
ĠR uss
Ġsch Ã¤tzen
ĠJ ul
ĠVer w
ĠC ent
ige m
ĠAn rei
anz Ã¶s
Ġst ill
Ġlang weil
ĠEnt fern
gehen d
ĠhÃ¶ re
ĠFahr rad
ĠDurch schnitt
Ġgro ss
Ġqu asi
ĠChem ie
Ġgebe ten
Ġschreck lich
ĠGerÃ¤u sch
ĠHar vard
ĠfÃ¤h ig
W e
a zi
r es
Ġi lle
al k
Ġer mut
ag o
ik alien
ĠSt art
ĠSch nitt
Ġvor ne
ĠBe stand
Ġst abil
Ġre al
inder t
ander t
ic ro
Ġmensch licher
Ġgel Ã¶st
ĠVerb esser
ĠGew inn
Ġverm eiden
Ġstatt dessen
ĠSitu ationen
Ġverbesser t
ĠErw art
Ġbein ahe
Ġinspir iert
ĠVerl ust
ĠGeheim nis
ĠZivil isation
ĠDeut schland
f rei
n chen
p el
Ġd ur
Ġh eil
Ġg eist
ĠB on
ĠD rei
ĠI ll
Ġbe weg
ĠÃ¼ber prÃ¼
ĠIn halt
Ã¶r en
Ġent stand
Ġger ing
ĠVor aus
Ġbet ro
ĠInter aktion
Ġgef angen
iss ionen
zieh ung
Ġro t
urop Ã¤
ĠBereich e
Ġwelch em
Ġunters ucht
ĠpersÃ¶n lichen
ĠArbei ter
ĠSign al
ĠBuchst aben
a ffe
l inge
Ã¶ pfen
le kul
ĠT onnen
ĠR iesen
Ġaus ger
Ġp oten
Ġvor an
ĠEr zÃ¤hl
Ġhin ten
ĠAus wahl
qu alitÃ¤t
Ġlang er
Ġlang frist
Je den
Ġschw immen
ĠpersÃ¶n liche
Ġnotwend ig
ĠDefin ition
G er
L eute
S e
l a
Ġd om
an tes
st on
te ls
ĠL es
Ġver sp
ĠT or
eu ern
eu ert
wei le
Ġher ein
Ġbes uchen
sam keit
ĠVor h
ĠFl Ã¼cht
fer nen
ĠGer icht
ĠTe en
ĠKam pag
ĠBed roh
zentr um
Nach dem
bes ondere
Ġunterst Ã¼tzt
Ġverg rÃ¶
ĠElem ent
ĠunabhÃ¤ng ig
ĠWesent lichen
W ei
r ichtet
u mmer
ie in
ar tet
at ische
Ġin dustrie
ĠD och
ĠL ungen
Ġver teilt
ĠT un
ĠT rag
il de
ĠAn teil
Ġst anden
gel assen
ĠWissen s
âĢ ŀ
Ġseit dem
ĠGroÃŁ mutter
Ġbesonder e
lÃ¶ sen
Ġschwier iger
ĠStu dent
Ġerw Ã¤
ĠPo st
spr ung
ĠRis iken
ĠkÃ¼ mmer
Ġfantast isch
grÃ¼n det
ĠPass w
Ġwest lichen
ĠStrate gie
b ieten
c om
g ing
h ung
o zi
t eile
v ol
ein halb
ĠW illen
am erikan
ĠR ichard
ĠZ ahn
lle ktiv
om atisch
ĠAn wendung
Ġhier her
Ã¤t ter
ĠSp ezi
ob ald
fl ug
Ġverst eht
Ġverst ehe
lei tet
Ġschl afen
ĠWer bung
if iz
ĠSÃ¼ den
ow issen
Ġerstaun liche
ĠberÃ¼ hrt
Ġbau ten
ĠOper ation
Ġdunk le
ĠAnder son
ĠNie der
ĠVÃ¶ gel
Ġbeinhal tet
B eim
d aten
n Ã¼
Ġd Ã¼n
in t
Ġw es
Ġm ut
Ġm ult
Ġh Ã¼
hr op
den kt
Ġf undament
ĠW urz
ĠK urs
ĠL ager
Ġbe weisen
ĠJ an
ĠSt ock
ĠGe gend
rei bung
ĠO ffen
Ġmein te
und es
Ã¶r ungen
ĠRe chen
et ik
Ġste uern
ĠKon gress
Ġleben s
Ġex pl
Ġbesch rieben
Ġfest stellen
dig lich
Ġerh ielt
fÃ¤h ig
ĠGu tes
Ġintern ationalen
ĠErinner ungen
ĠWor ld
ĠStÃ¤r ke
Ġeindeut ig
I rgend
M ehr
S ein
p ol
r ang
Ġd ra
te sten
Ã¤ sser
Ġb ietet
ĠE ier
ĠE chtzeit
ĠT eu
Ġauf nehmen
kt on
ĠSt ufe
wei te
Ġvor zustellen
Ġdar unter
Ġent hÃ¤lt
Ġsp Ã¤t
Ġste he
Ġbes agt
Ġkon stru
Ġko llektiv
ĠCh ic
ĠStu hl
Ġfor m
ĠPrÃ¤ sent
ĠPf und
drÃ¼ck t
ĠErk rank
Ġblau en
samm elt
Ġwirtschaft liche
Ġdigit alen
ime ter
ĠGalax ie
ĠFrÃ¼ h
Ġbelie b
wech sel
ĠKomm ent
lÃ¶s ung
ĠKomb ination
K on
K ein
b lichen
p ha
z ig
Ġs ucht
Ġs yn
Ġf urcht
ĠG ot
el ben
ĠB rÃ¼
ĠSch lei
Ġent fernen
Ġle diglich
Ġsp aren
Ġgen Ã¼
Ġlie fern
ĠHer ren
Ġpro fit
id a
oment an
ĠSchul d
bo den
ĠBel ohn
ĠChem ikalien
sta at
Ġet c
ĠInstr ument
ĠBedÃ¼rf nisse
Ġfaszinieren d
Ġvertrau t
P S
o ÃŁen
Ġs tet
Ġs ingen
as er
Ã¤ fte
ĠA lle
Ġge sellschaft
Ġge spielt
Ġge grÃ¼ndet
ĠK om
ĠP ingu
ĠI r
ĠR oll
Ġt rag
ĠZ auber
ĠÃ¼ber nehmen
rei f
ru str
et ische
rin ge
sa h
Ġweiter er
ha ften
Ġgef Ã¤llt
ma ck
lÃ¼ck licherweise
Ġsei d
Ġne ur
ĠÃ¤hn liche
Ġgemeinsam e
ĠKomp onen
Ġfolgen de
ĠRes pekt
ĠGeist es
Ġlok alen
Ġspezie ll
ĠPoten tial
ĠÃ¤uÃŁer st
ĠWol ken
ĠBrie f
1 0
b Ã¼r
b chen
b urg
i ppen
k reis
s um
Ġm in
ge schw
ir d
Ġin nov
ĠM ess
Ġge lebt
ĠW el
ĠW ild
Ġver ab
ĠH em
ĠV ern
Ġj unger
ag s
Ġar men
andel te
ide o
no se
ive au
ĠBi bliot
ĠPar ad
Ġleicht er
fess ion
ĠÃ¼berw inden
Ġkompl iziert
ĠPhil osoph
ĠHel den
ĠZuf all
grupp en
Ġkrei eren
gere gt
ĠHil fs
ĠFrancis co
ĠTeu fel
E nt
z um
z esse
in kt
Ġs ichtbar
as h
Ġzu ge
ben en
ĠB rÃ¼cke
ĠW inter
le y
Ġer z
Ġver Ã¤nderte
ĠT umor
ĠH ei
ĠH unde
ĠR ake
ĠfÃ¼r s
ĠC y
ĠO k
Ã¶r ung
Ġdurch s
ver mÃ¶gen
ĠzurÃ¼ck ge
ok us
ĠÃľber rasch
ĠMen gen
nit ten
lieÃŁ end
spro zess
Ġstatt f
ĠBau ch
ĠOzean e
Ġbr ill
Ġintern ationale
Ġmoder ne
ĠSym bol
ffizien z
Ġwirk liche
ĠEp idem
ĠMehr heit
Ġkrie gen
Ġdurchschnitt liche
ĠKontin ent
f ig
n ungs
ei er
ĠS kl
sch riften
Ġk ognit
Ġf il
ĠG ro
ĠK r
ĠK rÃ¤
ĠP rim
ĠT a
ĠR ot
ĠV ielleicht
be vÃ¶lkerung
Ġman chen
ĠBe tr
ang er
ĠEin heit
lie d
unkt ionen
Ġglau bte
ĠNe ben
Wie so
fahr er
ĠGrund lage
ĠgroÃŁart igen
Ġdrau f
wÃ¤r mung
ĠSicherheit s
Ġgrund le
ĠKÃ¼ ste
zw ungen
ĠJahrz ehnt
ĠDo ktor
Ġdahin ter
ĠErf indung
Ġakzept ieren
Ġtransp ort
Ġverbl Ã¼
g as
h ls
o le
in f
Ġa rab
Ã¼ hen
Ġb rit
Ġin nen
ĠA ir
ĠA llt
Ġver ring
Ġso viel
Ġsch einbar
eil ung
ĠSch Ã¤
ĠSch icks
Ġdies elben
ru h
Ã¼s sen
ĠGes amt
Ġverw andelt
ĠWei hn
Ġhei sst
Ġfunktion ierte
gr enz
ĠY ou
ĠJe der
ĠAktiv itÃ¤ten
Ġfasz iniert
Ġerwei tern
ĠJahrzeh nten
Ġgegenseit ig
ĠMomen te
- ,
E rin
L eider
h Ã¤ngen
Ġw Ã¼s
ĠM oral
Ġf roh
ber g
ĠW ein
Ġan genommen
is on
lle ktu
ĠN ase
ĠSch le
sp iegel
ĠAn im
ĠEr st
Ġviel es
ĠLeben ser
ĠmÃ¶ gliche
ĠEin stellung
Ã¼ck en
Ġgew Ã¤hlt
Ġzei gten
lei b
ĠAuf nahme
ĠBild ungs
ĠBl umen
ĠInter view
schei det
ĠMal aria
Ġmensch liches
ĠGer echtigkeit
ĠPl att
ĠGem Ã¤l
unk ten
ĠGed Ã¤chtnis
ĠGegen wart
los igkeit
ĠChr ist
Ġmedizin ischen
Ġpl atz
ĠerhÃ¶ hen
ĠFabr ik
ĠKen ia
W Ã¼r
k ungen
k rie
Ã Ħ
st ud
ei ern
ge samt
ĠS eh
ĠS am
ĠW Ã¤l
ĠK abel
ĠD amen
ig ste
re tt
Ġvor zu
Ã¶r m
Ġre alen
ri min
ĠZeit ung
zi pl
Ġbest Ã¤t
Ġhei ÃŁ
rupp en
ip s
Ġunglaub lichen
ĠVort eile
tel n
arbeit ung
ĠPf lege
ĠSign ale
Ġbau te
Ander e
ĠEreig nis
ĠStatist iken
ĠWÃ¼ ste
P ublikum
b iert
i ber
un ternehmen
Ġe ffizien
Ġm ark
ĠS tern
ĠG re
ur er
ĠT op
Ġl og
Ġl achen
Ġall gemein
hn t
ĠEn g
ĠUn gleich
Ġbes itzt
ĠWir kung
ĠGeb iete
ĠGem Ã¼
hol fen
Ġ9 9
Ġro te
Ġunbe k
Ġjen er
ĠInnov ationen
ĠSÃ¼d afrika
Ġelekt ron
ĠFortsch ritte
sto ffen
ĠTerror ismus
ĠNA SA
ĠPak istan
A l
G es
W elche
b ungen
f lekt
f Ã¶rm
m echan
u hren
Ġs enden
at astrop
Ġf Ã¤hrt
Ġg ra
Ġge schlossen
ĠB arr
ĠW echsel
Ġan sieht
ĠF liegen
Ġbe zeichnen
ĠH or
ĠR hy
Ġl Ã¤nd
be k
ĠSch ritte
ĠO pen
os h
ĠLe ktion
et tet
Ġar me
Ġbesser es
Ġgef allen
ĠÃľber zeug
Ġfal schen
ĠGesicht er
ĠNeur owissen
erstÃ¶r ung
lin ie
ĠSym pt
ĠBill ionen
Na ja
ĠÃ¼berraschen d
ĠTel eskop
ĠUntersuch ung
ĠKir che
ĠLiter atur
ĠDunk el
ĠErleb nis
ĠChic ago
D ollar
f ar
n Ã¼tz
t age
an c
ge setz
sch icht
es ie
Ġzu st
it ation
Ġin tens
ĠW elten
ĠP an
ĠT rau
ĠT ief
ĠT radition
Ġl eiten
ĠÃ¼ber legen
rei be
sp ar
ne y
Ġdar gestellt
Ġwei ÃŁen
ul pt
Ġkon front
Er st
sam en
ĠBl att
Ġbede ut
ĠEx p
ĠPh ot
ĠInform ations
ĠRo h
Ġ7 5
ĠKrieg s
Ġbeko mme
Ġgrund sÃ¤tzlich
ĠErd be
Ġanf ing
Ġaut omatisch
ĠWebs eite
ĠStamm zellen
ĠTransp ort
Ġbehaup ten
Ġzeich nen
bÃ¼ cher
ĠRuss land
b eln
k or
k al
l im
m ar
o ÃŁ
w en
ĠS how
ĠA str
ĠW agen
ĠD at
Ġsch ne
Ã¶n t
ĠJ un
and id
ĠRe ch
Ġsp ringen
Ġdurch fÃ¼hren
ĠUn i
ĠEin stein
Ġhin unter
rÃ¤ ger
ver halten
Ġzusammen zu
reich e
Ġwill st
Ġex tra
Ġgeb raucht
ĠHin dern
mittel n
zei gen
ĠFol ie
ĠBes onder
Ġperf ekte
ĠiP h
Ġdauer te
ĠSÃ¤u get
Ġaufgew achsen
ĠElef anten
Ġwechs eln
ĠAngel es
ĠGot tes
A ch
D abei
E x
d am
m ensch
Ġ ra
st ar
Ġm och
sch iff
Ġzu frieden
ĠM io
ĠA ss
Ġf ingen
ĠB em
ĠB ur
ĠP aten
ĠL ab
Ġver z
ĠT om
ĠT our
ĠT heor
Ġso was
Ġaus gew
ĠÃ¼ber ein
Ġwo fÃ¼r
men ge
bst off
fl iegen
ler nen
pro bieren
ktiv itÃ¤t
Ġ6 00
ib an
Ġbeob achte
ĠSter nen
ĠTr ick
ĠfÃ¼hr ten
ĠFÃ¼hr er
Ġrei sen
ysik al
Dam als
ĠLÃ¶ cher
ĠMetap her
S eine
S ystem
a hnen
o ber
der t
se e
ĠP aul
ĠH unger
Ġl anden
Ġt he
Ġt rans
ĠN utzung
ĠSt ahl
Ġbei bringen
ĠUn fall
ze pte
ĠCh ancen
ĠVor stellungen
ĠZu schauer
qu elle
Ġbek annten
ĠAb sicht
ĠVerb rechen
no ten
halt igkeit
ĠGemein schaften
Ġerw achsen
Ġverschw unden
ĠMag az
ĠPrinzip ien
wissen schaften
Ġdigit ale
Ġbemerken swer
Ġposit ive
ĠGeburt stag
ĠAfr ikas
ĠResult at
Ġmer ken
antas ie
S ogar
W or
p hen
Ġd rÃ¼cken
ge fÃ¼
sch Ã¤tzen
or es
ĠG anz
ĠP ri
Ġum her
ĠO kt
ĠAn nahme
Ġbei spielsweise
Ġ2 3
Ġzwei mal
Ġber ichten
ic s
Ġ200 8
Ġverk nÃ¼
Ġstar ben
Ġvert rauen
Ġgemeinsam en
Ġblau e
Ġlok ale
ĠMolekÃ¼ l
Ġtra fen
schm utzung
Ġbemerk te
A mer
a ckt
Ġ ult
st eh
Ġa chten
Ã¤ tzt
ĠD ia
ĠT ri
ste chn
Ġum s
ĠIn spir
ĠBe vÃ¶lker
Ġdurch zu
Ġunter en
Ġbes orgt
Ġverst and
ĠUnter haltung
ĠSk ulpt
Ġph ysikal
ĠDar stellung
Ġschwar zen
beh Ã¶r
Ġkosten los
ĠÃ¶ k
ĠÃ¶ konom
Ġafrikan ischen
ĠAuss age
Statt dessen
Ġtrin ken
D anach
k arten
m essen
t Ã¤u
Ġh ielten
Ã¤ hl
Ġge holfen
ĠT Ã¶
ĠH andel
Ġo k
Ġdar stellt
ĠWelt krieg
ĠSp ann
bar er
Ġselbst verstÃ¤ndlich
ĠAus stellung
Ġirgend jemand
ĠPh ase
ĠhÃ¶r ten
Ġal tern
hol z
ib iot
Ġbeein dru
ĠSk el
ĠBes uch
Ġkomplex en
Ġspezie llen
ĠKan ada
leist ungen
schn eiden
Ġsogen annte
wahr scheinlich
cy c
ĠNiger ia
azi f
ĠgenÃ¼ gend
E twas
S obald
a os
e p
i h
l ager
m uster
z n
ei det
Ġm echan
sch aut
Ã¤ um
Ġb aut
ĠM ult
ĠA ktion
Ġg Ã¼nst
ter e
ĠB undes
ĠE mp
ĠF lie
Ġer m
Ġer he
ĠP opul
ehr t
ĠN oten
Ã¤n ner
om be
ĠVer wand
ĠO hren
ĠAn wend
Ġst Ã¤dt
Ġle be
ats Ã¤ch
ran che
Ġverl ang
ompu tern
dien st
orden tlich
Ġsozi al
Ġoffen en
ahn sinn
ĠStr and
Ġlangsam er
Ġbi ologische
leist ung
zwei f
Ġis ol
Ġsta at
ĠgrÃ¼ nen
ĠAs ien
ĠVorstell ungskraft
ĠTeen ager
G anz
G roÃŁ
S ol
i as
m odell
p reis
s es
Ġ enden
ch tern
Ġw isst
Ġe uropÃ¤
st Ã¶
ĠS MS
Ġn annten
Ġwir ken
ĠA c
Ġan hand
ĠL achen
ĠT reib
Ġso lange
ĠV Ã¶lker
Ġt reiben
Ġt atsÃ¤ch
Ġj ung
ĠJ ames
and t
il en
Ġvor ge
Ġent halten
ĠRe tt
ul iert
Ġ2 2
ĠGesch enk
Ã¼ck e
Ġheraus f
Ġeinige s
Ġbet reiben
zÃ¤ hlen
ĠBer icht
ĠweiÃŁ e
ĠAb fall
ĠReg ionen
Ġbesch rÃ¤n
Ġgeb rochen
ĠMÃ¤n nchen
Ġerk annt
Des wegen
Ġkonzentr iert
fre und
ath ie
Ġorganis ieren
Ġdunk el
Ġverste ckt
ĠKlassen zimmer
ged acht
Ġsu per
Ġantwor tete
Ġstop pen
ĠMerk mal
Ġbetro ffen
ĠKampag ne
ĠSchicks al
N A
R eg
T ube
g roÃŁ
Ġd ynam
ge sellschaft
on y
ĠS amen
ir itu
ĠA lt
Ġf ehlt
Ġver glichen
is ierte
Ġsch we
ĠV en
kt ionen
ĠZ ent
ĠSt ad
ĠSch aden
ĠIn s
ĠO st
ĠAr gument
rÃ¼ stung
Ġnach ts
Ġnach gedacht
Ã¶r tlich
tzt lich
Ġunter richten
fÃ¼ llt
du ktiv
ster ben
rit tens
Ġzusammen arbeiten
akt or
ĠReg ierungs
Ã¤lt igen
ip edia
Ġverk auf
kehr t
ĠÃ¶ffent lich
ĠKap itel
Ġwor auf
ĠHo tel
Ġfr em
Ġwert voll
ĠSonnen licht
Ġposit iv
Ã¤st h
ĠErn Ã¤hrung
ynam ik
ĠEreig nisse
ĠWider stand
ĠFrank reich
Ġbeteil igt
ĠDeb atte
ĠAma zon
ĠPrÃ¤sent ation
b ringt
n ommen
p unkte
u ls
Ġ $
an al
st anden
Ġh Ã¤ngen
Ġk op
Ġwir kt
ĠG rippe
ĠE th
ĠF utter
sen s
ĠT it
Ġvon einander
am our
Ġsch reibt
Ġl and
ĠZ er
Ġwo her
Ġ1 000
Ġre chte
Ġre par
we ich
Ġhin auf
ok uss
ĠUnter richt
Ġange t
erson en
pl os
ĠQu ellen
Ġausge setzt
ĠMan gel
mit tag
son dern
Ġfrei en
lin ien
ĠMot iv
ĠSonnen system
ĠDies es
Ġmoral ische
ĠGerÃ¤u sche
ĠMÃ¤r kte
Ġtrau rig
Ġbegeg nen
ĠRestauran t
olly wood
J emand
d liche
l ad
o berflÃ¤che
Ġs uchte
Ġe w
on ien
ĠS m
Ġder selben
ĠM eine
al ent
ĠA st
ĠA lex
ĠF okus
ĠP en
ĠP ra
ĠT ab
Ġbe wirken
ion s
am s
Ġum fassen
Ġp ri
ĠGe orge
ĠVer d
ĠAn fÃ¼hrer
Ġre agiert
Ġ2 7
Ġeinfach es
gel t
schein end
ĠUnivers ity
ĠBo ston
ĠY or
ow n
ĠPar is
ĠEigen t
ĠFrei will
Ġteil weise
ĠMag ie
ĠSy mm
ĠJahrzeh nte
ĠRÃ¤ ume
ĠWettbewer b
iein halb
geschw indigkeit
Ġgrundle gend
B o
S c
f rau
l esen
t eils
Ã ľ
Ġd oppelt
in al
Ġs ystem
Ġun mittel
Ġh eilen
Ġz it
ĠA p
ĠG PS
Ġge lie
ĠK oll
ĠL a
ĠT ur
ĠSt an
ien ce
rÃ¼ che
ĠSp an
Ġneu gier
Ġglau bten
geb iet
Ġbet rieben
Ġbek annte
Ġirgend eine
ĠSchl acht
ĠKind es
ĠMus iker
Ġwenig stens
Ġen tz
ĠSpiel zeug
ĠVers uche
ho f
Ġansch aut
Ġverd ient
Ġweltw eiten
Ġgro sse
ĠverÃ¶ffent lichen
imul ation
Ġgek auft
ĠerhÃ¶ ht
Ġreduz iert
ĠArme e
Ġvergangen en
ĠEntfern ung
Ġwes halb
ĠYou Tube
ĠiPh one
h ir
m anden
o der
p flanzen
t ragen
u ar
v an
Ġd ick
un klen
ĠS el
Ġn ett
ĠB eit
ĠK ategor
Ġer geben
ĠL ad
Ġbe zÃ¼glich
ĠV oll
be kommen
Ġj ahr
il itÃ¤r
om as
ĠC omputern
ĠRe zept
Ġgen ieÃŁen
ĠZeit raum
wer ken
Ġbes essen
ster o
ĠCh aos
Ġbest and
ĠFl Ã¤che
ĠFl Ã¼ss
ĠHand ys
Ġgel ang
Ġins besondere
ĠRo ck
Ã¤tz ung
Ġfol gendes
ĠAt lant
Ġhal f
ĠBi om
ĠAnt ibiot
ĠProgramm e
ĠgrÃ¼n den
ĠRu he
ĠStat us
ĠPoten zial
Ġres pekt
ĠAsp ekte
ĠBibliot hek
D rei
G leich
c in
un ruh
Ġm omentan
Ġbe enden
Ġl Ã¶
Ġl ande
ĠZ erstÃ¶rung
ag te
ĠÃ¼ber qu
ĠSch icht
Ġmehr eren
Ġr isk
Ġr elev
Ã¼n der
Ġar m
Ġvers orgen
Ġverst Ã¤r
ĠAuf nahmen
ĠNach haltigkeit
pro v
Ġern eut
ĠStÃ¼ck e
amp e
Ġfolgen den
ĠPr esse
ĠSchwe den
Ge sch
ĠZwei fel
Ġschau ten
ĠChar les
ĠverÃ¶ffent lich
Ġkontroll iert
ĠMark eting
ĠInstr umente
ĠKrie ges
ĠspÃ¼r en
ĠFein d
ĠPersÃ¶n lichkeit
K inder
w inkel
Ġd ienen
Ġein geladen
Ġh ieÃŁ
Ġk alt
it s
au ten
ĠM icro
Ġge le
Ġan g
Ġan gen
ĠD Ã¶r
ĠSch wer
scha fft
Ã¤t te
hal ts
ick et
ang s
Ġunter wegs
fl u
iz ont
Ġpro fession
Ġpro duktiv
ĠWei s
Ġ19 4
Ġverl iert
fÃ¤ llt
Ġmo dern
Ġor gan
ĠDar win
Ġinte llektu
ĠSicht weise
Ġgeh ei
zÃ¼ ge
Ġhinzu fÃ¼gen
ĠHÃ¼ hn
ĠProte ine
Ã¶rder t
ĠFakt or
ĠursprÃ¼n glich
ĠKlei dung
Ġmerk wÃ¼r
ĠDepress ion
ĠSchne e
pon ent
ĠWik ipedia
ĠKonse quenzen
ĠGemÃ¤l de
ĠBevÃ¶lker ungs
F l
W el
b ie
d ro
h Ã¤ngt
t Ã¤
u gen
z ten
Ġd okument
ĠS uch
ĠM ach
ĠA kte
ĠB eute
Ġauf geregt
ĠN adel
ĠSch alt
Das s
ot s
ob el
fl Ã¤che
gel Ã¶st
ster blichkeit
Ġwieder holen
Ġnie manden
war d
Ġletz ter
eich ern
Ġange ht
ĠSo zi
Ġbedeu tete
ate in
ĠGer Ã¼
ĠÃĦ ra
ĠDe cke
spro blem
Ġhinter lassen
berfl Ã¤chen
Ġwor an
Ġ25 0
ĠKranken hÃ¤user
Ġhil f
ĠKamer as
Ġbas ierend
Ġverurs achen
ussen dlich
Ġ201 0
ĠDimen sionen
ĠCy ber
D arum
N ormal
W elt
b ilder
k Ã¼n
l Ã¤nd
s u
v in
w ald
Ġw id
an dern
st itut
ĠM el
de cken
ĠA stero
ur ce
Ġge bl
ĠW itz
ĠE hem
Ġt rug
ĠN est
ĠVer kauf
Ġwo von
ĠRe aktionen
Ġre ch
Ġger ettet
ha f
Ġleben dig
io x
ĠKre dit
Ġgar ant
ĠGebÃ¤u den
ĠRicht ungen
Ġentscheiden d
Sp iel
Ġdein er
ĠAlter s
ĠhÃ¶her e
ĠKur ve
techn ologie
schlÃ¤ ge
Ġzunehmen d
ly mp
ĠTie fe
ĠErwart ungen
5 00
B er
M ich
V ideo
b ack
b ilden
g ste
t akt
er in
Ġd eut
Ġd iag
ir bt
sch reiben
ein s
at ischen
ĠM ass
ĠM art
ĠM eister
se her
Ġver an
Ġbe zeichnet
Ġbe unruh
ĠJ ung
ĠVer fahren
ĠIn tern
ill ionen
Ã¤r me
end es
ĠEin s
itte lt
auf nahme
Ġber Ã¼ck
ĠKl av
erk ennung
ho ben
Ġeinge fÃ¼hrt
ron t
Ġerf assen
ĠGesicht s
kÃ¼ ste
ĠTeam s
ĠWachstum s
del n
Ġinspir ieren
abil itÃ¤t
ĠDet ail
Ġumzu gehen
wart ung
ĠStre et
ĠEntdeck ungen
ĠWÃ¼r de
ĠZw ischen
Ġeigent liche
ĠPhys iker
Ġvorber eitet
ĠHyp oth
ĠVerbr eitung
ĠÃľberrasch ung
ĠJun i
ĠInspir ation
B G
g ut
i at
i pl
v ater
v iele
z ir
Ġs eht
Ġm ikro
ir e
ir gend
ĠA th
Ġf okuss
Ġge zogen
ĠW h
Ġan passen
ĠP rÃ¼
ĠT oten
Ġmit tels
Ġsch merz
ste te
ik ations
ĠSch m
Ġuns ichtbar
ĠVer lauf
ĠAn geb
Ġle gt
schaft ler
we llen
ĠGesch Ã¤fte
Ġko mm
ĠHer stellung
ĠAu ÃŁer
ĠGeb rauch
ĠSte ve
Ġwunder baren
ĠGegen den
Ġschwier ige
Ġdein em
rim ine
ĠPsych ologie
ĠgrÃ¼ ne
Ġgrundlegen den
ĠFakt oren
ĠwÃ¼n schte
Ġelektr ische
Ġdefin iert
ĠMobil te
ĠAlgorit hmen
ĠGemÃ¼ se
ĠErdbe ben
I mmer
P l
d ach
m on
s icherheit
Ġe volution
Ġa d
ĠM r
ĠM as
ĠM ale
ĠG anzen
ĠB IP
ĠD okument
ĠL eiter
Ġsch ul
ĠN ur
ĠN Ã¤hr
Ġaus geben
ĠSt imm
ĠSch ok
rei ft
Ġvor hin
ĠAn stieg
ĠEn d
ĠUn ser
for dern
Ġbes uchte
Ġbeg reifen
sam e
Ã¼n den
ĠTeil nehmer
Ġdrei dimension
ĠPh o
pro zess
ĠBo x
th ese
zeich nungen
ĠMet all
mit glie
ĠSu b
Ġbeein druck
schnit tlich
zÃ¼ g
stÃ¼ck e
Ġinvest iert
ĠErwachsen e
Ġkn app
ĠMich ael
ĠChin esen
Ġgetr ennt
ĠFlag ge
ĠDunkel heit
ĠTheor ien
m esser
Ġm el
sch ten
Ġz Ã¼
Ã¤ den
or a
or y
el en
ĠW ahlen
Ġden selben
ĠD sch
ĠD ial
ĠT reffen
ĠT aschen
ĠH al
ĠV iele
be tes
Ġaus ser
ĠSt Ã¤
ĠÃ¼ber sch
Ġp rÃ¼
anz t
Ġmach st
Ġle hren
Ġsp Ã¤ten
ĠAus gang
ĠAuf bau
eich ert
ĠweiÃŁ t
Ġbek Ã¤mpfen
Ġleben den
An statt
ĠSchu he
Ġern Ã¤hren
schnit ts
han a
ĠEigen schaft
gn Ã¼gen
Be vor
Ġru fen
Ġstud iert
Ġspezie lle
ĠHig gs
ĠAnge legen
Ġgenet ische
ĠIngenie ur
ĠEi sen
ĠBedroh ung
ĠWeis heit
H all
Z unÃ¤chst
e ter
e ct
h st
k st
k Ã¶rper
p ark
ĠS Ã¤
Ġn eigen
au men
icht um
Ġf e
ĠB an
ĠB ord
ĠW icht
ĠK art
Ġan halten
Ã¼r en
ĠI talien
ĠH itze
Ġaus s
ien s
Ġvor sichtig
ĠAr zn
scha ff
Ã¤ch er
ger t
Ġlie bte
ichte te
ĠzurÃ¼ck kehren
Ġwahr nehmen
ĠBer ge
Ġinteress anten
Ã¤h ern
ĠEx trem
Ġstar ken
Ġanzu sehen
system e
ĠGener al
ĠAnt i
Ġentf ern
ffiz ient
ĠIs land
Ġgro ssen
zus p
Ġfantast ische
ĠNachbar schaft
ĠIngenie ure
produ ktion
Ġsogen annten
ĠKons um
ĠDenk weise
ĠerfÃ¼ llen
Ġober en
Ġat men
ĠProj ekten
ĠÃĦnder ungen
ĠZÃ¤ hne
Ġkauf te
ĠOpt im
ĠverblÃ¼ ffen
D H
L asst
O hne
W ann
b rech
d i
g Ã¤nger
h euer
k ultur
t ion
Ġ Ã¤r
Ġw Ã¤r
Ġs Ã¤
Ġz Ã¤hlt
ll ung
ĠM isch
lich keiten
ĠB ang
ĠE hr
ĠD an
ĠL aufen
ĠSch ild
ĠSch merzen
ĠC enter
ĠIn iti
Ġbei gebracht
rin k
Ġkon sum
ĠProblem s
ĠFl Ã¼gel
ĠWei bchen
ĠMed ium
Ġschl ug
ĠRei hen
Ġwunder voll
spro gramm
ĠAng riff
Ġc m
ĠUr sprung
Ġna ja
ĠPo llen
ĠAben te
Ġbemerken swert
ĠerklÃ¤r te
ĠBrust krebs
ĠAnal yse
ĠauÃŁergewÃ¶hn lich
Ġdank bar
ĠAfr ikaner
Ġchem ische
Ġplan en
ĠÃĦgyp ten
ĠlÃ¤nd lichen
Ã¶nt gen
A ut
K urz
b an
b rauch
i ls
o h
s un
in ess
Ġs ens
Ġs org
Ġm ent
ĠS ing
Ġh arte
Ġb rechen
em in
der m
le icht
ĠF unktionen
ĠP osit
ro ht
ĠL o
ĠI mmun
Ġso weit
ÃŁ ern
ĠR uf
ra un
ra tet
ĠN iveau
Ġaus machen
Ġvor n
ĠAn ruf
Ã¶r tern
ĠEn kel
ĠWelt bevÃ¶lkerung
ĠGesch mack
Ġbes ucht
des ign
ĠUm stÃ¤nden
ĠWasser stoff
akt oren
ĠAb s
Ġges unden
ischer weise
Ġbesch reibt
fÃ¼hl t
Sch lieÃŁlich
ĠWissenschaft lern
Ġ200 7
Ġschwer e
ĠSchul ter
kon omen
ĠHin blick
av en
Ġwor um
ĠKat ze
Nicht s
Ġtechn ischen
Ġerfor scht
Ġgenet ischen
stau sch
ĠInner en
Techn ologie
stu hl
ĠLebenser wartung
ĠYor ker
B et
N e
S oll
f ung
k ap
v iert
Ġ Ã¤lte
ei ben
te x
Ã¼ d
Ġh ind
Ġk oll
ĠM or
ĠE t
ig ht
ĠT in
Ġbe herr
Ġsch ock
Ġl in
be g
ĠJ ack
ff ekte
Ġp f
tw ick
ĠC amp
Ġst re
ot a
og ramm
ap pt
Ġgew ann
ĠKon go
Ġgem essen
Ġger e
ĠBl ock
Ġex ponent
Ġverschieden er
gehen sweise
wir kt
ĠSystem en
Ġ6 5
so ft
ens eits
ĠSu bst
ĠRicht ige
ĠOb ama
ĠglÃ¼ck licher
ĠKn ie
Ġjen en
Ġbl ind
ĠBro w
ĠTerror isten
ĠGespr Ã¤che
ĠSa al
Ġkultur elle
oper ation
ĠChe f
Ġberech nen
ĠwÃ¼ tend
ĠSympt ome
Ġkonfront iert
" ]
D em
T e
d ringen
Ġun vor
ĠS orge
Ġz we
Ġge zwungen
ĠL eid
Ġmit nehmen
ĠN utz
ĠkÃ¶n ne
ĠVer m
Ã¤ch eln
ab l
ĠLe vel
Ġviel mehr
rin zip
Ġange hen
ĠAut om
gef allen
âĢ Ŀ
ĠSystem s
ĠÃĦ l
ĠRei sen
Ġgest artet
alis ierte
ĠGesundheit ssystem
Ġho her
ĠNeu igkeiten
ĠberÃ¼ hren
Ġfr anzÃ¶s
Ġbi ologischen
Ġkre ativen
Ġernst haft
ĠhÃ¶ch sten
ĠInvest itionen
Ġchines ische
mel zen
stimm ung
ĠlÃ¤ch er
ĠTrain ing
ĠSpekt rum
ĠSpr ung
ĠGi pfel
ĠHack er
Ġnerv Ã¶s
ĠAntibiot ika
ĠKlav ier
B l
G ibt
W ahr
a mmt
b rochen
d y
f assung
u en
v ir
z iel
Ġd unklen
Ġe th
an lage
Ġh assen
Ġf oss
Ġer l
ĠL inks
Ġver folgt
Ġwie viel
hl end
Ġda zwischen
ĠVer wendung
ĠVer gnÃ¼gen
ĠO berflÃ¤chen
Ġall tÃ¤
Ã¤t ten
fach e
fÃ¼ hlen
ĠEin richtungen
che ster
Ġgew iss
Ġko mmer
pp ich
ĠAus nahme
ĠzurÃ¼ck gehen
ĠMe tern
Ġgel assen
ĠÃĦ hn
Ġbesonder en
ĠAmer ikan
Ġern euer
ĠDi pl
ĠBeh inder
ĠGleich gewicht
opp el
ĠÃ¶ fter
ĠKu h
sto ÃŁen
Ġwinz ig
Ġwinz igen
Ġvisu elle
Ġkor re
ĠAltern ative
Ġvern Ã¼nft
ĠMitglie der
Inter ess
rid ge
Ġsinn voll
ĠChir ur
Ġidentif izieren
ĠJan uar
Ġdiag nost
- -
F rauen
H eutzutage
O ffen
k ord
w Ã¤hlen
x is
ch tet
ch ite
Ã¼ ter
au cht
Ġge te
ĠB ibel
Ġan stelle
ĠE uch
Ã¼r zen
ĠH ir
ĠR itu
ĠV ag
Ġt r
Ġman ip
ĠGe fangen
ĠSch reiben
iv es
ĠC art
ĠEr ste
Ġst irbt
rie bs
Ġsa ÃŁen
Ġab gesch
geb iete
Ġwen den
Wie der
ha i
ĠGeb ur
utz end
Ġmus ikal
ĠÃľber wach
ĠMus l
Ġal ter
ĠMa mm
gem acht
ĠNeu gier
ivi leg
Ġ12 0
Ġmo lekul
ose xu
ĠhÃ¶her en
Ġschau e
Ġlern ten
Ġseltsam e
twor tet
Ġuner war
ĠMos k
Ġregel mÃ¤ÃŁig
Ġkap utt
Ġruh ig
Ġlangweil ig
ĠerwÃ¤ hnen
ĠBelohn ung
ĠEpidem ie
ĠPlatt form
ĠSkel ett
Hall o
Ġhind urch
F re
V ers
W ow
m at
p s
t ausende
st ation
Ġa tt
Ġun iver
Ġm on
ar s
Ġk let
ĠM ama
ĠG let
ĠG hana
Ġge setzt
Ġver kl
Ġver gleich
ĠH aw
ĠR Ã¶
Ġt anzen
Ã¤n z
rei bstoff
ĠPro zesse
Ġst immen
Ġst ieg
Ġle er
ad urch
In ner
olog ischer
Ġlie b
ĠKon stru
ĠVor gang
ĠVor schlag
Ġ3 2
ĠBl Ã¤tter
qu em
Ġange messen
ĠAl pha
ĠNach frage
Da fÃ¼r
ĠUnivers itÃ¤ten
mp h
ĠGroÃŁ en
ĠDesign s
Ġries iges
ĠFÃ¼ ÃŁe
ĠFahr zeug
Ġjen em
ian er
ĠBet on
ĠgrÃ¼n dete
Ġelektr ischen
ĠWirtschafts wachstum
ĠPrivat sphÃ¤re
ĠjÃ¼n ger
ĠSzen e
ĠwunderschÃ¶n e
Ġirgendein em
ĠSens oren
ĠKonflik te
ĠTrag Ã¶
ĠKomponen ten
iox id
A R
H er
i se
p ass
w enn
Ġw em
Ġs ub
Ġh Ã¤ss
ar enz
Ġb ildet
ĠM ad
de ckt
ĠA rab
Ġf rustr
lich em
Ġge fl
Ġge teilt
Ġge eig
ĠK e
le tzt
le ger
Ġan scheinend
ĠF a
ĠF rie
ĠD ame
um pf
Ġver pf
ĠR Ã¶ntgen
ĠV on
ik ale
tw a
ĠSch am
ĠPro ben
et isch
Ġ2 6
Ġ2 8
Ġunter nehmen
ger ufen
ger Ã¤te
ĠKon z
lei ter
ek tes
Ġinter pret
Ġkein es
ĠDie ser
ĠUm gang
ĠAut ob
Ġhei raten
ĠGer uch
ĠMus kel
alis ierten
Ġ200 5
ium s
âĢľ .
ĠfrÃ¼ he
ĠPart ei
Ġdre hte
ian ischen
ĠSchwe stern
ĠHa iti
âĻ ª
arr y
ĠProte in
Ġmoral ischen
Ġphys ische
Ġbenutz e
ĠBedÃ¼rf nis
ĠSchwar z
Ġmittler en
Ġignor ieren
ĠKatastrop he
Trotz dem
ĠKapit alismus
Erin nern
ĠWÃ¤l der
ĠTreib haus
ĠStan ford
O s
T alk
b it
f unktion
j ekten
m aterial
p ut
w achsen
Ġ Ã¤rm
ch es
Ġw omit
Ġm isst
Ġm ilitÃ¤r
Ġein geb
ge spr
Ġv ierte
ĠS ha
Ġin vol
ĠM ig
ĠG rie
ĠG ute
ĠB ier
ĠK le
ĠE ur
ĠF undament
ĠF Ã¼nf
Un s
Ġver ur
ĠT Ã¤u
ĠO l
ĠO hr
Ġsp iritu
fach en
ed y
kl asse
ĠFl Ã¤chen
sel be
ord net
ĠÃľber gang
Ġins gesamt
ĠMus keln
ĠMan h
stÃ¤nd ige
ĠStud io
ko hol
Ġro m
ĠAt omen
ĠOrganis mus
Ã¼t te
Ġflie gt
Ġpolit isch
ĠVert ei
ĠKÃ¼ che
ĠKÃ¶n nen
Ġ199 0
ĠTrÃ¤ nen
Dar Ã¼ber
ĠPrÃ¤si denten
ĠmÃ¤cht ig
ĠStrate gien
Ġmittler weile
Ġ196 0
ĠPrototyp en
ĠEinfach heit
ĠBatter ie
Ġneugier ig
F or
I S
g Ã¤nge
g Ã¼lt
k ol
u a
w ehr
w andeln
Ġ Ã¤nderte
Ġw elt
as ern
Ġwir ksam
ĠM ent
Ã¶ ch
icht ung
Ġge Ã¶ff
ĠB enz
ĠB ase
ĠW ut
le gte
ĠE hre
ĠE ffizienz
ĠP azif
ĠD on
ĠD utzend
ĠL ast
ĠT herap
ann ter
ĠH umor
Ġum so
ik ationen
ĠVer schw
ĠVer langen
ĠAn stren
Ġst ammen
Ġle g
et a
Ġwei bliche
Ġr um
ist in
rÃ¤ um
Ã¤u de
form ation
br igens
ĠAut ismus
ĠSe quenz
Ġwunder volle
Ġschwer er
ĠGl Ã¼h
ĠPol io
Ġabge sehen
ĠGeschÃ¤ft sm
orte x
ĠHa ie
ĠMathemat iker
Ġfre und
ĠMedikamen ten
zÃ¤hl er
ĠSc ience
Ġorganis iert
ĠHÃ¶he punkt
Ġis lam
ĠLiebl ing
ĠOrgan e
fÃ¤lt ig
Ġschick te
Ã¼hr ung
ĠFig ur
Ġanalys ieren
ĠUrs ache
Ġexpl od
ĠPhilosoph ie
ĠWeihn acht
ĠDia betes
Ġrepar ieren
ĠSchok ol
D e
G eh
M A
f ischen
g in
h el
i op
k opf
Ġw Ã¤
st eine
ei ge
Ġm obil
Ġein gehen
Ġh and
Ġh uman
ll ige
Ã¤ men
Ġin zwischen
de uten
Ġf eiern
Ġg ift
Ã¼r zt
ĠD aumen
ĠV alle
Ġt re
Ġj apan
wei ls
ort h
Ġbei des
Ġle uchten
ĠLe ber
Ġre flekt
auf gaben
Ġ3 6
Ġgegen wÃ¤rt
Ġmus lim
ĠMar ken
ĠDes halb
ĠRo llen
ĠKar ik
Ġ200 9
mÃ¶ gliche
ĠBed arf
ĠKn opf
Ġneben bei
Ġind ischen
schul digung
ĠApp le
sta aten
ĠTh omas
ĠDiag nose
ĠgewÃ¶hn t
Ġsetz ten
ĠSal z
ĠBud get
ĠHunder te
Letz ten
ĠWichtig ste
Ġspannen d
ĠMotiv ation
Ġrom ant
N eu
T est
o ben
u le
w endet
y to
Ġd ient
ei tern
Ġh y
Ġzu recht
Ġge sammelt
Ġver lieÃŁ
is men
ĠH ard
ĠH andeln
ĠR el
ĠV ie
ol a
ĠN Ã¤ch
rei de
ĠVer mÃ¶gen
Ġje weils
rau cher
zu kommen
Ġnach denkt
ĠEn er
Ġdurch schnittlich
Ġre t
Ġbes eit
Ġr ichten
Ein s
Ġwieder holt
Ġber uh
ĠAuf stieg
ĠUm stÃ¤nde
ĠGeb ieten
Ġleben de
Ġex akt
ord nen
Ġklein ere
ĠMann es
Ġsozi aler
ĠÃ¤hn lichen
ĠHÃ¶ hlen
ĠKat zen
Ã¤mp ft
Ġempf inden
Ġenor men
samm lung
Ġechte s
Dar auf
Ġhinge hen
Ġtradition elle
Ander s
Ġbenutz ten
Ġkompliz ierter
ĠMitglie d
ĠerÃ¶ff net
ĠLog ik
Ġexper iment
Ġbeit ragen
Ġinf iziert
Ġpoten t
Ġarab ischen
zipl in
Normal erweise
Ġkommer zie
Inner halb
F rÃ¼
M achen
b ir
h h
k omp
l eiten
o hlen
v o
w affen
Ġd rÃ¼ck
Ġs imul
Ġe hem
st Ã¤d
as k
ĠW Ã¤nde
ĠF antasie
ĠT asche
is h
ra ktiv
Ġl eist
ĠZ um
ag ern
ĠGe t
ĠSch auen
ĠVer z
ĠIn tu
ob by
ĠEin schrÃ¤n
Ġger aten
ĠFl or
ĠTechn iken
Ġwahr en
eite te
Ġverl or
gef Ã¤
rupp e
ĠMe ere
ogen ese
ĠMar ke
ĠÃĸ konomen
Ġfest gestellt
Ġoffen bar
ĠInternet s
Ġgemein nÃ¼tz
Ã¤uf er
Ġflie ÃŁt
ĠKÃ¼ hl
Ġqu al
Ġkre ative
amer a
ĠfrÃ¼her en
Ġnahe zu
ĠKu gel
Ġaktu elle
Ġemotion ale
Ġabst ra
ĠResult ate
ĠHaar e
arch ie
Ko mm
ĠTex as
ĠStau b
ĠVerbesser ung
ĠSpezi al
ĠAnwend ungen
ĠMicro soft
ĠCart o
G ehen
P lÃ¶tzlich
b aut
e tzen
i os
j et
l ament
p ern
p olitik
r ieren
en kt
an lagen
st at
st eht
as sten
ei fen
ge setzt
ĠS ektor
Ġh eben
Ġn u
Ã¤ ger
ar y
Ġin t
Ġin klus
ĠA ug
Ġf ein
Ġf rie
Ġf lex
le hnen
Ġan tworten
Ġan bieten
Ġer laub
ĠL Ã¤cheln
ig ungen
Ġver arbeiten
ĠSt ick
Wir klich
Ġvor gestellt
ĠâĢ ľ
Ġle tztlich
Ã¤t ig
ĠSp innen
Ġre st
wer te
ekt ar
zen ten
Ġgew orfen
ed back
Ġverb r
Ġverst Ã¤nd
Ġson der
Ġkein em
ak u
Ġeinz iges
Ġwahr haft
qu ellen
ĠAl kohol
ĠHand lungen
ĠMit tler
Da zu
Ġung lÃ¼ck
itu te
ĠSchw eine
Ġro b
Ġinner e
ĠBÃ¼ chern
Ġtro cken
err t
ĠDurch schnitts
ĠverrÃ¼ck te
Ġheut ige
Ġtau chen
ĠhÃ¶ch ste
ĠTransp arenz
ĠSer ie
Ġchines ischen
ĠKons umenten
ĠToi letten
ĠPfl anze
Ġbegrenz t
ĠKlin ik
Ġstet s
ĠUngleich heit
Ġverpf lich
L ie
M ails
P A
e ah
k Ã¤
l Ã¤sst
n icht
w Ã¤
Ġd anken
Ġs ym
ei gung
Ġm y
ĠS ur
Ġzu hÃ¶ren
Ġk g
ĠA ct
Ġge fahren
ĠB omben
le fon
ĠE benen
ĠF al
ĠP reise
ĠD ist
ĠR os
Ġaus gehen
ĠSt ich
ĠÃ¼ber setzen
ĠÃ¼ber lebt
Ġuns icht
wei st
Ġvor wÃ¤rts
Ġle gte
ĠUn g
Ġre icher
schie ben
Ġhin sichtlich
Ã¼n de
Ġverb rei
ĠVor der
ak ul
?" ,
Ġbede ckt
me ter
ĠLebens raum
ĠEnt steh
âĢ ĵ
ĠRo bert
Sch l
ĠMa c
ĠVers orgung
Ġbef assen
Ġbef reien
sk raft
ĠGlÃ¼ck s
Ġweltw eite
Ġfl og
ĠErfolg s
Pro jekt
ĠRecht s
ĠÃ¶ff net
ĠMaÃŁ nahmen
ĠDruck er
Ġanf Ã¤ngt
ĠBus h
Ġverste cken
Ġ198 0
Ġschlimm sten
ĠRÃ¼cken mark
ĠSchlag z
ĠreprÃ¤sent iert
Ġverle tzt
Ġverlie bt
ĠÃĦnder ung
ĠSchau spieler
ĠFrem den
Ġdiskut ieren
ĠjÃ¤hr lich
Ġdur fte
Ġmoch te
ĠPri or
Ġgete stet
ĠgeÃ¶ff net
ĠValle y
H at
M asch
Z usammen
e der
f asst
g anda
h il
n Ã¤
o od
as ien
ĠS ar
ĠS erv
sch alten
Ġb o
ĠM Ã¤use
ĠA bl
ĠG ramm
Ġge legen
Ġge langt
ter en
le chter
ĠF er
Ġver Ã¤nder
Ġver teilen
ĠT u
ĠT um
ĠT herapie
Ġwar tet
Ġsch reibe
Ġl asse
Ġt rat
ĠZ ut
ste ckt
Ġaus macht
sp unkt
ĠVer zwei
ĠVer teilung
ĠIn seln
ĠAn weis
ĠAn sichten
ĠBe wohner
Ġst at
ĠfÃ¼ llen
iz z
Ein en
du ktion
ĠAus land
ĠAus rÃ¼stung
Ġ19 50
ĠEx plos
ĠEnergie verbrauch
Ġausge geben
St ud
ott o
ron en
ĠMo unt
ĠSchw anz
ĠUnternehmen s
ĠGebÃ¤u des
Ġerh ielten
setz ungen
Ġfrei will
amp ag
Pro gramm
jÃ¤hr iger
Ġintern ational
ĠErf inder
ĠFel s
Ġkrei ert
organis ationen
Ġbill ig
dre hen
ĠEntwicklungsl Ã¤nder
Ġinst all
Ġpriv aten
ĠToi lette
ĠAch se
Ġbeeindruck end
1 8
C hin
J Ã¤hr
b aum
p ack
s itzen
t hmus
un ft
Ġs an
an ischen
sch lieÃŁen
Ġf air
ur a
ĠW affe
ĠW Ã¤rme
ĠK y
ĠK och
Ã¼r ze
Ġver lei
re ht
Ġauf einander
ĠH orm
ĠV i
be finden
be zogen
and em
ĠSt il
anz ig
Ġent war
lau be
ul d
ri c
im b
ĠKon zentr
ĠKon zepte
ĠWas ch
Ġbet rÃ¤gt
ak er
ĠUnter wasser
ĠAb hÃ¤ng
Ġhei m
Ġges unde
stand s
ĠEntw urf
no w
Ã¶l f
Ġbef est
Ġoffen e
mit h
Ġsel be
ĠFahr er
Ġauszu drÃ¼cken
Ġverschw indet
ĠBet rieb
ĠÃ¤lter e
Ġbedeuten d
Ġposit iven
Ġschreck liche
Ġniedr ig
Ġniedr iger
ĠhÃ¶ch st
ĠMy th
ĠberÃ¼hm t
Ġphys ischen
Ġaktu ellen
Ġunge heuer
Ġkultur ellen
ĠSchwar ze
hei mer
Ġzentr ale
krank heiten
Ġaussch lieÃŁlich
ĠOx ford
ĠPfer d
ĠkÃ¼mmer t
ĠWurz eln
ĠBetr acht
Ġverring ern
ĠFlÃ¼ss igkeit
Ġgele hrt
ĠEhem ann
ĠDial og
ĠManh att
yto cin
Ġleist ungs
B ahn
F rau
F ast
G em
V iel
W Ã¤re
a fe
c ar
u cken
ge gangen
ar ren
or ien
ĠM eg
el tern
Ġge g
Ġge fr
ĠB is
le ver
ĠP op
ĠL ive
eit ungen
re ut
Ġsch rieben
Ġl asst
Ġj enseits
Ġaus drÃ¼cken
ĠJ er
Ġwer det
bt eilung
sp anne
ĠVer hand
ĠC r
Ġher ab
fl ie
Ġkon serv
ĠKon d
ĠAus gaben
ode lle
Ġ19 5
ĠTe e
icher ung
Ġal tes
ĠschÃ¶n er
Ġglob al
ĠSÃ¼ ÃŁ
ĠFahr zeuge
Ġkomplex er
Ġerle digen
ĠÃ¤lter en
ĠInte gr
Ġfre ie
ĠTh un
Ġumzu setzen
Ġirgendw elche
ĠFe edback
Ġeinzig artig
bed ingungen
Ġbenutz te
Ġwirk lichen
ĠPe ter
ĠAuft rag
aktiv itÃ¤t
ĠMechan ismus
ĠBerechn ungen
Ãľ brigens
ĠAbente uer
C h
J ahr
b ru
Ġ Ã¶rt
an y
ĠS mith
ir ca
sch ild
Ġn ationale
Ġk Ã¼nstler
Ġder er
at ers
ĠB itte
ĠK ok
ĠK uchen
ĠK Ã¼nst
ĠK osm
ĠD ort
ĠT reibstoff
ĠH Ã¶r
ĠR atten
Ġl Ã¶st
Ġt rain
ien e
zu gehen
ĠPro be
ĠC A
ĠAn h
all er
Ġunter halten
Ġunter halb
ĠEin blick
ap s
In dem
ver kehr
Ġbet reffen
ic al
pro jekt
Ġgest altet
ĠGed ichte
ĠHin weise
ĠLehr ern
ĠBi ologen
ĠSelbst mord
ĠUr kn
urop a
Ġ[ "
az itÃ¤t
wert ung
ĠBr ut
ĠAll gem
rieden heit
ĠGleich ung
wesen heit
Ġteil nehmen
ĠBlick winkel
ĠOn kel
stre ben
ĠFrÃ¼ hl
ĠInvest ition
ĠberÃ¼hm te
ĠauÃŁergewÃ¶hn liche
Ġbill iger
ĠkÃ¼nst liche
ĠzukÃ¼nft igen
ĠWill i
ĠhÃ¼ b
ĠPingu ine
ĠEng agement
ĠBeit rag
ĠAngeb ot
ĠGrie chen
G ott
b inden
k u
o cken
u ste
Ġe mp
Ġa ben
Ã¼ chtern
on ym
Ġh ung
Ġz ogen
at om
Ġin tu
ach s
Ġf uhren
Ġge gessen
ĠE ver
ĠP ause
ĠL u
ĠL aut
ĠL ux
um pen
ig ant
Ġver langen
Ġver gewalt
ck s
ĠH andels
Ġsch ief
Ġo per
be ziehen
ste cken
ut h
Ġdem onstr
ĠPro p
men gen
Ġst ra
ĠRe ichtum
Ġsp ont
ill er
ĠLe g
og ie
ĠSp e
Ġkl ingen
op hren
ĠU ganda
Ġr as
Ġr Ã¼ber
iz ophren
iger weise
Ġko oper
Ġdu mm
ĠAus wirkung
ĠzurÃ¼ck kommen
Ġber u
ĠFl asche
ĠBl ase
ĠKo hlend
ĠLicht er
Ġ200 4
Ġ7 00
ĠWer ke
Ġanzu gehen
Ġflie ÃŁen
ĠHÃ¶ lle
ĠBÃ¼rger meister
Ġbew ahren
Ġeinzu setzen
stra ÃŁe
ĠBel ast
ĠTÃ¼r k
abhÃ¤ng igkeit
ĠWohl befinden
ĠLÃ¶ wen
Ġbehaup te
ĠwÃ¼n schen
Ġkompliz ierte
ĠStatist ik
Ġ197 0
ĠSzen ar
ĠzukÃ¼nft ige
ĠNerven zellen
ĠGlob alisierung
ĠKatastrop hen
ĠJournal isten
trag ung
ĠFle derm
Ġdram atisch
Ġallgem einen
fir ma
Ġille gal
WÃ¼r den
ĠPopul ation
ĠPra xis
Ġinklus ive
K W
K opf
R ob
T eil
c i
f ro
h ten
i us
i ppe
n am
w a
Ġ y
ch ron
un dern
Ġs uchten
Ġm ar
ge kommen
Ġh alt
Ġn ationalen
Ġzu sÃ¤tzlich
ĠM Ã¼n
ĠM ahl
ĠM auer
Ġg reifen
el s
ĠK andid
Ġer setzt
ĠH on
Ġsch ie
ste ten
ĠN ov
ĠN utzer
rau t
ĠO ption
Ġent tÃ¤u
ing ung
op s
we ll
Ġkon kur
ke pt
Ġlie bt
Ġar gument
kl ar
ha fen
Ġzw eit
Ã¤nd ler
gr unde
Ġschl ussendlich
Ġverm ittelt
Ġoffen sicht
ĠGegen stÃ¤nde
ĠAmer ikas
mit ten
ĠVort rÃ¤ge
Ġentde ckten
if est
ĠKor e
Ã¼t teln
Ġerk unden
ĠPar lament
ĠRes erv
ĠLi fe
ĠStand punkt
Ġversch m
ĠMag net
Ġtechn ische
ĠBÃ¤ umen
Ġbed roht
Ġblo ck
ĠZuf riedenheit
Ġvorh ersagen
Ã¼cht ig
ĠNot iz
Ġvisu ellen
Ġlief ert
ĠBall on
Ġnachhalt ig
Ġnachhalt ige
grÃ¶ ÃŁe
ĠRake ten
ĠAllt ag
ĠOkt ober
ĠFlie ge
ĠTit an
Ġlin ke
Wahr scheinlich
ĠMusl ime
ĠÃ¤rm sten
ĠBase ball
ĠEntsteh ung
Z eit
b ein
d a
d auer
k s
w ay
y mm
z o
Ã ĸ
st il
st Ã¤r
Ġh ell
Ġb raun
ĠG ift
ĠK eine
ĠK Ã¶pfen
le ute
Ġer langen
ro tt
ĠI mm
Ġbe fr
Ġbe achten
Ġauf merksam
ĠH ai
ĠR ichtig
Ġo ffiz
Ġt heor
Ġaus fÃ¼hren
Ġp fl
ĠIn halte
hn te
Ġst imm
ot o
ul ar
ul ation
ĠSp ur
ĠSp eicher
he ber
Ġunter scheidet
ĠZeit ungen
Ġzwei tens
ĠEin heiten
Ġgew innt
ĠKon troll
ĠKon kur
ĠHer an
gar ten
Ġange kommen
ĠAl z
ĠLebens qualitÃ¤t
Ġgeb ildet
kun st
ĠGroÃŁ vater
Ġfest ge
Ġ8 00
ĠschÃ¶n es
ĠWer ten
Ġschwier igen
ĠGeschichten er
Ġhoff nungs
ĠPart y
ĠHÃ¶ hle
ĠMikro skop
Wo her
ĠFuÃŁ ball
ĠTem po
ĠSchÃ¼ lern
Ġwider sp
Ġwinz ige
ĠGra v
Ġtie fe
ĠFel sen
ĠBeruf s
Ġintelligen te
ĠNie mand
Ġnutz ten
ĠÃľ bung
wissenschaft ler
Ġreligi Ã¶sen
Ġvirtu ellen
ĠStift ung
ĠSamm lung
ĠDam it
ĠArbeitspl atz
ĠIll usion
ĠÃ¼berprÃ¼ fen
Ġprofit ieren
ĠSchÃ¤ del
Ġschne lle
Ġanget rieben
Ġhilf reich
su mmen
ĠMosk it
ĠGlet scher
Ġehem al
B I
E T
a ver
k ette
w ort
er dings
Ġe ffizient
Ã¼ hle
sch Ã¶nen
Ġn Ã¶r
ll te
Ã¤ ser
Ġzu grunde
or ter
au ch
Ġwir ft
ĠM R
ĠA v
lich ung
ter te
ter ung
ĠB einen
ĠB ron
ĠK enn
ĠF ront
Ġer fordert
ĠD ichte
ĠD Ã¼n
ro w
ig ma
ĠT ode
ĠT rink
is ierten
ĠH als
ra y
Ġsch Ã¤d
Ġt reibt
be w
ĠZ ig
Ġum welt
ĠÃ¼ber setzt
ĠGe fahren
ĠSch nell
ĠSch reibt
zu stand
ĠO el
ĠEr schein
Ġst ruktur
ru gen
ĠSp enden
ĠSp uren
we cken
ri x
fl ei
ĠfÃ¼ hlten
gel d
Ġweiter entwick
Ã¤u b
geb ungen
Ġverb rauchen
ĠFl u
reich end
Ġhei ÃŁe
unter richt
th iop
eim ittel
ĠDe z
Ġ200 6
zeich nung
ĠProdu ktivitÃ¤t
Ġc irca
ĠGegen stand
fÃ¤ llig
Ġbevor zu
ĠFot ograf
werk raft
gesch Ã¤ft
ĠÃ¼ ben
ĠFlug zeuge
Ã¤cht igen
ĠEurop Ã¤
Ġqu er
ĠKil o
ĠRu anda
organis ation
minister ium
Ġafrikan ische
ĠSchrift steller
ĠGest altung
Ġsexu elle
ĠTrend s
ĠHom o
Ġprogramm ieren
ĠungewÃ¶hn lich
ĠzusÃ¤tz liche
Jeden falls
zweif elt
ĠSymm etrie
Ġgebl ieben
B r
B es
O r
b reite
g riffen
l n
l em
u den
v as
en ten
Ġd icht
in ationen
an i
Ġm alen
ge hÃ¶r
ĠS atur
at i
ĠM ist
ĠA uch
ĠG and
ur r
Ġer t
Ġer richten
ĠD inger
ĠD ynamik
ĠL au
ĠT V
ĠT Ã¤tigkeit
ĠI d
re ter
Ġbe denken
Ġauf recht
ĠH aben
Ġsch ieÃŁen
Ġl agen
Ġt rennen
il deten
ĠSt ille
ĠSt Ã¶rungen
ĠVer anst
ĠO lymp
ĠMensch lichkeit
ĠAn erkennung
Ġall zu
Ġsp iele
ĠWelt all
op t
ĠEin ige
ger ung
Ġweiter machen
du str
Ġverb raucht
Ġir r
ĠWei ter
Ġges Ã¼nder
ĠerzÃ¤ hlten
Ġbesch Ã¼tzen
Ġsicher stellen
âĢ ¹
Ġc lever
ĠHin weis
Ġfor der
Ġabge schlossen
ĠJe ff
Ġerinner te
jen ige
ĠÃĦr zten
eid ung
Ġrei ste
ĠHÃ¼ gel
ĠAd am
Ġauft reten
ĠCar ol
sichtig t
ĠNahrungs mittel
ĠDienst leistungen
Ġausgeb ildet
Ġpriv ate
ĠAstr on
Ġpri mit
ĠAstero iden
Ġatt raktiv
ĠGlÃ¼h bir
ĠManhatt an
ĠKohlend ioxid
ĠAlz heimer
8 0
B C
M Ã¶
P M
S icher
] .
c ol
f lex
k rise
m od
r is
s ucht
s itz
s orge
er kennen
in son
Ġs ign
st rÃ¤ger
ei s
Ġun angen
Ã¼ ster
ĠS eil
Ġn irgend
Ã¤ me
Ġzu gleich
ĠW elle
ĠK ing
ĠK noten
ĠF alle
ĠP enn
ĠP unkten
ĠL esen
Ġver ne
re gung
Ġbe endet
ÃŁ te
eh nte
Ġt o
Ġt ollen
Ã¶n e
be sch
ĠN obel
ag d
Ġdies mal
ĠIn tens
ĠIn dustr
ĠAn zeichen
Ġle eren
ab y
bl ock
Ġher bei
wer ten
ob i
fl Ã¤chen
im a
Ġbeg rÃ¼
ver l
ĠCh ip
.. ."
ĠAu stausch
Ġzw ingen
Ġeinz iger
ĠKo operation
ĠAut oren
ĠLehr e
ens ystem
Ġwohl haben
Ġfolgen der
ĠGleich heit
drÃ¼ck e
ĠNord amerika
eig ern
ĠApp ar
ĠhÃ¤uf iger
gra ben
ĠAbst and
ĠerfÃ¼ llt
ĠKÃ¤ fer
ĠElektron en
ĠFig uren
ĠMat he
Ġallgem eine
Ġerz ielen
ĠGre en
tage ssen
ĠMart in
ĠGebur ts
ĠBenz in
ĠPazif ik
ĠIntu ition
ĠMittler en
ĠAllgem einen
M et
S S
g rad
h andel
k amen
u ell
v ern
Ġ ass
un e
Ġs inken
Ġe chter
Ġm Ã¼
sch el
Ã¤ nen
Ġk osm
au ben
ĠA pfel
Ġg igant
ĠG riff
ĠG ates
ĠK Ã¶pfe
Ġan sprechen
Un ternehmen
ĠT aten
am ide
ĠH ollywood
ĠR io
ĠR iff
Ġl enken
Ġt rage
Ġt ausenden
om os
ĠSch werkraft
Ġuns icher
ĠC al
ĠC amb
ĠâĢ º
ĠEr wÃ¤rmung
ĠEin wohner
ĠCh ines
des igner
ĠKinder sterblichkeit
ĠHer kunft
Ġdrei mal
ĠKl uft
oren en
Ġeinz eln
Ġange passt
ativ er
ander s
Ġirgend was
Ġen det
ip end
ĠStud ium
fÃ¤ llen
Ġ9 5
Ġanzu schauen
gesch ritten
Ġerf uhr
Ġstatt finden
ĠFlug hafen
ĠBeweg ungs
ĠBeh Ã¶r
ĠPo cken
ĠInst itute
ĠKÃ¼ sten
rop fen
Ġbew Ã¤ltigen
ĠAben dessen
ĠVortrag s
Ġtoll es
Ġverh ei
Ġreg ion
Ġet hn
press iv
