#version: 0.2
Ġ t
Ġt h
Ġ a
i n
Ġ w
Ġth e
r e
Ġ o
Ġ s
a t
e r
n d
o u
Ġ c
i s
i t
Ġ b
in g
Ġ m
e n
Ġ h
o n
Ġt o
Ġ p
Ġ f
a n
e s
Ġ d
Ġo f
o r
l l
Ġ in
Ġa nd
e d
Ġ l
a r
Ġ y
Ġth at
o m
Ġ g
a s
i c
l e
Ġy ou
v e
Ġ I
a l
Ġw e
Ġ n
Ġw h
o w
Ġ is
Ġ e
u s
Ġb e
u t
Ġ it
i on
o t
' s
e t
Ġ re
Ġh a
en t
c t
Ġo n
l d
v er
T h
a y
i d
A nd
s e
a ll
Ġth is
i m
s t
r o
i g
u r
e re
l y
Ġs t
c h
k e
c e
Ġf or
i f
Ġw as
r a
Ġa n
i r
Ġd o
Ġa re
o o
it h
all y
o p
t h
a m
Ġha ve
Ġw ith
Ġa b
Ġthe y
Ġ u
Ġs e
Ġ k
Ġc an
Ġ -
Ġ- -
Ġa s
Ġm o
at ion
ou t
h t
Ġl i
Ġs o
Ġg o
S o
Ġwh at
a d
Ġc om
Ġw or
' t
Ġh e
ver y
ou ld
i ll
Ġa t
Ġm e
Ġab out
Ġs h
Ġn e
an t
Ġn ot
t er
g e
i l
Th e
u l
o l
Ġa ll
us t
Ġ j
Ġf r
Ġe x
er s
us e
ig ht
Ġp ro
Ġs om
Ġc h
Ġ r
Ġo r
Ġd e
Ġthe re
Ġm y
W e
Ġp e
' re
e ar
u m
ar t
op le
p p
c k
Ġc on
es s
Ġli ke
at e
u re
Ġon e
i es
Ġpe ople
Ġ "
c a
i ve
it y
Ġm a
es t
Ġfr om
n t
Ġk n
e ct
is t
b le
in d
q u
Ġb ut
Ġo ur
in k
Ġo ut
Ġa l
Ġ us
I t
Ġin t
Ġkn ow
Ġt e
Ġj ust
oo k
r ou
u n
Ġ v
Ġth ing
a nd
ca use
Ġs p
id e
Ġthe m
B ut
Ġse e
Ġ A
i e
Ġthe se
Ġ very
o s
or t
Ġt r
Ġ if
Ġth ink
Ġu p
h er
Ġwh o
Ġg et
Ġp l
ic h
Ġgo ing
Ġb y
c i
Ġ S
e l
a in
Ġa ct
Ġsom e
on e
Ġwh en
i v
Ġ 1
Ġbe cause
Ġyou r
Ġha d
Ġmo re
W h
Ġy ear
e m
o g
Ġs a
ou r
Ġ im
Ġ C
Ġt im
Ġw ould
Ġwe re
in e
0 0
Ġwh ich
Ġl ook
o d
Ġthe ir
am e
Ġw ant
as t
Ġre ally
m ent
Ġh ow
Ġcom p
u ally
a p
. "
Ġs u
Ġwor k
ar d
oo d
i z
ou s
a ct
' ve
a ck
g h
Ġ en
re at
Ġ M
Ġw ay
Y ou
h ing
Ġt a
o se
Ġl e
Ġh ere
' m
o re
Ġwor ld
Th is
a re
Ġtim e
Ġh as
an s
th er
Ġthe n
a b
a g
Ġp er
on g
Ġ qu
Ġe very
Ġd on
Ġint o
Ġex p
Ġact ually
a ce
Ġs ay
Ġw ill
Ġc ould
Ġm an
Ġf e
re s
Ġe v
ion s
i ld
u d
Ġc o
en ce
it t
Ġthing s
Ġwh ere
a ge
Ġyear s
Ġn ow
Ġ B
Ġa g
Ġo ther
Ġd id
al k
N ow
Ġsom et
f f
if f
The y
a ch
nd er
ic al
Ġan y
Ġbe en
Ġn o
Ġma ke
Ġha pp
Ġd iff
Ġc l
ic e
Ġt w
i p
Ġth an
s o
Ġu n
Ġne ed
re d
Ġsa id
Ġ E
Ġ G
Ġst art
Ġp r
Ġp art
Ġr ight
ir st
Ġo ver
ow n
re e
Ġb u
Ġim p
r y
Ġ 2
Ġsomet hing
ig n
i a
Ġp o
om e
Ġd is
or y
it e
Ġ â
Ġb ack
u ch
p t
Ġtw o
or m
Ġ H
rou nd
ou nt
Ġm uch
ol og
Ġg ot
Ġ P
Ġa r
Ġk ind
i b
Ġc all
en s
Ġth ose
Ġ T
as s
if e
Ġf irst
Ġdiff ere
Ġ N
an g
itt le
at er
ou nd
Ġ D
Ġl ittle
se l
Ġal so
c ent
u e
Ġ ro
Ġne w
Ġl ot
e p
Ġl o
Th at
Ġsp e
c es
g ht
p le
Ġcon t
ul t
w ay
Ġâ Ļ
Ġa c
v es
Ġt alk
b er
Ġmo st
Ġbe t
k ing
Ġp h
Ġd es
Ġsh e
v ing
ve l
ra in
od y
Ġon ly
Ġre s
I n
Ġu nder
r u
at ed
a ble
Wh at
Ġl ife
ation s
c o
e ll
Ġh is
Ġs y
Ġa d
Ġd ay
Ġev en
Ġ L
Ġh um
Ġa m
Ġdiffere nt
is h
Ġta ke
m s
Ġman y
ic k
ic t
i al
Ġg ood
Ġ R
rou gh
ot her
Th ere
ĠâĻ «
d u
Ġdo es
Ġb l
in t
Ġre al
Ġd own
Ġa round
an ce
Ġ ide
Ġh er
an k
i re
Ġth rough
o b
p h
as e
Ġp ut
ent s
p l
' ll
Ġcom m
p e
ur n
ar k
Ġp re
Ġsh ow
Ġ use
an ge
c ess
Ġbe ing
Ġte ll
f orm
Ġof f
i ble
Ġ F
res s
ad e
or s
a k
Ġs ame
Ġhapp en
We ll
Ġth ou
Ġpro ble
Ġto o
et her
Ġtr y
Ġ W
Ġf l
ch n
ar y
p er
at h
Ġf act
Ġin c
j ect
y s
Ġe m
w n
Ġcom e
x t
Ġs m
i ver
Ġb r
st em
Ġc ount
f ul
d ay
ter n
Ġdo ing
ar s
or d
u al
n ing
Ġ J
Ġ ra
Ġ O
Ġm ay
Ġg reat
Ġf ind
oo l
r ic
Ġte chn
Ġth ree
Ġ U
Ġb ig
on s
ic ally
n e
r ow
t ing
Ġg en
Ġw r
Ġhum an
i le
a c
v ed
Ġp ers
Ġbe c
Ġs ur
Ġper cent
olog y
Ġwe ll
i ed
ow er
Ġsy stem
H e
Ġt ra
f ore
Ġde c
Ġbu ild
th ing
f ter
nd s
Ġst ud
ill ion
Ġcall ed
I f
u b
sel f
t e
Ġg u
' d
Ġl et
Ġa pp
ig h
Ġs im
Ġag ain
b ody
Ġch ild
ic s
w e
Ġqu est
it ion
ci al
i ous
Ġm ade
Ġin v
at ing
Ġin d
Ġl ong
Ġexp er
Ġo wn
Ġimp ort
os s
Ġbe l
m er
it ies
Ġre m
o c
Ġsh ould
Ġl ear
iz e
i an
ĠC h
re n
Ġwh y
Ġw om
l es
Ġs c
ere st
t y
Ġunder st
Ġt urn
e w
at es
a v
f t
Ġo b
Ġdes ign
Ġch ange
Ġhe l
00 0
Ġme an
Ġc our
Ġto day
Ġb rain
Ġe nd
ct ion
Ġimport ant
Ġa fter
Ġdid n
Ġthou ght
b e
Ġfe el
Ġide a
Ġas k
Th ank
c on
Ġb as
Ġpers on
Ġl ast
Ġpl ay
Ġc reat
Ġre l
Ġc ar
al s
Ġ And
? "
Ġint erest
Ġstart ed
Ġin st
Ġit s
a il
Ġg l
ĠI t
h e
Ġex am
u ll
Ġh im
Ġs ch
o ld
Ġs ci
ou gh
Ġtr ans
Ġw ent
is e
Ġbe fore
Ġunderst and
Ġcour se
Ġin s
g an
Ġm ight
ut ion
Ġhel p
Ġg ive
Ġb it
es e
Ġbet ter
il ity
Ġcon s
ist s
Ġ K
Ġg ra
o st
Ġan other
Ġpo int
Ġproble m
Ġ 3
ul ar
Ġne ver
Ġpro du
a ve
i ly
l ic
Ġ ke
Ġst ory
Ġbel ie
v en
Ġe le
Ġco ll
Ġab le
ro s
Ġin ter
Ġfe w
er t
u nd
k es
Ġb o
Ġf ound
Ġst ill
Ġs l
i x
Ġs ort
Ġag o
Ġk id
Ġ ent
Ġp ower
Ġp ol
Ġto g
Ġtog ether
Ġne xt
Ġpl an
Ġn um
ot h
er g
Ġf am
Ġd r
Ġpl ace
Ġc ame
Ġw ater
vel op
Ġso l
Ġsch ool
Ġm on
Ġmo d
u c
al th
en se
Ġcomm un
it ed
Ġ1 9
at ch
Ġh igh
Ġcomp le
we en
Ġc r
Ġim ag
Wh en
Ġt er
w ard
i ence
Ġst r
n g
at her
re ad
Ġlear n
B e
Ġus ed
Ġe ach
Ġbet ween
Ġar t
Ġp at
Ġd at
Ġl a
Ġtechn ology
iz ed
n ess
Ġquest ion
Ġre c
mer ic
Ġ1 0
Ġde velop
Ġ2 0
, "
ĠS t
is s
Ġex t
ure s
Ġsm all
Ġat t
Ġlo ve
ĠA f
Ġf our
Ġc re
or k
Ġlook ing
Ġexam ple
Ġm et
if ic
Ġm ed
Ġs er
ar ch
way s
ra m
Ġo p
Ġd one
co nd
a z
in ess
Ġo ld
et s
Ġpart ic
Ġdat a
ut e
ab ly
Ġdoes n
Ġl ight
Ġm in
Ġwom en
Ġf in
ĠA meric
ere d
c ed
Ġc ell
Ġg row
Ġc are
Ġm om
Ġe ff
Ġwor d
ce pt
Ġc ent
ing s
at ive
Ġwant ed
Ġcomp ut
c y
Ġbe h
Ġst u
con om
Ġh ard
Ġre ad
Ġmo ve
a h
Ġf ar
Ġwho le
Ġp oss
Ġl ar
Ġre as
Ġli ve
and s
Ġ Y
form ation
g er
Ġtry ing
Ġn at
Ġe ver
Ġm illion
Ġe ar
ros s
Ġ ed
Ġb i
ĠI n
Ġwork ing
Ġch ang
ot e
sel ves
Ġa way
Ġg iv
Ġal ways
op e
Ġe l
ation al
Be cause
ir d
Ġe conom
one y
Ġchild ren
Ġexp l
Ġl ess
Ġbelie ve
c er
Ġb us
Ġ So
w h
ur al
Ġ We
Ġgen er
. .
g in
is m
Ġre p
ment s
Ġc ap
Ġs k
5 0
Ġb ook
Ġhe alth
Ġcount ry
Ġan im
H ow
Ġres p
Ġsu pp
ĠAf ric
Ġp ict
Ġf o
Ġc or
Ġm us
on t
Ġfr ie
r ies
Ġsu b
Ġr un
ru ct
n ect
Ġus ing
ra ct
Ġsp ace
Ġop en
Ġpro ject
h ip
Ġha nd
Ġme ans
o ck
Ġf ive
Ġpro b
at ter
Ġthink ing
l ed
Ġtoo k
p s
Ġkid s
ver s
Ġcre ate
n ce
Ġin formation
Ġmay be
Ġv is
a ces
Ġin f
Ġ 4
Ġm oney
al f
Ġevery thing
Ġc ou
Ġdo ll
Ġnum ber
Ġp ub
a ir
Ġle ad
Ġh ome
ver n
Ġspe c
g g
Ġbec ome
Ġm ind
Ġse cond
o y
ir on
Ġre g
Ġpro cess
Ġcomp an
Ġor gan
it s
k s
Ġ You
Ġs ing
r ib
Ġle ft
id ent
o nd
Ġte ach
ie w
t en
u es
erg y
Ġf ood
ent ion
Ġen ough
ĠU n
Ġw alk
Ġqu ite
e ver
Ġac c
Ġb est
Ġget ting
a ut
iver s
Ġf ut
s w
Ġfor m
Ġhe ad
Ġinterest ing
Ġpro g
Ġen g
Th ese
Ġcom es
Ġf un
Ġw ar
or ies
Ġ V
p r
Ġs ense
ou se
it al
Ġp res
it ing
Ġprob ably
Ġso cial
Ġde m
Ġm ark
Ġfut ure
Ġen ergy
Ġgo vern
Ġc a
Ġhappen ed
Ġan sw
Ġcon f
Ġtim es
Ġs et
in es
Ġc le
ĠI nd
Ġele ct
ert ain
t s
Ġg rou
Ġmon th
et y
i er
Ġtalk ing
Ġma king
Ġad d
Ġbe gin
Ġstu ff
t ty
Ġcont ro
Ġro om
Ġbuild ing
Ġcon nect
Ġc ur
Ġmom ent
Ġp ass
i ent
Ġb ody
Ġp op
Ġgl ob
Ġen v
Ġph ys
Ġs ign
Ġwith out
Ġto ld
Ġd ist
ate ly
re en
Ġg r
Ġh alf
Ġs ide
Ġpre tty
Ġel se
Ġcount ries
a ke
n er
Ġwe e
Ġbe aut
Ġdoll ars
Ġp ie
Ġli ves
Ġcom ing
Ġreas on
Ġbus iness
og ra
Ġke ep
im es
Ġany thing
Ġmod el
Ġh ist
Ġso ci
Ġsu ch
O ne
Ġj ob
i or
Ġb ad
Ġw o
l f
Ġto p
ic es
Ġo pp
Wh y
g s
m e
Ġall ow
Ġde f
Ġac ross
M y
em ber
ort un
Ġenv iron
d er
Ġst op
Ġm en
Ġs ound
ur ing
Ġe as
Ġsay s
Ġ The
Ġma kes
H ere
Ġyou ng
Ġbr ing
Ġst and
e ad
Ġh ope
Ġa ir
Ġsci ence
Ġse en
ol ution
Ġsa w
Ġm atter
Ġli ving
id d
in ce
Ġt y
Ġl ater
Ġpr ot
m ost
Ġf ig
Ġask ed
Ġv al
Ġexper ience
Ġed uc
ĠAfric a
Ġgo es
Ġsim ple
Ġ2 00
Ġpartic ular
id ed
Ġh our
i o
Ġre se
wh ere
k ay
y ing
Ġe y
Ġhapp ens
Ġc ult
al ity
Ġs it
m an
Ġha ving
Ġwo nder
ll ow
ĠCh in
Ġsci ent
Ġc am
Ġph ot
Ġpict ure
as h
im e
il t
ap s
Ġway s
ang u
k en
u ght
S he
Ġa ut
iz ation
ot t
Ġcomple te
Ġc ol
Ġme m
Ġfam ily
Ġth ous
Ġd et
ot s
Ġeff ect
F or
Ġl ist
Ġs ix
ar th
Ġch ar
Ġproble ms
Ġre f
Ġpro f
Ġb re
Ġsh are
Ġle vel
ĠN ew
Ġday s
Ġcomput er
re am
Ġrese arch
Ġsing le
it er
Ġre st
Ġe qu
Ġglob al
Ġenviron ment
Ġplan et
Ġc ase
ar r
ir l
L et
Ġc ity
ogra ph
Ġl angu
A s
are nt
Ġf ore
Ġma ch
Ġbas ically
Ġt est
Ġlo c
E D
i ke
in s
or n
Ġins ide
Ġmus ic
read y
Ġpol it
Ġc ertain
Ġm or
ul ation
Ġal most
Ġposs ible
Ġpub lic
Ġs ure
l ess
Ġy et
Ġsay ing
o v
Ġb oth
Ġam az
Ġansw er
Ġw atch
Ġv ide
Ġon ce
Ġgu y
m ed
Ġhe ar
Ġwh ile
it ive
all en
ĠE arth
u ge
Ġwh ether
un ch
Ġro b
Ġp ain
ant s
os ed
Ġdis co
Ġa ge
Ġal ready
Ġnot hing
Ġcont in
e e
Ġsu c
ur y
Ġb illion
Ġinc red
Ġwr ong
l ish
iv id
Ġlook ed
Ġse lf
Ġide as
Ġdis e
iver se
Ġsome one
Ġex act
Ġwith in
o ice
Ġex c
â Ģ
Ġt reat
Ġrem ember
Ġcommun ity
Ġlook s
Ġprodu ct
Ġas s
Ġcontro l
Ġu nt
Ġhist ory
ie ld
Ġs w
Ġhe art
Ġmy self
if ul
Ġp ar
as es
w are
Ġlar ge
Ġcell s
Ġof ten
s ide
Ġtr ue
Ġco st
Ġamaz ing
und red
Ġde v
Ġhe ard
Ġm il
Ġl ab
Ġis s
ut es
Ġd ire
im ate
p ect
ĠIn tern
Ġk ill
Ġch allen
Ġco nd
Ġword s
u ro
ag es
Ġfig ure
w ork
Ġimag ine
Ġw a
d e
i ans
ater ial
as ter
Ġma g
âĢ Ļ
v ious
en e
Ġwork s
iv ity
Ġch e
c le
Ġad v
Ġbu ilt
ĠUn ited
Ġn ight
Ġh undred
Ġmonth s
l ing
Ġnew s
l and
Ġcou ple
er ing
Ġcl ass
Ġor der
Ġent ire
Ġbeaut iful
u ck
e x
Ġa ff
Ġind ivid
Ġfrie nds
Ġcan cer
idd le
b ers
Ġf ull
Ġf ace
ĠT ED
Ġgovern ment
Ġ1 00
b s
Ġres ult
Ġp ay
Ġ3 0
ap er
Ġmark et
Ġgrou p
Ġlangu age
Ġm ust
Ġinc re
Ġg irl
iv es
Ġt re
Ġf il
Ġpie ce
l ine
Ġn et
g et
t o
Ġ 6
Ġfo llow
Ġst ate
Ġspec ies
Ġpl aces
Ġ 50
Ġis n
Ġde ep
A ll
u p
Ġm aterial
Ġse c
Ġfr ont
Ġindivid ual
Ġv ir
Ġv iew
Ġevery body
Ġwas n
Ġvide o
Ġunt il
ust r
at ic
Ġapp ro
Ġcon st
i red
at or
us h
Ġdec ided
Ġp ast
n y
Ġd ra
Ġeduc ation
Ġcomplete ly
ĠIntern et
Ġl ine
e ah
Ġqu ick
Ġbeh av
r on
Ġun iverse
Ġin n
Ġd i
Ġt rain
N o
Ġc ra
ou th
om es
ĠI s
Ġre t
Ġstud y
an e
Ġob ject
Ġst ories
Ġter r
Ġnat ure
Ġexact ly
c ing
in ed
Ġbec ame
ĠSt ates
Ġde al
Ġthou gh
ent al
Ġf ree
b r
Ġ '
Ġn ame
Ġab s
Ġs ca
Ġta king
Ġhappen ing
Ġstud ents
Ġanim als
Ġto ol
Ġ 9
Ġm ess
Ġh uge
Ġf und
e nd
Ġp os
Ġl and
Ġkn ew
Ġkind s
Ġ They
Ġit self
Ġexper im
act er
Ġo ce
Ġcoll ect
Ġla w
ter s
Ġsome body
Ġst ruct
i en
Ġour selves
Ġwom an
Ġlearn ed
Ġeng ine
at s
is ion
g est
Ġs ince
i ents
og n
Ġsoci ety
Ġh ouse
Ġr is
Ġsuc cess
Ġ [
ion al
d d
Ġcl ose
Ġmin utes
et ic
Ġget s
re t
Ġd ru
h aps
om et
ro p
Ġspe nd
Ġcomple x
Ġcompan y
s y
Ġquest ions
c c
Ġthem selves
Ġ z
ic ult
Ġal ong
Ġturn s
Ġm ass
itt ing
Ġa v
ab ility
Ġagain st
oc us
c l
Ġme et
Ġrel ations
th ers
Ġm ic
ĠInd ia
Ġhour s
Ġg ame
ĠAmeric a
Ġopp ortun
ct or
Ġon es
Ġpro v
Ġr ather
Th en
Ġcreat ed
Ġb ott
Ġf ly
ib ly
Ġ This
ur s
i um
Ġ Thank
.. .
Ġcle ar
f ace
at ure
Ġp arent
a w
Ġle ast
ĠH e
Ġ 7
Ġ That
Ġth ird
Ġf ocus
Ġexp ect
Ġcould n
Ġinv est
Ġ 8
Ġw on
Ġw ind
am es
Ġme as
Ġgu ys
on es
Ġwork ed
at t
Ġsomet imes
Ġp red
Ġdiff icult
e g
ivers ity
ĠG od
m ing
Ġm other
Ġo thers
Ġ1 5
Ġar ch
Ġthous ands
Ġv ar
Ġdise ase
Ġl iter
Ġear ly
Ġg ave
Ġprog ram
Ġ ill
Ġh old
Ġhapp y
Ġspe ak
c ul
ist ic
pl es
Ġam ount
Ġsystem s
Ġn orm
ol ved
ward s
Ġlot s
Ġa ud
n ot
ill ions
Ġ ve
Ġevery one
Ġinn ov
Ġinst ead
a pp
Ġm ath
Ġf ield
Ġte am
Ġb ab
Ġs ens
er v
a le
ent ed
Ġbehav ior
ith er
Ġex ist
id er
Ġra d
Ġ 5
Ġnat ural
Ġprot ect
Ġlist en
i qu
o ve
in ation
Ġm ot
Ġta ken
ĠE uro
olog ical
ĠAmeric an
a king
Ġo il
Ġout side
f ect
i ally
Ġinter act
Ġrelations hip
Ġm iss
Ġc ir
are d
Ġdiffere nce
Ġc ut
Ġsh ap
Ġ What
Ġan t
t ed
Ġbl ack
Ġrec ord
E very
ĠB r
Ġlear ning
Ġh y
Ġre v
Ġre cent
D o
Ġle g
Ġchang ed
Ġmach ine
Ġo per
Ġf ail
ve red
Ġext ra
ĠY ork
g en
Ġse ven
Ġde ath
us s
ent ial
Ġare a
ĠChin a
Ġb ro
Ġcent ury
Ġst ep
S ome
Ġm iddle
Ġse x
Ġg reen
ull y
Ġbegin ning
Ġpat tern
Ġp ot
Ġre d
sy ch
id es
i ol
Ġnet work
ĠE ng
Ġcomm on
ĠEuro pe
Ġ ...
as ed
Ġst re
Ġper haps
Ġmo ving
Ġgiv en
Ġeas y
Ġey es
O r
Ġyour self
ut ions
Ġha nds
Ġsh ort
Ġd a
Ġle ave
N A
or th
Ġde l
ver age
Ġâ Ģ
Ġturn ed
Ġn on
Ġde p
Ġter ms
Ġsy m
Ġl ow
Ġf ish
Ġinc l
Ġexpl ain
Ġpop ulation
Ġ es
er a
er y
Ġta kes
Ġcult ure
Ġc ities
it ions
ol ute
Ġs ent
Ġneed s
um p
Ġty p
Ġo cc
Ġob vious
Ġsupp ort
Ġ1 2
Ġl im
Ġj our
el s
el t
pt ion
Ġcoll e
Ġwonder ful
Ġch em
Ġsee ing
ud e
Ġfin ally
Ġd ig
ĠA r
ĠâĻ ª
Ġbeh ind
in ary
Ġp aper
Ġint ell
ast ic
j or
p ly
Ġ ident
er n
ar ing
iv ing
i pp
Ġbe gan
Ġp sych
Ġimp ro
Ġcommun ic
Ġbre ak
Ġcan not
Ġj o
Ġp ract
Ġper form
Ġpart s
Ġfrie nd
id ence
Ġloc al
re w
Ġsa f
Ġtra d
Ġoce an
it ch
Ġe ight
Ġs qu
Ġre ach
y ear
Ġto t
Ġd uring
Ġim age
g es
Ġbl ue
Ġlong er
ĠâĢ Ķ
Ġp ick
Ġsu per
Ġper fect
Ġsim ply
r an
Ġs un
Ġte m
Ġcompan ies
e ople
Ġreal ized
Ġext re
Ġar g
Ġpower ful
Ġf all
it ect
Ġf re
Ġma jor
Ġev ent
f ully
Ġneed ed
Ġac cess
Ġst ay
ci ous
our ce
Ġw all
Ġd ream
ĠA l
Ġd ark
p ort
Ġ But
Ġwhat ever
Ġ ess
Ġwee k
Ġs ize
Ġcons um
Ġ1 8
Ġeconom ic
Ġspe cial
Ġfam il
Ġser v
Ġrep res
a x
Ġtr ied
Ġabs olute
Ġparent s
er o
our ces
Ġem ot
t on
ro du
Ġpo or
Ġsur v
Ġsur pr
Ġinterest ed
Ġperson al
Ġ4 0
on y
Ġmed ia
Ġpres ent
Ġgra nd
Ġf elt
Ġreal ity
Ġfe ed
g le
is ing
Ġe at
o h
Ġpr iv
Ġbu y
Ġp le
led ge
Ġsit u
Ġv iol
Ġem b
O n
is on
Ġg round
rou ght
Ġquick ly
Ġp ress
is ed
Ġg one
il ar
Ġrec ogn
Ġsca le
ib ility
c rib
ard s
Ġstr ong
Ġarch itect
b o
h ood
in al
re nt
Ġf ather
Ġy es
Ġrob ot
Ġgrow th
s h
Ġg e
av or
Ġab ility
Ġcon v
Ġsp ent
Ġke y
Ġre qu
Ġval ue
Ġappro ach
Ġc al
op h
Ġhum ans
Ġwee ks
g ed
iv ed
Ġfe et
Ġshow s
ne y
os p
Ġc ool
Ġdem oc
Ġs itting
Ġen c
Ġanim al
ill s
Ġopportun ity
at ors
ro om
Ġknow n
ĠD NA
A t
Ġpolit ical
or ld
Ġ vers
Ġne ar
Ġdis c
Ġtra vel
Ġm ult
Ġe ither
um ent
Ġph one
Ġdire ct
e v
Ġc iv
iz ing
Ġs um
Ġf ight
Ġeconom y
Ġpred ict
N ot
l er
ur b
Ġlo st
Ġsur face
u nt
Ġd est
Ġor ig
Ġmeas ure
O h
Ġf ear
if t
Ġare as
Ġob s
am p
olog ies
Ġwr ite
Ġdra w
ain s
Ġmor ning
u le
Ġsl ow
Ġresp ons
Ġincred ible
Ġstruct ure
ĠB e
Ġpo st
Ġlead ers
Ġmic ro
Ġbott om
o ll
ĠS h
ou ch
ut h
r om
le ct
Ġextre me
ĠO K
Ġpat ients
Ġatt ention
r al
Ġh ar
us es
Ġbl ood
Ġphot ograph
Ġbas ed
e ed
Ġa p
Ġp ull
Ġso ft
Ġwould n
ress ion
in y
Ġn ice
Ġchang es
Ġfo ot
Ġin tern
ci ally
P eople
ive ly
b or
z y
Ġa verage
Ġf ast
Ġnum bers
Ġchallen ge
I s
Ġev olution
Ġreal ize
h or
al es
Ġmo le
Ġc y
od e
Ġimp act
Ġprof ess
Ġp ur
Ġse nd
ust ain
dd en
Ġm ar
ent ially
Ġbo x
Ġw in
Ġsu dden
o f
Ġb rought
Ġst e
Ġind ust
ate g
ĠS e
l t
O kay
ang er
Ġphys ical
Ġcr it
Ġfeel ing
er m
Ġse a
Ġmean ing
Ġb orn
Ġdevelop ed
c om
Ġrel ig
Ġris k
Ġre du
Ġcom b
Ġb ene
Ġan al
ow s
Ġro ck
Ġd ie
Ġins p
Ġgrow ing
o le
ac y
Ġexperim ent
en g
Ġknow ledge
T o
b on
Ġsee ms
Ġfor ward
Ġmo v
Ġwr ote
Ġbook s
e y
l u
Ġrun ning
Ġgiv ing
Ġliter ally
Ġthe ory
Ġo pt
Ġfor ce
Ġtechn ologies
Ġinst it
A n
g ing
Ġde g
Ġf ac
Ġma in
Ġcir c
C h
e xt
Ġre le
if ied
Ġfund am
ĠCh r
Ġfil m
an ces
Ġwh ite
Ġst ra
Ġv ol
Ġsp read
v ent
ore d
Ġcl imate
le ep
n ed
Ġa st
Ġh or
Ġre pl
ch ie
Ġma p
Ġunderstand ing
Ġmed ic
Ġscient ists
ĠEng lish
Ġsim ilar
Ġelect ric
Ġhundred s
c r
Ġf avor
Ġne igh
Ġstart ing
Ġmil es
o on
Ġde pe
Ġany one
C A
p ar
Ġwor th
ag ed
Ġpr in
u g
Ġv ill
Ġ There
Ġser ious
Ġgiv es
gg est
Ġcol or
Ġciv il
ch an
Ġimag es
Ġaud ience
Ġb all
Ġm illions
ĠW orld
Ġcur rent
O ur
om en
Ġal one
Ġte le
Ġsu ggest
Ġtell ing
Ġtool s
Ġh ot
Ġso on
Ġthan k
Ġcomp et
Ġgu ess
p or
ass ion
Ġdes crib
ad es
Ġtrad ition
Ġ ice
ic y
Ġs il
Ġpr om
pl oy
Ġnorm al
Ġpro per
Ġte xt
Ġfl o
Ġ Th
Ġc ars
Ġh osp
Ġp ath
ra cy
il ities
Ġde ad
Ġiss ue
Ġav ail
i et
Ġsh o
ens ive
Ġr ul
Ġcent er
Wh ere
Ġincl ud
it es
ĠA s
i ant
Ġplay ing
Ġcreat ing
Ġdevelop ment
Ġdisco vered
b it
Ġs ustain
Ġl if
Ġsee m
Ġam ong
Ġty pe
Ġaff ect
Ġshow ed
Ġst at
Ġst age
Ġsu ff
he ad
Ġmove ment
Ġcon cept
a i
Ġare n
Ġro ad
Ġmod ern
p ed
am ed
Ġvis ual
Ġabsolute ly
Ġ est
Ġt ouch
J ust
Ġse ll
pe cially
Ġrecent ly
Ġ er
Ġs n
Ġc op
as ing
im ens
b y
ou d
Ġpo ll
i od
Ġdevelop ing
Ġcam p
Ġindust ry
Ġintell ig
Ġon line
Ġtra ck
Ġh on
Ġar m
Ġtalk ed
Ġ Well
Ġa chie
Ġf u
ur ity
oo se
Ġch ance
iqu e
Ġpro p
Ġtr uth
ĠS outh
Ġres ources
Ġincred ibly
Ġs ong
Ġcon vers
Ġiss ues
l ike
Ġre act
Ġas king
Ġar r
Ġtrans form
Ġpat ient
Ġreas ons
Ġsub ject
ere nce
Ġv oice
ish ed
Ġexper ien
Ġmath em
Ġshap e
Ġf ur
le ar
Ġbene f
Ġl ay
Ġprodu ce
Ġinnov ation
Ġ Z
Ġknow s
iv al
Ġavail able
ph ere
Ġb ra
as c
Ġr ate
Ġper iod
Ġsol ution
Ġso ld
Ġme chan
ap t
Ġinv olved
Ġf ire
Ġha ven
un g
Ġev idence
ĠN o
Ġatt ack
Ġsa ve
ĠH ow
Ġsitu ation
S t
Ġ2 5
Ġt iny
en cy
Ġch oice
ab or
ict ion
Ġdesign ed
Ġey e
Ġfl u
Ġfl ow
Ġsol ve
Ġpict ures
Ġne ur
is ter
Ġd in
y ond
Ġbec omes
Ġes pecially
en ces
Ġd ou
Ġcomp assion
Ġchang ing
if y
Ġse arch
Ġmess age
Ġbig ger
Ġbab y
Ġ19 9
Ġcomput ers
ĠChin ese
i k
p an
ar ily
Ġex cept
Ġcl os
Ġcar bon
Ġstre et
Ġput ting
l ight
Ġu lt
Ġun f
Ġsm art
Ġs leep
Ġim m
Ġfun ction
Ġf air
Ġli ved
Ġem p
Ġem erg
Ġwr iting
Ġn uc
ist an
Ġgrou ps
C an
l ict
o ices
Ġb ird
Ġse ver
Ġtr ust
Ġmed ical
Ġlike ly
Ġgirl s
Ġb ed
Ġdr ive
p id
Ġta ble
Ġfore st
Ġs at
Ġc e
Ġd ied
st r
ĠC an
is hing
Ġbe yond
Ġgener al
Ġsoft ware
Ġ6 0
Ġb acter
Ġto wards
Ġd om
Ġn ine
ay be
Ġne cess
Ġle a
Ġsound s
oo gle
Ġsol ar
Ġrul es
Ġb ar
or ing
ct ors
um b
Ġte nd
Ġrep ort
ip s
Ġpr im
Ġgener ation
Ġa w
Ġm ount
Ġdef in
Ġdev ice
Ġsever al
p re
Ġ rain
Ġpe ace
ress ed
f ort
n am
us ion
Ġpl ant
ous ly
Ġdru gs
l o
Ġw ish
Ġd anger
Ġr ich
Ġb reat
Ġspe ed
Ġparticular ly
Ġrev olution
W ith
h ow
in a
Ġf a
Ġany body
Ġcons cious
om s
Ġcap ital
Ġdru g
Ġsaf e
us ed
un e
Ġqu ality
Ġsy n
Ġbl ock
B y
ou n
Ġe c
Ġmo ved
Wh o
Ġon to
ver t
Ġchar acter
med i
Ġextra ord
ie f
Ġact ion
Ġoff ice
b ook
g round
r ast
x y
Ġf em
Ġg ames
Ġre ce
Ġbas ic
Ġschool s
Ġpot ential
i res
v iew
Ġa f
Ġst ru
Ġne g
Ġl ink
Ġprin ci
Ġshow ing
ĠF r
Ġexam ples
c ome
Ġh it
id ge
pp ed
Ġwalk ing
Ġobvious ly
Ġcertain ly
i ar
u ly
Ġl og
ir th
Ġvis ion
Ġmaterial s
Ġjour ney
Ġp a
ĠA n
Ġfur ther
o ke
Ġscient ific
as k
th e
Ġtot ally
M an
n ers
Ġd iv
Ġcont ext
A l
h ere
Ġa ware
Ġe p
Ġwant s
ore s
Ġstart s
Ġproject s
Ġchem ical
m a
Ġn ational
Ġno body
Ġbig gest
Ġsc reen
Ġeff ic
Ġlar gest
Ġexc iting
on se
Ġg as
Ġg al
ig her
Ġextreme ly
ou ght
Ġf ix
ĠP h
Ġstud ent
te nd
Ġteach ers
p ut
ver ty
Ġdo or
Ġevery where
ĠG oogle
Ġacc ount
Ġfundam ental
Ġpartic ip
Ġresult s
u it
L ook
et er
Ġact iv
Ġad m
Ġfar m
Ġmem ory
Ġvir t
Ġdig ital
Ġo kay
Ġh igher
Ġme ant
ant ly
Ġdet ail
Ġrepres ent
Ġneigh bor
it iz
ci ent
Ġcam era
Ġs on
Ġnot ice
Ġcar ry
it ary
et h
Ġcomp lic
M aybe
Ġpos itive
Ġap art
O f
Ġ Now
Ġc ross
ic le
ap an
Ġro le
Ġsk in
om ing
Ġhapp iness
Ġthous and
Ġcontin ue
m ore
Ġtr ial
Ġsupp osed
Ġviol ence
Y es
f or
Ġl ed
itt en
Ġresp onse
Ġsec urity
Ġ8 0
oh n
Ġp u
Ġint rodu
Ġcle an
Ġjob s
Ġth reat
Ġmo b
Ġbo y
Ġconf lict
Ġb irth
Ġn amed
Ġsp ir
ĠN orth
Ġfavor ite
is ions
os phere
Ġpo verty
Ġche ck
Ġtre es
Ġevent ually
Ġdemoc racy
Ġdepe nd
re st
id s
Ġst ick
ĠD e
Ġad ult
Ġread y
Ġcap t
Ġconnect ed
Ġindividual s
Ġimpro ve
a ur
i ation
Ġf ill
an n
Ġse par
Ġv ac
ru ction
Ġcons ider
Ġcr is
Ġear l
ught er
Ġb unch
Ġd ro
Ġse qu
Ġgra ph
Ġterr or
m b
Ġt ar
Ġc itiz
ag n
oss ible
Ġtrans l
ĠBr it
Ġf ant
ul ate
Ġprog ress
Ġmodel s
Ġwatch ing
urb an
Ġact ivity
Ġmind s
me nd
Ġdisco ver
Ġess entially
I V
Ġf aster
im s
ig er
Ġtell s
ak es
ĠW est
ĠJ apan
Ġca use
Ġcra zy
A fter
Ġp en
id ing
ra d
Ġan n
Ġmag n
. ,
z e
Ġpl ants
od ies
Ġpers pect
Ġl ose
Ġg rew
Ġim medi
ĠC al
co nds
Ġret urn
j oy
er ve
Ġwe bs
Ġwor se
Ġcon cer
Ġcl in
Ġcommun ities
Ġass um
Ġcond itions
Ġsudden ly
Ġmov ie
Ġvill age
Ġmathem at
Ġm ine
Ġp ush
Ġsh own
Ġdis app
ound s
Ġac cept
ortun ately
i ers
Ġgo al
Ġ1 6
Ġbrain s
Ġcreat ive
Ġnuc lear
F irst
Ġs ource
le x
Ġbuild ings
Ġstr ateg
Ġmet h
Ġobject s
Ġgal ax
O K
Ġb om
ĠH IV
Ġapp ear
Ġind eed
Ġcoll abor
Ġhosp ital
Ġwas te
Ġch oose
Ġsort s
Ġla unch
Ġc art
Ġ1 1
Ġpub lish
Ġpass ion
Ġcolle ag
Ġl ate
Ġsome where
ip t
Ġfind ing
Ġrem ark
r ing
Ġs ite
ca pe
Ġimp ossible
Ġph en
Ġextraord inary
n ces
at ory
Ġm arr
Ġl ands
le t
Ġlar ger
Ġteach er
Ġlab or
in ct
Ġs and
Ġ20 1
ĠAfric an
Ġmedic ine
c ise
an a
Ġab ove
Ġmin ute
A ny
r or
es tern
Ġ1 4
Ġta ught
Ġkill ed
M ost
u ed
Ġfor ms
Ġdo ctor
Ġde b
Ġen joy
Ġsign ific
Ġallow ed
e ch
w o
Ġbl ind
oth ers
Ġdet ect
Ġproduct s
Ġsk y
Ġinf lu
Ġinclud ing
Ġcomplic ated
n al
Ġw ife
Ġm is
se ct
ra ge
Ġph il
Ġc at
iz ations
Ġend ed
Ġtem per
Ġf ine
Ġd am
st er
th ough
Ġhe av
ure d
Ġus ually
Ġc ases
ur t
am m
Ġallow s
Ġincre ase
Ġb al
Ġtr uly
Ġ1 7
Ġman age
Ġun ivers
Ġstud ies
iss ion
Ġpos ition
Ġdisc uss
Ġtradition al
Ġphen omen
Ġb ank
Ġb urn
Ġal ive
od ay
olog ists
Ġear th
Ġaff ord
Ġtrain ing
in ing
Ġm ist
Ġf ing
ra p
Ġexc ited
Ġfamil ies
! "
E ven
Ġw ild
Ġo xy
Ġp ack
ff ic
Ġbeing s
Ġpoint s
Ġmor al
Ġdec ision
Ġold er
Ġdist rib
Ġstand ing
Ġaut hor
Ġsuccess ful
Ġintern ational
I m
Ġf ram
ed om
Ġl uck
Ġst ars
use um
Ġpr ice
Ġpr ote
Ġcrit ical
Ġc ard
Ġm ention
Ġd y
ĠA m
Ġreg ion
Ġwa it
Ġsqu are
u gh
Ġth row
Ġdo c
Ġk il
Ġfin an
Ġpur p
p o
Ġb ur
Ġl ower
iv en
Ġcolle ge
Ġelectric ity
Ġbacter ia
g o
Ġt ree
Ġl ines
Wh ich
Ġpr ison
Ġread ing
Ġinf ect
Ġconvers ation
Ġcris is
D on
is ms
Ġup on
Ġsome how
Ġco ld
Ġser ies
Ġeng age
Ġpie ces
Ġachie ve
Ġperspect ive
in ated
re l
Ġc ook
Ġf asc
ĠI f
ĠA ll
Ġprov ide
Ġpattern s
Ġstra ight
r ation
ĠJ ohn
Ġpol icy
Ġhealth y
Ġresp ect
Ġspec ific
f act
l a
m en
Ġt rou
Ġc ode
Ġst ar
ĠW ar
Ġsmall er
ĠChr ist
Ġ ign
Ġ urban
re ct
Ġp an
Ġse conds
so ci
Ġke pt
Ġphys ics
Ġen orm
Ġqu ant
Ġright s
Ġwr itten
Ġocc ur
Ġh op
Ġf ra
Ġpr int
ĠP r
ĠT V
Ġbi ology
Ġrecogn ize
Ġneur ons
â Ļ
Ġto wn
ag ine
Ġany where
Ġcont ent
Ġsl ight
Ġorgan ization
Ġtreat ment
Ġp age
ent ly
ra b
Ġhim self
Ġter m
Ġrob ots
Ġvers ion
Ġs ou
Ġs we
im b
am a
Ġact ual
Ġro ll
Ġmil itary
Ġcal cul
p ing
Ġs al
Ġwe ight
ay s
Ġdo ctors
Ġany more
ub e
Ġincre asing
c ies
ic ed
op s
ĠE ast
Ġbo ard
Ġ19 8
Ġple ase
Ġmole c
d om
Ġdo g
ustr ial
Ġserv ice
Ġarchitect ure
ĠG e
ep end
Ġeff ort
m et
Ġb odies
Ġgen es
Ġresp ond
Ġadd ress
er man
Ġwh e
um ents
Ġtr ick
ĠM an
Ġcont rib
Ġem ploy
ĠIs l
Ġve h
T oday
il ing
ag ing
Ġtrans port
b ol
b ack
z z
Ġp ort
Ġwe b
ul f
Ġstr ange
Ġmag ic
Ġearl ier
Ġle gs
Ġgreat er
Ġbec oming
Ġmach ines
Ġpain ting
Ġpriv ate
r ied
Th ose
Ġlo ved
Ġem ail
Ġdec isions
Ġpol ice
ĠAf gh
Ġsk ills
t ime
Ġc atch
Ġy eah
Ġe th
ther n
Ġwill ing
Ġdes p
Ġrem ind
Ġclear ly
Ġlisten ing
it ation
ra ms
ol es
Ġ1 3
Ġwere n
Ġthrough out
Ġgl ass
le br
ers on
ĠS w
Ġexp ensive
ĠP ro
Ġla ugh
Ġfamil iar
o es
Ġs am
ar ies
Ġcom fort
Ġsh ot
Ġj ump
Ġfam ous
it ude
Ġm ental
Ġwor ry
Ġthere fore
Ġsp ect
Ġun ique
Ġ2 1
ĠL e
ac ity
Ġdr ink
Ġsol utions
ĠY eah
b b
ĠC ar
ĠB ra
Ġcl oud
ĠAmeric ans
Ġcost s
in ating
Ġst ore
Ġex h
Ġal g
Ġprodu ction
Ġexpl ore
Ġsoci et
Ġ9 0
Ġstru gg
al y
se qu
Ġfor th
Ġdet erm
Ġlevel s
Ġwebs ite
Ġth r
en n
Ġp ark
ce ed
Ġr id
Ġgen etic
Ġwa iting
Ġpract ice
Ġfant astic
er al
ain ed
Ġco ver
Ġdanger ous
ĠAfgh an
k y
m ic
Ġt ap
it i
Ġr ange
Ġsur ger
Ġaut om
Ġfre edom
Ġintellig ence
e c
f er
ies t
el ess
ab les
Ġgreat est
Ġfin al
Ġdire ction
Ġperform ance
y stem
at ives
Ġsa ving
ĠR ight
Ġbeaut y
Ġce lebr
S omet
Ġwe ap
im ately
Ġr ise
Ġpre p
Ġra nd
Ġwalk ed
Ġenvironment al
Ġz ero
R ight
or ry
ut ed
Ġsec ret
Ġinstit utions
Ġcitiz ens
is es
or row
Ġat m
os ing
ĠC ity
res h
Ġdec ade
Ġspir it
at ically
as hing
il s
ĠUn iversity
Ġval ues
Ġeffect ive
Ġvar i
An other
Ġfu el
Ġimmedi ately
Y eah
o id
re es
Ġc ry
Ġc row
ist ics
Ġdr iving
Ġmeet ing
y r
ot y
olog ist
Ġrand om
Ġl ad
Ġwe alth
Ġsh ark
ĠS p
Ġinv ented
Ġopt im
Ġflo or
Ġm atch
Ġr an
Ġpl astic
Ġcou n
ond on
Ġteach ing
Ġmass ive
Ġvar ious
Ġtyp es
Ġa head
it or
Ġdec ades
air s
Ġdem on
Ġlaw s
att le
Ġenc ou
Im agine
Ġinc ome
ĠO r
Ġserv ices
Ġmult ip
v ision
ch es
Ġj ud
ĠL ondon
Ġhuman ity
Ġinter view
Ġcare er
Ġgovern ments
Ġconnect ion
Ġneighbor hood
b all
p ro
il es
Ġgra du
rast ruct
âĻ «
ant ic
ĠM us
ĠG erman
Ġdec ide
Ġapp ly
Ġcond ition
i ot
Ġcon cl
Ġinst ance
Ġfollow ing
Ġbab ies
6 0
S A
en y
Ġin sect
Ġor d
Ġal though
Ġus es
ĠH ar
Ġuse ful
Ġsim pl
Ġinst r
Ġ i
Ġf it
ĠC ent
ric ult
Ġpop ular
Ġphys ic
Ġterr ible
Ġmeth od
Ġremark able
S e
Ġn ation
st it
ke y
Ġch oices
ĠA t
ĠW estern
Ġrel ative
Ġposs ibly
Ġinf rastruct
Ġelect ron
Ġenorm ous
e f
Ġsur ve
Ġstand ard
Ġhon est
a ign
Ġ X
Ġd ram
Ġfor get
ĠO kay
Ġsc r
Ġeffect s
Ġdemon str
w ise
Ġra ise
Ġpolit ics
Ġfly ing
Ġatm osphere
g ain
i ate
y l
Ġany way
Ġchallen ges
Ġbro ad
bo ard
Ġs us
Ġs ad
Ġc ust
Ġh ous
Ġha ir
Ġst ress
Ġas soci
Ġ2 4
Ġtra de
Ġopp os
Ġvir us
Ġfinan cial
Ġsociet ies
Ġy ell
Ġn ut
erv ation
an ced
if orn
Ġint eg
Ġv ict
Ġexp ress
Ġhelp ed
Ġsl ide
Ġdise ases
Ġengine ering
Ġmot iv
Ġdy nam
Ġslight ly
L ike
u ct
Ġt iss
re pre
Ġm amm
ar m
Ġal tern
Ġra ce
Ġunderst ood
Ġ19 7
Ġsupp ly
Ġ7 0
Ġsym bol
Ġpress ure
Ġsum mer
repre ne
n ow
r ay
Ġm ut
Ġwor st
ĠA ustr
itt ed
Ġspe ech
Ġsur round
Ġb an
ir ing
ĠS ch
ĠM ars
Ġcomm er
Ġsc an
Ġcap acity
Ġhy d
Ġmicro b
Ġpurp ose
w in
Ġb ase
Ġm al
Ġp ig
Ġd rop
ud d
ib er
Ġbel ow
Ġtele vision
Ġphil os
c les
Ġw ood
Ġart ist
Ġshare d
Ġsw itch
Ġsurv ive
Ġdirect ly
Ġdest ro
Ġfem ale
ĠCal iforn
Ġcolleag ues
Ġ Q
Ġ ir
Ġt ens
Ġwho se
ci ence
ĠC ong
Ġmost ly
Ġcult ural
Ġsw im
Ġ5 00
Ġpa id
Ġtemper ature
u fact
Ġr ule
Ġoff ic
Ġcent ral
Ġprog rams
Ġtre mend
an cy
ar ian
Ġst ates
Ġag ricult
ĠInd ian
Ġrelationship s
Ġrelig ion
y le
Ġfor ces
Ġcon sequ
un k
Ġpre vent
Ġinv ent
Ġbo ys
i os
Ġd ad
Ġd imens
Ġe t
ce ll
ĠA rab
Ġca uses
Ġdou b
Ġpublish ed
Ġinfrastruct ure
ĠCaliforn ia
c ope
ol ve
Ġdiffere nces
Ġbl og
Ġcreat ivity
Ġbelie f
Ġmet ers
Ġorgan izations
I D
w ood
Ġa id
Ġl oss
ra q
Ġnot iced
Ġcon c
ĠB l
Ġfun ny
Ġansw ers
Ġcontro ll
Ġref lect
Ġprof ound
Ġtot al
lo ad
Ġmob ile
Ġt un
Ġt ask
oo per
Ġma le
Ġoxy gen
g y
k ed
en ed
st ead
Ġhe at
ck s
cul es
Ġrad io
Ġclos er
r is
ra id
Ġli ber
iz es
Ġexp and
Ġspe aking
Ġdi agn
Ġleg al
Ġcamp aign
ĠAfghan istan
A re
in ate
Ġm id
em ent
Ġtw ice
ru pt
ren ch
Ġ3 00
Ġent reprene
Ġbi ological
Ġstop ped
Ġorig inal
Ġmount ain
Ġtrou ble
Ġsurger y
a f
o ff
and a
and er
ĠM ar
Ġplay ed
Ġaf raid
ĠMus l
es is
al ing
Ġsp aces
ĠS te
Ġwork ers
Ġman ufact
Ġev olved
ĠN ational
ĠO ne
Ġprodu ced
Ġmark ets
Ġnetwork s
Ġstre ets
Ġcommunic ate
i ra
p es
u ing
Ġh ole
ĠI raq
Ġan g
Ġcomp on
ĠM y
Ġgot ten
Ġsustain able
v est
w ater
Ġb ought
ic les
Ġsh ock
Ġact ive
Ġpo et
Ġdis pl
ph one
Ġapp lic
Ġhigh ly
Ġjour nal
Ġo h
Ġh us
ar ter
ra el
Ġfeel s
Ġmiss ing
Ġm ix
Ġsee med
Ġta x
Ġsm ell
Ġeas ily
Ġexperim ents
Ġrespons ibility
Ġcust om
h y
Ġ ut
Ġd ance
Ġd ying
Ġfor t
am b
ad em
ate ll
Ġv ast
cept ion
ash ion
Ġemot ional
Ġmole cules
ĠIsl am
or ith
Ġl ack
em pt
ord er
Ġcor ner
Ġhist or
Ġclass room
ex ic
Ġsurpr ising
Ġsho ot
S h
b and
z il
Ġf at
st e
Ġr ough
ib r
Ġdifferent ly
ĠR uss
ac ed
Ġind epend
Ġbas is
ic a
Ġe ating
ul ner
Ġknow ing
ĠA d
Ġco ff
ĠF ace
Ġcreat es
Ġhelp ing
Ġplan ets
Ġdeg rees
Ġexperien ces
Ġbird s
Ġalg orith
Ġ Why
ed ia
Ġha ll
ist ry
Ġdesign ers
Ġdel iver
Ġredu ce
Ġeffic ient
Ġsignific ant
Ġw ire
Ġd iversity
ĠI ran
Ġgo ld
Ġra pid
av id
Ġatt ract
Ġmem bers
Ġwind ow
m on
r ical
Ġs ick
Ġc ru
it ter
Ġn one
ct ually
ĠS he
ĠO h
Ġda ughter
re g
Ġs atell
Ġwe ird
Ġha bit
Ġind ustrial
Ġcommunic ation
cr ipt
en ing
ear s
Ġback ground
In stead
Ġra re
Ġbring ing
Ġcomplex ity
Ġbro ken
Ġnear ly
Ġdin os
Ġi P
Ġ $
Ġ ver
Ġ ur
Ġse as
ter m
ĠC om
Ġfl ight
Ġgen ome
Ġscient ist
Ġspend ing
ĠBra zil
F rom
m p
Ġh om
Ġg ent
ĠS an
ĠC l
ĠM exic
Ġag ree
Ġcl imb
Ġvis it
Ġair pl
Ġet c
T wo
r atic
ic king
os ystem
Ġcont act
Ġstud ying
Ġlight s
Ġdem and
Ġconf erence
Ġphot o
ĠBe cause
Ġconscious ness
Ġtar get
Ġcommer cial
Y our
g th
is co
ic on
Ġre b
Ġre co
Ġst ren
Ġtr ip
ang ing
Ġres ist
Ġadd ition
Ġhear ing
Ġdev ices
Ġanal y
ĠAustr al
3 0
Ġs ke
Ġf old
Ġsh ift
Ġent er
Ġbre ast
Ġopportun ities
Ġvol unt
Ġcrow d
Ġtremend ous
Ġw ide
re ci
Ġbe es
ro gen
Ġv ulner
ord ing
Ġbo at
Ġmet ap
Ġfocus ed
Ġjo in
Man y
Ġlands cape
ID S
ĠFace book
Ġin j
Ġha ck
Ġch im
Ġtr ib
ĠL et
Ġec osystem
Ġstren gth
Ġt um
Ġf ro
Ġr out
ĠD r
Ġfl ag
Ġfair ly
a ul
e es
ed d
Ġst em
Ġbr ill
Ġimag ination
Ġfore ver
Ġfull y
Ġm aster
Ġpass ed
Ġsex ual
Ġident ity
r ie
Ġthe rap
Ġc ooper
Ġb read
Th ink
ain ing
ber t
Ġdes ert
ĠIs rael
Ġmiss ion
i am
Ġm useum
Ġbe at
Ġan cient
Ġsh op
Ġcor rect
Ġpar ad
Ġcoff ee
h and
h ouse
n a
Ġc red
Ġas pect
Ġcreat ures
Ġcons id
Ġple as
Ġinsp ired
Ġbom b
Ġphenomen on
Ġluck y
Ġoppos ite
Ġyell ow
U n
b ased
d o
g ra
pp ing
Ġal t
ĠM iddle
Ġpart y
ord ers
Ġart ists
Ġposs ibility
Ġche ap
Ġarg ument
Ġrelig ious
Ġfarm ers
Ġdesp ite
t ies
at r
Ġc ore
Ġm ort
Ġam b
Ġturn ing
Ġmag az
Ġfail ure
Ġc ogn
Ġh ost
if ying
Ġacc om
Ġacc ident
Ġeas ier
idd en
ograph y
Ġadv ant
ipp ed
Ġdescrib e
Ġbra nd
Ġgent le
c est
m ark
v al
at ures
Ġm outh
or ge
Ġg iant
Ġre pe
Ġhe ll
Ġsh aring
Ġnot ion
Ġte en
Ġev ents
ite ly
ĠR e
Ġpartic les
Ġfigure d
Ġdream s
r ont
Ġg un
us ing
ir t
Ġsh ip
Ġnot e
Ġpart ners
Ġra ised
Ġimportant ly
ific ation
Ġmom ents
Ġstruct ures
l ies
z en
ed ic
Ġn or
ul pt
ĠD o
ĠR o
Ġsc ulpt
ĠWe b
Ġfore ign
Ġentire ly
Ġbenef its
c op
r im
Ġ ing
Ġan cest
Ġj oy
Ġex er
rou d
ag er
Ġco ast
ĠT w
Ġgen e
Ġhar m
c ra
f ord
Ġf ol
ve re
Ġfor g
Ġhe ld
ul ations
Ġpl at
Ġbr ight
ĠY es
Ġreg ular
pr int
ĠAs ia
2 0
r ated
Ġ Wh
re et
Ġs orry
Ġb atter
ic ians
et t
ad a
ĠM ich
Ġcl a
Ġpo em
Ġcall s
Ġbr ings
Ġele ments
Ġsuff ering
Ġnecess arily
Ġneg ative
Ġpu zz
Ġvac c
Ġb le
Ġb illions
Ġto m
Ġsp ort
ĠP ar
Ġtra ffic
con nect
Ġchar ge
Ġrequ ire
v ity
Ġw is
Ġf ashion
le y
Ġn orth
ent y
ro ll
Ġst ream
Ġcon cent
Ġqu ote
ĠN or
Ġatt empt
Ġacc ur
Ġrest aur
Ġrespons ible
Ġkil omet
d imens
e qu
m y
r ate
Ġt ough
in c
Ġm ill
Ġp roud
ĠM c
Ġbr other
Ġbr idge
Ġapp reci
Ġrem ote
Ġdist ance
Ġphot os
Ġleaders hip
Ġcompet ition
A gain
Ġb ud
Ġb ound
Ġp ounds
Ġse ed
Ġdis p
Ġpre vious
Ġsm o
Ġinv is
Ġhelp s
Ġcor por
Ġopen ed
ĠEurope an
Ġcoun ter
Ġtiss ue
u gg
Ġ Ġ
Ġ iron
ar ia
ver se
ce ler
if ically
ul ated
Ġch ick
ru ption
ĠF or
ĠF rench
Ġstud ied
Ġind ic
Ġed ge
Ġ4 00
Ġlead ing
Ġnecess ary
Ġdefin ition
Ġep ide
Ġvirt ual
Ġweap ons
gy pt
ste in
e ared
u ild
in ally
it able
Ġin form
Ġe gg
id ents
Ġse ctor
ib ilities
ĠN iger
ĠF ran
ys is
Ġgr ass
Ġoce ans
Ġintell ect
Ġemot ion
Ġdoc ument
Ġphilos oph
Ġc and
Ġre ve
Ġad apt
Ġshould n
Ġbelie ved
Ġmatter s
Ġhold ing
Ġult imately
Ġbal ance
Ġhus band
Ġbrill iant
A ctually
C om
k n
l in
Ġma int
Ġher o
Ġrel ated
Ġstu ck
How ever
Ġdoll ar
Ġmot or
Ġfail ed
Ġunf ortunately
Ġfa ith
Ġadult s
Ġdestro y
s es
Ġt ast
art ment
Ġtr uck
Ġcomp l
Ġoff er
Ġchild hood
Ġlead s
Ġsign al
Ġcol ors
Ġsuc ceed
Ġconv in
ĠChr is
Ġdou ble
H is
a ff
i ors
u ros
v ant
ct ions
ur ch
Ġu nd
Ġsh el
Ġr iver
ĠD ar
ĠK eny
Ġinvest ment
Ġgrand m
Ġinstit ution
dimens ional
i age
t le
w ord
Ġm ouse
Ġn arr
Ġcl ick
ia ble
ĠD avid
Ġhead s
Ġconcer ned
Ġinsect s
Ġplat form
m ar
in ist
Ġh ate
Ġp et
Ġf ab
Ġf oss
ca re
Ġno ise
Ġun iversity
ograph ic
Ġdisco very
Ġlea ving
Ġwhe el
h old
i j
m it
Ġf le
Ġl unch
oo p
ĠA b
os es
ĠS un
ag ers
Ġun like
ĠE gypt
He y
Ġele ment
Ġnews p
Ġdeep ly
Ġconst ruct
Ġslow ly
Ġsequ ence
Ġinflu ence
Ġexh ib
r ight
Ġ When
Ġmo ves
ter day
Ġex ch
Ġno vel
Ġun c
Ġpr ior
Ġcr ash
Ġless on
Ġca ught
Ġfre qu
Ġdeg ree
R e
Ġwe ak
ill ed
Ġcomp ared
Ġtrans p
Ġprot oty
Ġconst antly
Ġtyp ical
ipp ing
Ġprofess ional
l ands
o x
Ġb ag
Ġm ig
all ed
ĠM r
ĠB ang
ĠG reat
Ġlet ter
ĠCh ar
Ġcre ation
Ġpres ident
Ġtrain ed
Ġarg ue
Ġemb ra
Ġfight ing
Ġsyn th
Ġprote in
Ġs ister
le ction
Ġn ames
ot ed
Ġan ts
Ġr ot
pp er
Ġcl osed
Ġfact ory
Ġins ight
Ġgra d
Ġfin ished
Ġbegin s
Ġhy p
Ġmajor ity
Ġwall s
Ġfasc inating
Ġfra g
M ore
i us
s on
Ġb one
Ġf resh
Ġd en
Ġg ard
th rop
Ġsp ot
ort ex
ud ience
Ġac celer
Ġph ones
ath y
Ġop in
Ġcap able
Ġpain t
Ġcollect ive
Ġinteract ion
Ġemot ions
Ġsurpr ise
Ġdescrib ed
Ġstrateg y
D P
O ver
m ission
o om
Ġt it
Ġt our
Ġto r
Ġf aces
es th
Ġre ward
am i
ess ed
Ġ1 50
Ġman aged
Ġother wise
Ġtalk s
ĠF l
Ġatt ach
Ġequ al
Ġequ ival
Ġdep ression
eng th
Ġhor r
Ġmathemat ics
Ġquant um
Ġmetap hor
I T
o e
Ġse at
Ġmo s
Ġro of
Ġad op
Ġcor al
Ġpay ing
Ġoper ating
Ġsepar ate
Ġadvant age
Ġt on
Ġc os
an cing
es ign
ur ally
Ġorgan isms
Ġengine ers
Ġperfect ly
ĠBrit ish
Somet imes
Ġcogn itive
O nce
T ake
Ġ era
Ġp un
ent ally
ur ies
Ġmo on
Ġso il
Ġjust ice
ap ers
Ġdis aster
Ġfollow ed
Ġav oid
Ġcurrent ly
Ġbenef it
Ġprinci ples
Se cond
o int
Ġo dd
Ġb and
Ġp urs
an es
Ġwh om
Ġk ing
Ġhas n
Ġart ific
Ġconsum ption
Ġcivil ization
Ġbreat h
Ġgalax ies
Ġmention ed
Ġvolunt e
Ġinvis ible
W ould
v ention
Ġc ateg
Ġh omes
as ion
ul ous
Ġch ann
Ġor g
ĠC O
Ġem pt
Ġele ph
Ġsurpr ised
Ġfeed back
a e
or ation
ic ity
Ġst im
Ġwor ried
Ġme at
ck ed
Ġbr ief
Ġhard er
Ġgr own
Ġequ ip
Ġtreat ed
Ġlim ited
Ġrepl ace
Ġfing er
kn own
Ġm ir
Ġin cent
Ġwe aring
all ey
ir m
ĠC on
ĠP l
Ġlead er
Ġbusiness es
Ġveh icle
ashing ton
Ġequival ent
D id
g ar
Ġd ue
Ġl apt
Ġg ar
ad s
Ġevery day
Ġfe ll
Ġcont ract
Ġdes ire
Ġpre cise
Ġbel ong
Ġlangu ages
Ġinvest ig
Ġrece ived
Ġgalax y
ĠFran c
o k
Ġs outh
is her
on om
ar a
Ġwe ar
Ġn erv
um an
ck et
Ġcomp are
ap se
ild ren
Ġar ms
Ġinv ited
ĠEng land
Ġcy cle
Ġwis dom
r ict
w ide
Ġto x
Ġex tend
Ġch air
um e
ich ard
Ġfe llow
ĠE d
ĠG u
Ġbu ll
ĠW ashington
Ġ3 5
Ġplan ning
Ġfour th
Ġwatch ed
Ġcir cle
Ġmarr ied
Ġmolec ule
Ġaltern ative
ĠMexic o
ĠAustral ia
Ġmagaz ine
c ar
c il
p et
Ġa x
Ġw ave
Ġp ow
Ġwe ather
Ġse lect
um ber
Ġag re
Ġun less
Ġimp lic
ĠP ark
ell ing
ak ed
ub lic
iss ions
Ġlaunch ed
G o
Ġt al
Ġm others
ro ph
Ġex ists
Ġint u
ens ity
Ġsur ge
Ġdesign er
Ġhigh est
Ġsym met
Ġsurv ival
Ġagricult ure
cra ft
Ġequip ment
a u
Ġb attle
Ġp ages
Ġf ed
ir ation
Ġus ers
Ġqu iet
ĠG o
Ġac adem
Ġcomm it
Ġexper t
Ġstu pid
Ġant i
Ġserious ly
Ġsold iers
Ġdeb ate
stit ute
g n
Ġh un
Ġto ward
Ġd ry
om an
Ġdo l
Ġthink s
Ġco al
ĠD an
Ġput s
Ġorgan ic
Ġcur ious
Ġhope fully
Ġnorm ally
Ġvers us
Ġdraw ing
Ġdin ner
E ach
l ied
ad d
Ġpro s
ĠE x
Ġeconom ics
Ġshap es
Ġident ify
Ġmultip le
ĠTw itter
Ġnerv ous
s et
Ġp oo
Ġre ef
ag o
Ġpol ic
Ġtest ing
Ġve get
Ġstep s
Ġdistrib ution
Ġincreasing ly
Ġassoci ated
Ġnut r
Ġkilomet ers
b el
h ab
Ġh idden
Ġin it
us hing
ant ed
Ġr ound
Ġv es
ĠC ol
ĠM in
ĠG l
ĠH ere
pl ace
Ġplay ers
Ġplan e
Ġart icle
Ġprocess es
Ġwar m
Ġsign als
Ġexist ence
Ġsent ence
Ġyes terday
Ġproper ty
Ġstat istics
Ġfol ks
h a
Ġc ro
en cies
Ġre form
Ġst ation
Ġne uro
Ġne uros
Ġr ural
Ġmy th
est ic
Ġsa ved
Ġag g
Ġres ource
Ġtechn ical
fore st
Ġtrans formation
Ġinter p
Ġacc ording
Ġmot ion
Ġast ron
Ġlea ves
Ġord inary
Ġdol ph
E x
R I
r um
Ġt ick
Ġg ather
ot ic
Ġch ain
ĠJ ust
oc ol
Ġdr iver
Ġgener ations
Ġinf in
Ġwar ming
Ġsit es
Ġill ness
Ġant ib
Ġcirc um
Ġfill ed
Ġcomfort able
Ġstrugg le
ĠGerman y
Ġairpl ane
o ot
r i
Ġt all
in stein
Ġd ate
Ġin ner
al ed
Ġis land
Ġst ood
ca le
Ġta il
ĠE n
ĠE very
ĠG ra
Ġfl at
Ġca used
Ġdi et
Ġda ily
Ġsaf ety
Ġlif et
Ġaw ful
Ġdimens ions
b l
v ard
Ġt ons
in o
Ġl osing
Ġre in
Ġsh ut
ol ves
Ġfr ustr
Ġsp l
ĠS c
ĠP al
ĠN A
Ġimport ance
Ġdesign ing
Ġsub st
Ġset ting
Ġresearch ers
Ġcond uct
Ġdeal ing
Ġge nder
Ġexperien ced
Ġprinci ple
Ġintellect ual
Ġves sel
a urs
c ast
Ġthe ater
er ves
Ġh ide
Ġto ile
Ġd ial
le ase
Ġn an
Ġab st
ess ion
Ġsp oke
Ġhad n
Ġco vered
ress ive
Ġsc en
Ġcr ime
Ġexpl an
Ġelect rical
Ġcol on
Ġsho es
Ġheav y
Ġsou l
Ġconsequ ences
a it
l om
Ġc ow
Ġg ap
se mb
Ġli br
ĠB ig
Ġsc ene
Ġfin ish
Ġval u
Ġwonder ing
Ġfield s
eng u
Ġmov ies
Ġcop y
Ġarr ived
ĠJapan ese
Ġclin ical
Ġconvin ced
Ġartific ial
Ġs oph
Ġto w
al d
ur d
Ġfor ced
Ġli ked
Ġgo d
Ġr ow
ĠA IDS
Ġen em
ĠM ay
Ġpart ner
ak er
ak istan
Ġfact s
Ġbit s
Ġsign s
Ġkill ing
Ġlim it
Ġlay er
for ce
Ġdam age
Ġunivers al
Ġpoet ry
ĠKeny a
P er
n s
u x
re te
Ġd ots
ci pl
ĠM IT
Ġcl oth
Ġcall ing
ĠT imes
Ġconnect ions
Ġcontin u
Ġpick ed
Ġess ential
Ġprofess or
Ġintellig ent
Ġneg ot
Ġmicrob es
Ġconsid ered
I nd
b ble
u ff
z ing
er as
Ġh oles
le ment
Ġbe ar
Ġre con
Ġhe ight
Ġpe ak
od es
ĠP aul
Ġad vert
ne ath
ĠK ore
Ġmus cle
Ġopen ing
Ġref uge
Ġcontin ent
Ġdeep er
Ġappro pr
Ġengine er
Ġanal ysis
Ġrepl ic
ĠBrit ain
Ġsatell ite
Ġgrandm other
Ġw ond
Ġp il
Ġn ar
ce nd
Ġli e
Ġman ip
Ġres c
Ġlet ters
Ġfeel ings
Ġplay er
Ġcons ist
Ġposs ibilities
ien cy
Ġcut ting
Ġreact ion
Ġchemical s
Ġmanage ment
Ġfoss il
f ish
h i
z ed
Ġs ources
or gan
Ġg all
Ġk ick
Ġr at
Ġwhen ever
ab et
Ġqu al
Ġexp ression
ĠG ree
ĠP akistan
Ġbl ow
Ġsur f
Ġgra de
Ġrec y
Ġhealth care
Ġexpect ed
Ġchem istry
Ġest ab
Ġtrial s
Ġvari ety
Ġmos qu
c ers
m as
m ber
en er
Ġg rain
ic ip
Ġper ce
Ġpr ay
ĠW ill
ĠK ing
Ġwa ves
Ġmess ages
Ġcred it
Ġbatter y
Ġempt y
l ife
m in
Ġe nds
Ġst ock
Ġli es
Ġv ote
os ition
res ident
ĠB ill
ĠN e
Ġunder neath
Ġexper ts
Ġcr im
Ġvide os
Ġconst ruction
Ġcollect ion
Ġill ustr
Ġrev iew
oll y
hy th
Ġdinos aurs
Ġtom orrow
Ġt en
Ġw ake
it ness
Ġh urt
Ġp engu
Ġf al
ul ating
Ġr ates
act ers
Ġsol id
wh at
Ġcor ruption
Ġadv anced
Ġbro ke
Ġrequ ires
Ġmarr iage
Ġdynam ic
Ġexer cise
g l
Ġl at
Ġg ang
est s
Ġun s
ens ion
ĠR ep
ne w
Ġtrans ition
Ġchar acters
Ġloc ation
Ġmic ros
Ġill eg
Ġconsum er
ĠHar vard
Ġrelative ly
Ġindepend ent
ĠDar win
a el
Ġsh if
Ġpro ve
Ġch ap
Ġus er
Ġte eth
og en
Ġide al
Ġthought s
Ġinter face
Ġcare fully
Ġ4 5
Ġorgan ized
Ġkeep ing
Ch ris
Ġcart oon
Ġshark s
Ġfort un
Ġrough ly
Ġrapid ly
Ġvalu able
Ġsoph istic
S ee
r s
Ġg ift
Ġis ol
Ġbe e
The ir
Ġmy st
Ġte les
Ġv oices
Ġev il
ĠB ar
Ġdes k
Ġfew er
Ġcult ures
Ġlaw y
iqu es
Ġrepres ents
Ġpriv ile
Ġfac ing
Ġemerg ing
Ġcapt ure
ĠSw ed
Ġbud get
Ġepide mic
Ġexch ange
Ã ©
at ers
Ġh ang
Ġl ength
Ġg ain
Ġch art
ĠA pp
Ġ2 000
Ġpre fer
Ġprodu cing
Ġsl a
Ġgener ate
Ġspec ifically
Ġmem ber
Ġbehav iors
Ġsym pt
Ġconv ince
Ġvict ims
Ġdispl ay
Ġvulner able
Ġinterp ret
g ets
Ġc ards
Ġb ul
Ġp al
Ġp ure
Ġl ic
Ġn ations
st ate
ly ing
ĠC o
Ġfl ies
ĠSt reet
Ġpass word
Ġcam eras
Ġaut h
Ġeffect ively
pect ed
ony m
Ġsitu ations
Ġproper ties
Ġstat us
Ġprim ary
Ġdisapp ear
Ġencou rage
ĠCent er
Ġhous es
Ġentreprene urs
Ġchim pan
ĠFranc isco
V ery
c an
d own
o ver
u h
Ġp ip
Ġre ven
st ream
Ġme l
Ġr ide
Ġint r
ĠS at
ĠD on
Ġem issions
Ġbr an
ĠJ ew
Ġext ract
Ġrep rodu
Ġbott le
Ġdepe nds
ĠCan ada
Ġdetail s
Ġlad y
ĠAt l
ĠSch ool
Ġcla im
. '
H ave
e ff
m ers
u ary
Ġp ian
Ġf lex
ic ago
ir ty
Ġsh all
Ġsh ad
ul s
os is
Ġcont ain
Ġent ertain
Ġmove ments
ĠIn stitute
Ġadd ed
Ġvir uses
Ġrele ase
Ġinstr ument
Ġhyd rogen
Ġk itch
Ġsp in
ĠB en
ĠG reen
ĠR ed
Ġart s
Every body
Ġcarry ing
Ġhyp oth
Ġlifet ime
A meric
e al
y m
Ġs ight
Ġc ure
it an
Ġin ev
Ġl ect
ĠI I
Ġex ec
Ġma ps
Ġsu gar
ĠG DP
ĠP resident
chn ology
ĠCh icago
Ġinterest s
Ġgener ally
Ġdef ine
Ġpolit icians
Ġass ign
Ġ9 9
Ġrad ical
Ġsend ing
Ġprom ise
Ġmathemat ical
Ġmolec ular
Ġmort ality
Ġcircum st
it als
it arian
Ġp ed
Ġg ay
ig m
Ġli qu
ĠC E
Ġhow ever
ab ilities
Ġun it
ĠH a
Ġac qu
Ġrem ain
ĠAnd erson
Ġeng aged
Ġgr id
Ġris ks
Every thing
Ġrele ased
Ġhon or
Ġdiscuss ion
Ġprep ared
Ġoffic ial
ĠMusl im
Ġcompon ents
ĠNiger ia
A udience
f it
l og
p her
Ġbe ach
Ġst aff
Ġr ing
Ġtr illion
Ġun ex
Ġdis h
ĠL os
ĠR ichard
Ġsm ile
Ġtechn iques
old s
Ġmin im
Ġreg ions
Ġocc up
Ġsell ing
Ġsn ow
Ġintrodu ce
Ġintrodu ced
Ġsam ple
Ġgradu ate
Ġrestaur ant
1 1
T ube
a ving
Ġb ow
Ġb ath
Ġf isher
al t
ot ing
ro g
Ġgo als
Ġat oms
Ġr om
Ġr ub
Ġsp o
Ġsp ring
Ġcomp ar
ĠE l
Ġbu ying
Ġbu bble
Ġmet al
Ġser ve
Ġconv ention
Ġprofess ion
Ġwin ter
Ġanal og
Ġterror ism
ĠCong ress
Ġorg ans
Ġestab lish
b ors
f l
Ġth in
at in
ĠE instein
Ġfact or
Ġfact ors
con t
Ġdra g
Ġste el
Ġemploy ees
Ġencou ra
Ġmal aria
Ġpleas ure
Ġforg ot
Ġabst ract
8 0
Ġs an
Ġs ides
er ved
Ġfor mer
Ġsp here
ĠC am
Ġworld s
Ġthan ks
Ġun us
ĠG P
ĠG h
ĠP ac
ĠN ot
Ġinv ention
Ġgra vity
Ġmed ium
Ġenviron ments
Ġrad iation
Ġprotect ion
Ġhy per
Do es
Ġhor se
por ary
Ġdefin itely
Ġblock s
ĠAn ge
Ġmist ake
Ġnewsp aper
Ġmir ror
G ood
u el
Ġb ill
Ġm er
et ics
Ġqu e
Ġph r
Ġinst all
Ġ19 6
Ġless ons
Ġrun s
Ġreg ard
Ġsca red
Ġpract ical
Ġcomb ination
Ġaffect ed
Ġpoll ution
Ġmount ains
Ġspect rum
Ġtum or
b ur
h one
i at
Ġo ption
or ous
ic ing
Ġcon ver
Ġen s
ĠM il
Ġcl ip
ĠT e
ĠT ur
ĠN ob
Ġgood s
ĠW ik
Ġdr iven
ĠYou Tube
Ġaut onom
Ġref er
Ġass ist
Ġrecord ed
Ġtyp ically
Ġreach ed
Ġdemoc ratic
Ġevolution ary
ĠAm az
Ġseas on
rie nd
Ġopin ion
Ġkitch en
C ould
l ines
Ġt ank
Ġc ortex
Ġb are
ing u
Ġf ishing
es h
ol ving
el ine
Ġworld wide
Ġper ception
Ġcl ock
tern al
Ġcent ers
Ġincl ude
Ġpull ed
Ġneigh bors
Ġest im
Ġaf tern
Ġing red
Ġfal se
5 00
S ince
s s
u its
Ġo ught
Ġc ere
it a
Ġe ld
se c
ur ance
Ġdo gs
Ġr ational
ĠS m
Ġact ions
ĠM o
ĠG en
ĠT r
Ġsing ing
Ġkeep s
Ġliter ature
Ġpsych ology
Ġpriv acy
Ġrequ ired
Ġtravel ing
Ġrele vant
Ġforest s
Ġsat is
Ġdro pped
Ġcollabor ation
po int
Ġchick en
Ġsophistic ated
L ast
e an
h am
Ġc ast
Ġm ira
Ġd ip
Ġin put
oo s
Ġse vere
Ġnot es
Ġpl us
Ġfe ature
Ġfe atures
Ġdis s
Ġad j
Ġapp lied
Ġperson ally
Ġnat urally
Ġhar vest
ĠPh il
Ġparticip ate
Ġveh icles
g ment
s pe
Ġc ord
Ġh its
us ive
Ġre ci
Ġj u
um ps
Ġv ent
ab led
Ġper man
Ġag ing
Ġtechn ological
Ġsk ill
Ġcou rage
Ġ200 8
arr ass
Ġ7 5
Ġsens es
Ġdest ruction
Ġmeaning ful
Ġcomb ined
Ġrock et
Ġfundam entally
Ġult imate
Any way
Ġhop ing
Ġancest ors
Ġsport s
Ġilleg al
Ġliqu id
Ġunus ual
Ġw ine
Ġb icy
Ġm ile
Ġd edic
if th
Ġas p
Ġr ig
um s
ĠB er
ĠB ro
ĠG al
Ġrem o
Ġsc ore
Ġgl am
ost on
Ġform ed
Ġtop ic
Ġincre ased
Ġoper ate
Ġstrong er
Ġmechan ism
ĠFr ank
Ġaware ness
Ġeffic iency
Ġactiv ities
Ġalgorith ms
Ġegg s
Ġaftern oon
o ly
v able
x im
it ual
Ġse es
os h
Ġact ing
Ġunder water
Ġpre gn
ew ork
Ġsol ved
Ġprocess ing
Ġfun ctions
Ġcle ver
Ġphys ically
Ġmem ories
Ġtre nd
Ġrecord s
Ġsun light
Ġemb arrass
Ġintern al
Ġhosp itals
Ġ199 0
Ġ201 0
Ġmist akes
Ġfram ework
Ġoccur red
Ġswe et
ĠGe orge
Ġtransport ation
Ġmanufact uring
ĠRuss ia
Ġaccom pl
ĠNA SA
c red
s cale
u per
en ced
Ġp air
Ġp itch
Ġin equ
Ġg ut
Ġwas h
ĠO b
Ġstud io
Thank s
Ġfound ation
Ġ19 4
Ġbi om
gg ed
Ġtest s
Ġjo ke
Ġemp athy
Ġcook ing
Ġsurve y
Ġgard en
Ġastron om
Per haps
B as
b re
b ed
m aking
n el
z a
Ġw itness
as ks
ul a
Ġma k
Ġthem e
Ġtr ig
Ġsome what
are n
ĠB ank
ĠB oston
be ing
Ġcons ervation
Ġsupp ose
Ġmus ical
Ġequ ally
Ġlarge ly
Ġfall ing
Ġdom in
ĠFr ance
cript ion
ĠPac ific
O s
P lease
Y et
Ġw ars
Ġf ert
Ġin iti
Ġn av
Th ree
Ġst orm
Ġsh ame
Wh ile
ab ol
Ġco ord
Ġpr ime
Ġdis cipl
ĠL ife
Ġdr ives
Ġcomput ing
Ġadv ice
Ġcollect ed
ret ch
Ġamount s
Ġhor iz
Ġbirth day
Ġburn ing
Ġprote ins
Ġtap e
Ġdram atic
Ġswim ming
Ġdoub t
Ġlapt op
f ortunately
m m
t a
v is
Ġ These
Ġc ave
it z
Ġh ung
Ġd iction
se m
Ġan x
Ġch a
Ġbut ton
Ġcl ub
ĠT o
ber g
Ġdes per
ĠJ ames
Ġdec l
Ġapp arent
wh el
Ġvis ible
Ġfig ures
Ġadv ent
end ed
Ġprotect ed
Ġpot entially
Ġphotograph s
Ġsil ence
Ġconcl usion
Ġconc rete
Ġantib iot
7 0
n ight
r at
s ource
x ide
Ġs ets
Ġto y
Ġf ake
Ġu pper
Ġsu it
ĠM ont
ĠP ort
ang ers
Ġlo ad
Ġcont rast
ell y
ak ers
Ġpercent age
Ġele ction
Ġ19 60
hip s
Ġpres ence
Ġdef ined
Ġconst ant
Ġpsych ological
Al so
Ġrid ic
Ġtox ic
Ġpian o
ĠAmaz on
y n
Ġ vert
Ġth ick
Ġc ents
is ters
Ġb es
Ġre new
Ġch ose
ĠA re
Ġqu arter
ĠG ood
Ġover all
Ġover whel
Ġcont em
Ġob st
Ġcreat ure
Ġstr ing
Ġext inct
ĠV alley
Ġconf idence
Ġconf ront
Ġroom s
Ġmarket ing
Ġsens itive
Ġoper ation
Ġcrit ic
Ġroad s
Ġtrack ing
Ġconvers ations
Ġsubject s
Ġattack s
Ġemp ower
Ġadm inist
Ġfram e
ĠPro ject
ĠiP hone
Ġaccur ate
Ġton ight
Ġexplan ation
A r
R em
f oot
in ction
Ġm ere
Ġh ook
Ġh unt
Ġwe l
ro b
Ġr itual
Ġout come
Ġint ense
ĠC oll
Ġrem ains
Ġproduct ive
Ġfil ms
Ġdi ag
ane ously
Ġprov iding
Ġinnov ative
Ġexist ing
Ġexplain ed
Ġstay ed
Ġinsp iration
Ġsil k
Ġsustain ability
Ġinfect ed
Ġsurround ed
Ġcloth es
Ġappropr iate
olly wood
Ġcircumst ances
l s
it ure
ll y
Ġl ens
as er
Ġn urs
ow ered
Ġre ject
Ġre verse
Ġor ch
est yle
ĠA lex
Ġco ck
Ġnow here
ank ly
ob al
Ġmon key
Ġrec om
ĠSt an
Ġsub s
Ġelect ro
Ġtest ed
Ġclose ly
Ġpresent ation
Ġmeasure d
Ġcirc uit
Ġsong s
Ġbreat he
Ġassum e
Ġauthor ity
Ġspirit ual
Ġelectron ic
ios ity
Ġfle w
O ther
t ail
it ors
Ġm ent
Ġp ill
Ġf urn
es ome
Ġd ot
Ġn est
st and
ke ys
ad ic
Ġcom ment
Ġch urch
Ġun com
Ġun known
Ġres il
Ġcomm and
Ġdec line
Ġdi am
Ġabs or
Ġsens ors
Ġjo ined
Ġopt ions
Ġer ror
Ġ198 0
Ġapplic ations
Ġwire less
ĠPar is
Ġappreci ate
Ġhorr ible
Ġspl it
d en
i h
o ch
o ons
Ġt ack
Ġb ones
Ġp in
Ġp ump
Ġp apers
Ġl oud
al u
Ġwh ales
Ġe ars
all el
ill ing
Ġj ail
Ġde ploy
Ġv an
Ġpl ate
Ġeven ing
ĠR es
ĠR ev
Ġfl ower
ĠJ an
Ġele v
Ġdat ab
ĠSt ate
Ġeconom ists
Ġcur ve
Ġchallen ging
Ġz oom
Ġdeath s
Ġdep th
here nt
Ġhous ing
Ġcontroll ed
Ġtherap y
Ġtast e
Ġsympt oms
ĠAnge les
H er
c al
l ook
it ers
Ġb oring
Ġm ad
Ġh orm
Ġp ool
Ġl ying
om as
Ġwh ist
ip edia
Ġdis g
pt ember
olog ically
ĠD ep
Ġrem ove
Ġrel ate
Ġtrans pl
Ġcent uries
Ġhand le
ĠUn ion
Ġ200 7
Ġadv ance
Ġstate ment
Ġprov ided
On ly
Ġmult i
Ġcomb ine
Ġvol ume
Ġsuff er
Ġpassion ate
Ġlabor atory
Ġfing ers
Ġsam ples
Ġgentle men
Ġnarr ative
Ġ Who
in ations
Ġn ose
Ġit em
ĠM ic
ĠM art
Ġwhere ver
Ġimp lement
Ġ2 2
ath ers
Ġinst ruct
Ġcoll apse
Ġexpl oration
Ġbus y
Ġglob e
Ġdist inct
Ġallow ing
Ġaut ism
Ġfall s
Ġvill ages
Ġhot el
Ġtransform ed
Ġflow ers
oun ced
Ġcloud s
Ġparad igm
Un fortunately
Ġchann el
ĠGP S
A m
a ult
ou nce
en ess
Ġf an
Ġwe igh
Ġst one
ant a
qu e
Ġout c
ĠM useum
ĠG ulf
Ġ2 3
ĠL aw
Ġtechn ique
te ch
Ġext ent
Ġbi ke
Ġexpl os
Ġgr as
ogra pher
Ġmem or
Ġ6 00
bo x
Ġcy ber
Ġmar ine
Ġdiv ide
ĠChrist mas
Ġdeterm ine
Ġang ry
Bas ically
Ġnav ig
A b
B G
T alk
f in
f ather
h our
Ġ Where
Ġ icon
Ġa th
Ġb arr
Ġf iction
Ġd ress
ly mp
Ġat tend
ate ful
em b
Ġexp on
Ġpr ize
Ġpo ly
ĠP er
Ġro ot
Ġhum or
Ġcor res
Ġstand ards
Ġprof it
Ġmil k
cle ar
Ġbehavior al
Ġenc oun
Ġfoot print
Ġrock s
Ġfac ed
Ġsuggest s
Ġpoll en
Ġcapital ism
Ġlink ed
Ġlog ic
Ġfix ed
Ġinstr uments
Ġapplic ation
Ġembra ce
Ġpolic ies
Ġmosqu it
d r
h ol
u ce
Ġt ent
Ġs en
nd a
nd ing
Ġd ancing
ot ion
ig gs
ol a
Ġr u
Ġv ibr
Ġsu ic
Ġen able
ĠM on
Ġimp l
Ġdown load
ons cious
Ġpol ar
Ġmus h
Ġorgan ism
Ġbre ed
Ġlab el
Ġlim its
Ġident ical
ĠSe ptember
Ġarm y
Ġadm it
Ġpuzz le
ĠChar les
Ġinfin ite
ĠRep ublic
g ent
m al
w ell
at o
nd ed
Ġb order
Ġh ur
Ġp ushing
Ġg est
ve y
et ically
st ers
Ġan ger
Ġhe m
il ed
Ġsp inal
Ġpl ans
ĠO lymp
ac ing
Ġdec re
Ġsc ar
Ġca using
Ġyoung er
Ġeduc ational
Ġref erence
Ġcontin ued
Ġdire ctor
Ġfund ing
ĠThank s
Ġmeas uring
Ġocc asion
Ġfeed ing
Ġarchitect s
Ġbox es
Ġflo ating
Ġmechan ical
ĠMich ael
Ġimplic ations
Ġpoo rest
Ġnar row
l ock
v an
Ġa ck
es ity
Ġin ject
ar ant
Ġwh ale
Ġse lection
Ġfr ight
Ġfr ankly
Ġch ocol
Ġv ag
ĠA nt
Ġact s
Ġ2 50
Ġdis orders
Ġshe ll
Ġgu ide
Ġown ers
Ġcor als
Ġequ ation
Ġclass es
Ġincre ases
Ġconst rain
Ġant icip
Ġgreen house
Ġrobot ic
Ġtele phone
Ġearth qu
pro fit
Ġmamm als
ĠSte ve
Ġvacc ine
connect ed
Ġagre ed
bel ie
Ġwond ered
onym ous
Ġunex pected
ĠWik ipedia
9 0
g ly
i ety
r ors
u ps
ing ly
Ġp y
Ġf irm
ot a
im eter
ill e
ill y
ĠM ed
Ġcl us
ĠH iggs
Ġph arm
Ġoff ered
ĠF ound
Ġcar ried
Ġtrans fer
Ġinter f
Ġ19 50
Ġel im
Ġpar king
Ġsec ure
Ġexist ed
Ġarg uments
Ġviol ent
Ġdirect ions
Ġobs essed
Ġmathem atic
Ġbreat hing
Ġstru ck
Ġclin ic
Ġign or
Ġdrink ing
Ġautom atically
Ġir r
ĠMusl ims
Ġlibr ary
Ġdip lom
e ast
i op
er ge
it ory
Ġm ice
Ġd ign
ct ic
ro so
Ġst ro
Ġdo zen
Ġat om
Ġpro port
Ġmy ster
Ġkn ock
Ġsp ider
Ġpl aced
em oc
ĠT om
ĠL atin
Ġfl ood
Ġinst inct
he im
Ġmon keys
Ġcare ful
Ġeconom ies
Ġ200 9
Ġz one
Ġwind ows
Ġinteract ions
Ġperform ing
Ġrepres ented
Ġast ero
Ġdistrib uted
Ġdram atically
Ġscr ipt
Ġresist ance
Ġfab ric
Ġcos m
Ġsurge on
Ġrecy c
Ġmyst ery
b an
i as
u pp
re ts
at a
Ġc ash
Ġb en
Ġd ense
ut ing
et ch
im p
Ġst ands
am in
Ġch ip
Ġr hyth
Ġour s
are t
Ġar rest
Ġph ase
ict ed
ĠJ er
Ġtra ged
wh ile
Ġgr ateful
Ġteam s
Ġconsum ers
Ġrecogn ition
Ġmain ly
Ġspread ing
Ġproper ly
Ġdom estic
Ġbom bs
Ġcelebr ate
Somet hing
Ġcompon ent
Ġcorpor ate
Ġeleph ant
Ġtoile t
Ġoutc omes
F inally
b age
w ich
Ġs ed
ot es
et ers
st ruct
Ġst yle
ill ance
Ġne ither
ĠA ir
ĠS a
ain t
Ġta b
Ġover come
ĠJ ul
ĠU S
Ġcoll aps
Ġsol ving
Ġmet abol
Ġeng aging
Ġpop ulations
Ġ200 5
Ġexc l
Ġhouse hold
Ġill usion
Ġast on
Ġlif estyle
Ġsaving s
Ġprototy pe
Ġenem y
abet es
Ġpengu ins
c alled
i ance
o ca
Ġt ight
Ġt ube
is l
Ġb orders
Ġm ales
Ġh oney
if orm
Ġte a
ĠM e
Ġpr ices
ĠR ob
Ġsc ary
Ġob esity
Ġstory t
Ġgrow s
Ġhard ware
Ġbi od
Ġcol um
Ġpain ful
Ġfil ter
Ġcra ck
app y
Ġpract ices
Ġrece ive
iven ess
Ġ197 0
Ġcontroll ing
Ġmaint ain
ĠKore a
Ġphr ase
Ġobst ac
Ġack now
b al
r ary
t es
Ġl ung
Ġl oop
Ġst ack
Ġst retch
th rough
am s
Ġse m
Ġpro ced
rou s
Ġsee k
Ġtr ies
Ġpl enty
Ġwork er
ĠM ount
ĠH aw
ĠP e
ĠL a
ĠF e
ak s
Ġsm oke
Ġbr others
Ġra ising
Ġlet s
Ġcons erv
Ġgra b
Ġent ered
Ġpol io
Ġstr i
Ġpres ented
Ġgr ay
Ġrecord ing
Ġentreprene ur
Ġcooper ation
Ġphilosoph y
Ġdestroy ed
Ġexhib ition
Ġprecise ly
Ġacadem ic
ĠSwed en
Ġlic ense
Ġrom antic
Ġconvention al
ĠGh ana
Ġinequ ality
ĠOb ama
Ġantibiot ics
ĠRev olution
ĠFound ation
1 0
s um
Ġs ales
Ġp our
ed y
Ġl un
ra de
Ġab use
Ġgo lf
Ġne ut
og ue
ĠM a
ĠM al
ĠE m
ĠE th
ĠH ouse
ell o
Ġpre tend
Ġra w
Ġapp eared
Ġdesign s
Ġsl ides
Ġpartic le
Ġconnect ing
Ġpar allel
Ġris ing
Ġexpect ations
Ġtravel ed
Ġconcept s
Ġimm une
Ġprint ing
Ġsculpt ure
Ġunc ertain
Ġtit le
Ġvessel s
Ġscen ar
ĠApp le
ĠJan uary
C ome
P A
t op
w r
w alk
Ġt ip
Ġt asks
on ed
Ġd ict
Ġd io
Ġd ensity
as tern
Ġst ere
ce an
ra ction
Ġex cell
ĠA c
Ġ2 7
Ġpo cket
Ġgu arant
Ġperson ality
Ġimag ined
Be fore
Ġexpl o
Ġwalk s
Ġacc um
Ġcol ony
Ġsure ly
Ġclass ic
ĠHe alth
app ing
Ġinteract ive
Ġdep artment
Ġemb edd
Ġemerg ency
Ġdepend ing
Ġtransl ate
Ġappear s
Ġfasc inated
Ġspect ac
Ġthr own
Ġsurve illance
Ġrepe at
Ġattach ed
Ġlat est
Ġentertain ment
Ġlect ure
Ġperman ent
Ġrecom mend
Ġmush room
T e
g ers
p ower
Ġt ill
Ġm im
Ġy ield
id ers
ere nces
ke ep
Ġli ver
Ġat e
Ġor bit
ap e
ud es
Ġwhere as
ĠB udd
Ġun its
Ġdis order
ĠL eg
Ġcomm itted
Ġpre m
Ġwr iter
ub es
oc al
Ġshould er
Ġlove ly
Ġbeh ave
Ġexpl oring
pr ing
Ġheart s
ĠIs land
Ġinteract ing
Ġreach ing
Ġge omet
Ġaw esome
Ġdiv ided
Ġlaugh ing
ĠCong o
Ġconc ert
ĠIslam ic
Ġhabit at
Ġcand id
Ġcommit ment
Ġhun ger
Ġresc ue
ĠNob el
aren cy
Ġfurn iture
Ġchocol ate
roso ft
S S
g ic
u ous
u nder
Ġthe r
am ing
Ġu gly
Ġde lic
ear ch
qu ar
Ġus ual
Ġpl ot
ĠG old
ĠJ une
Ġpers u
Ġinv olves
Ġsc ream
Ġrep air
Ġmus cles
Ġcur iosity
Ġbre aking
Ġtreat ing
Ġdi abetes
Ġrecogn ized
Ġmagn etic
rel ated
Ġpainting s
Ġmanufact ure
Ġcustom ers
Ġreco very
Ġax is
Ġspo ken
Rem ember
Ġdio xide
D H
N ob
h att
i ated
u k
in als
Ġto ler
Ġp ace
or king
th at
th ink
Ġse ction
Ġsh r
Ġch est
Ġr ush
ĠA ct
os en
Ġsa cr
ĠH om
ĠD ay
ĠR w
Ġfl ash
Ġbr own
Ġplay s
Ġgl a
az z
Ġfin ance
Ġcontro vers
Ġsign ed
Ġopp osed
arr ator
Ġproduct ivity
Ġ6 5
ĠAr t
ĠSe cond
Ġball oon
Ġest imate
Ġachie ved
Ġce iling
Ġvirt ually
Ġconcer n
go ing
Ġshoot ing
Ġaspect s
Ab out
Ġpy ram
hatt an
M S
W ow
c ence
d oll
p ass
v as
Ġt ired
Ġw ings
re y
er ation
Ġp ink
or g
id a
Ġas semb
Ġmo ld
Ġli kes
Ġma xim
Ġwant ing
Ġta g
ag ger
ĠB ab
ĠB ush
ĠN G
Ġshe ep
Ġmon itor
Ġanim ation
Ġcor n
Ġage nda
Ġche aper
ex as
Ġes cape
Ġpur ch
Ġer adic
Ġreport ed
Ġconflict s
Ġdisapp eared
Ġcolleag ue
Ġsand wich
Ġport ra
ĠCent ral
Ġscr atch
Ġreb uild
ĠRo bert
Ġincent ives
Ġprivile ge
Ġadj ust
Ġbicy cle
Ġdign ity
Ġembedd ed
A R
n ic
o ir
Ġt ro
Ġc ute
Ġd iverse
Ġg ig
le vel
le te
Ġbe g
id ay
Ġab and
Ġcon ven
Ġv ital
Ġback wards
ĠP eople
ĠT or
ĠL ook
Ġher oes
ph ones
Ġpre f
Ġins urance
Ġprodu ces
Ġmet er
Ġhard ly
Ġgener ated
Ġdev ast
Ġconst it
cl ass
Ġleg isl
Ġgrand father
ĠSe c
Ġapart ment
ze es
Ġaccept ed
Ġengage ment
Ġign ore
ĠMan hattan
Ġlad ies
Ġneighborhood s
Ġfro zen
Ġvolunte ers
Ġauth ent
Ġremo ved
Ġvert ical
Ġorch est
ĠStan ford
Ġdisg ust
Nob ody
A h
S P
h en
r as
Ġc ens
Ġb on
Ġl in
le ton
Ġn it
im ent
ur ation
Ġst ations
Ġas ide
Ġsh ake
ter y
Ġch amp
Ġal ien
ĠC op
Ġen h
Ġun belie
ĠT exas
ĠN ations
ang le
cent ury
ph as
ĠO x
Ġtra um
Ġsc ales
ost er
Ġ3 2
Ġbo om
Ġrep ut
Ġinf l
Ġorgan ize
Ġdef end
Ġcontin ues
Ġmeet ings
aw s
Ġleg it
Ġleg acy
Ġdark ness
Ġfoot ball
Ġredu ction
ĠTh omas
Ġfunction al
Ġrain forest
Ġcapt ured
Ġstrateg ies
Ġjud ge
Ġnor thern
Ġadop t
Ġdolph ins
Ġteles cope
Ġeld er
Ġdedic ated
ĠMic rosoft
ĠEth iop
f all
p art
u a
Ġthe ories
Ġc up
ar p
Ġch osen
and em
ĠS cience
Ġact ors
Ġexp ans
Ġexp osed
Ġbu bb
Ġimp er
Ġfl ip
Ġinst ant
Ġla ughter
arch y
ĠSo v
Ġgovern ance
Ġglob ally
Ġchar ity
Ġequ ality
less ly
Ġcollect ing
Ġmiss ed
Ġaccess ible
Ġsil ent
for ward
Ġdro ve
Ġunivers ities
Ġcontrib ute
Ġcry ing
Ġoptim istic
Ġsus pect
Ġmotiv ation
Ġalgorith m
Ġpun ish
Ġpow ers
Ġadvert ising
Ġshad ow
ĠHa iti
Ġhung ry
1 00
h ib
i ology
Ġa im
Ġb at
Ġm arch
Ġf ulf
an throp
Ġe ast
us ions
ch ildren
Ġan gle
th al
Ġme g
un clear
Ġtr i
Ġev olve
pt ions
ĠT alk
Ġres olution
ĠJ ack
Ġfind s
ĠU g
Ġpat ent
Ġatt rib
Ġold est
Ġsk ull
Ġprob ability
Ġdist ant
Ġpar as
Ġprov ides
Ġamong st
Ġtouch ed
Ġmechan ics
Ġsearch ing
po x
Ġeffort s
Ġweap on
Ġhistor ical
Ġrout e
Ġtal ent
Ġinit ial
Ġneuros cience
Ġmicros cope
Ġsatis f
Ġencoun ter
Ġearthqu ake
m un
Ġt ears
Ġw ip
Ġb orrow
Ġh ol
Ġd ust
as y
ic op
Ġyou th
Ġbe er
ul se
Ġfr uit
ck ets
ĠM ad
Ġle ap
Ġqu ad
Ġun p
Ġ2 6
Ġlo cked
Ġher self
Ġlet ting
Ġinv ite
Ġcar r
Ġsch ol
Ġmin ister
ĠAfric ans
Ġelse where
Ġcontrol s
ĠIntern ational
Ġlim b
Ġess ence
iet nam
Ġflu id
Ġneur on
Ġfa cial
ĠChrist ian
yr ight
Ġsimpl icity
Ġelectron ics
Ġbound aries
Ġseed s
Ġsmo oth
Ġtransp arent
ĠAtl antic
Ġbare ly
Ġingred ients
Ġapparent ly
Ġtranspl ant
Ġsuic ide
doll ar
C l
M A
O b
P l
S im
W omen
c ut
c ase
h an
n ov
Ġ 0
Ġ id
Ġw ound
Ġb oss
Ġp ra
Ġf ifth
Ġd er
Ġd ump
or ter
ar i
Ġg on
Ġwe t
Ġre ly
Ġab und
Ġj un
Ġr ating
Ġint ention
ĠS am
ĠS ome
ast roph
ard o
Ġag es
Ġlo b
Ġspe ll
Ġcont ains
Ġunder ground
Ġpre v
ĠJ es
oc in
Ġob l
Ġdr ill
Ġmin or
Ġair craft
Ġtre nds
Ġview s
Ġinnov ations
Ġcommunic ations
Ġmar gin
Ġheav en
Ġut ter
Ġsymmet ry
Ġreef s
Ġcrim inal
Ġpregn ant
Ġtraged y
1 9
d ing
i xt
k a
Ġh ire
Ġf ib
Ġd irty
or al
Ġl aser
Ġn a
ut ch
ur a
Ġst ages
ce l
Ġsh rim
Ġor ange
Ġcon ce
ive red
qu are
Ġint ent
Ġpo ison
ĠT al
Ġlo ck
Ġbl ank
Ġreal m
Ġafter wards
Ġgl ad
Ġpoint ed
Ġvis ited
ĠV ietnam
Ġair port
Ġ200 4
Ġpar aly
Ġret ire
Ġdel ight
Ġball s
Ġlay ers
Ġmechan isms
Ġlink s
Ġmethod s
Ġsymbol s
Ġbelief s
Ġtransp arency
ĠPal est
Ġsurf aces
ĠJew ish
Ġdomin ant
Ġfert il
Ġuncom fort
l i
r ant
r ons
w ar
z ens
Ġth umb
ou st
it ate
Ġh at
Ġto ys
Ġd ive
Ġd iver
Ġl ift
om a
ro l
ig ation
Ġst able
Ġse ats
Ġex ternal
Ġr ic
Ġma il
Ġyour s
Ġev alu
ĠB ible
ĠE ve
ĠP ol
ĠD el
Ġcomm od
ĠIt aly
Ġele g
Ġlight ing
Ġbi as
ird s
Ġcap ita
Ġadd ing
Ġgr anted
Ġstop s
vious ly
Ġspeak er
Ġ12 0
Ġconsum e
Ġinsp ire
Ġterror ists
Ġcat astroph
Ġcru cial
ĠWh ite
Ġcro ps
ĠGra nd
Ġpil ot
Ġpassword s
Ġdiag ram
Ġdatab ase
Ġath let
F our
I nt
t ocin
Ġt rop
Ġw aters
Ġh ier
an z
es ter
Ġg ro
ion e
se ction
st h
ind er
Ġout put
ĠC ount
od ed
Ġtw e
Ġdis rupt
ĠH y
ph or
Ġem phas
Ġgen oc
Ġgen ius
Ġstr angers
Ġrec ru
Ġfar mer
Ġear n
Ġcap ability
Ġpass ing
arent s
Ġmusic ians
de f
Every one
Ġdel ivered
Ġdep ressed
Ġpost er
Ġsuggest ing
Ġtext book
Ġvac u
Ġann ounced
Ġafford able
Ġcalcul ate
Ġeth ical
Ġdemonstr ate
Ġjournal ist
Ġsmo king
ĠFl or
Ġintu itive
Ġisol ated
Ġchimpan zees
Americ an
Ġspectac ular
ĠOx ford
ĠUg anda
N arrator
a j
b its
d am
r it
w est
Ġ x
Ġa er
Ġw ing
Ġc ab
Ġp ile
Ġp andem
al ian
Ġn ets
Ġne at
Ġne ural
Ġch ief
Ġpe er
ide o
Ġup set
em en
iz oph
ĠM ac
Ġhapp ier
Ġcl im
ĠE astern
ia c
ĠL ad
Ġrel ax
Ġmon it
Ġed ges
Ġacc idents
Ġelect ions
Ġdist rict
Ġtreat ments
Ġdra wn
Ġspeak ers
Ġbreak through
Ġextre m
Ġorig ami
Ġpull ing
Ġinsp iring
Ġdeg rad
Ġcirc les
Ġparticip ants
Ġinteg rated
Ġtun a
Ġcateg ory
ĠWill iam
ĠSm ith
Ġshrim p
Ġuncomfort able
Ġric her
2 00
N umber
U s
f ess
p en
r id
Ġw id
is phere
Ġb ars
Ġin k
om b
Ġan throp
Ġdo zens
Ġso ap
Ġch rom
Ġsp r
os al
os ure
ĠS il
og ether
Ġper pet
Ġqu it
Ġman if
ach es
Ġun h
Ġpart ies
Ġshe et
co hol
Ġem erge
Ġtra ject
ub a
Ġhel icop
Ġbas k
Ġcons ult
Ġbi ologists
Ġreg ret
Ġdist urb
Ġdef ense
ming ly
Ġvar iation
Ġve ter
Ġprotect ing
Ġpredict ions
Not hing
Ġorig in
Ġphotograph y
Ġredu ced
Ġinclud es
Ġcharacter istics
Ġdepend ent
Ġsepar ated
Ġdeb t
Ġbank s
Ġtrick s
Ġconcl ude
Ġdynam ics
Ġagricult ural
ĠBl ack
Ġchap ter
ĠCam br
Ġridic ulous
heim er
Ġlun gs
Ġreput ation
F ive
b ra
f old
o or
o nds
Ġa esth
Ġs ession
en ger
Ġp icking
ĠI ce
ut ical
ly n
ch e
op her
am ine
Ġj elly
est ed
Ġsp ark
Ġsp ots
ĠM ark
Ġag encies
ĠD emoc
Ġbl ame
Ġra il
Ġinter vention
Ġla id
ĠV ir
Ġset tle
Ġphot ographer
Ġpain ted
Ġident ified
Ġobs erv
Ġimpact s
ĠSe a
Ġfu els
Ġreport s
Ġimprove ment
Ġreturn ed
Ġdeterm ined
Ġphysic ist
Ġinteg r
Ġconsequ ence
Ġtrib es
Ġecosystem s
Ġteen agers
Ġunlike ly
Ġsynth etic
Ġbrief ly
Ġfed eral
Ġpros per
Ind eed
Ġreven ue
Ġdiction ary
Ġanx iety
Ġignor ance
ĠSov iet
ĠFlor ida
T r
b ul
o ber
Ġt ied
at om
Ġm ate
on ic
Ġg h
Ġst ores
Ġk iss
Ġkn ee
Wh ether
ĠC A
od ing
ace utical
Ġcl iff
Ġun pre
Ġdis ag
ĠP ole
Ġad ap
ob s
Ġinc ident
ĠO cean
Ġapp le
Ġsch izoph
Ġent h
Ġ19 5
Ġstr ip
Ġsmall pox
Ġop ens
rib ly
Ġ200 6
Ġglobal ization
Ġrob ust
Ġland ed
Ġexperim ental
Ġdig it
Ġorig inally
Ġsou thern
Ġremind ed
Ġcry st
Ġdimens ion
ĠAd am
Ġreco ver
Ġrepe ated
Ġtruck s
Ġwheel ch
Ġconstruct ed
Ġbran ch
Ġbath room
iat ric
Ġwel come
B C
G od
T w
b ut
e k
m od
r ich
z heimer
Ġth rew
Ġw ise
at ts
er ving
Ġm all
Ġh anging
Ġf iber
Ġin ches
Ġl on
Ġl ux
Ġn aked
Ġbe et
Ġre nt
ct ober
ra w
Ġdo ors
Ġpro of
ca pes
ist ed
Ġal cohol
Ġact or
ĠM and
ĠM ary
ĠB ay
ĠB ur
Ġag ency
Ġcl ients
ĠN et
Ġunder lying
Ġad oles
ick s
ob ile
Ġbr ib
ĠO n
Ġsim ult
Ġbi o
Ġcap s
ĠV en
ught ers
ĠTED Talk
Ġpos itions
Ġsens ory
Ġsent ences
Ġpredict ed
Ġfac ility
Ġcop yright
Ġbra ve
Ġult ra
Ġnuc le
Ġprim arily
Ġcross ing
Ġcitiz en
Ġdiscover ies
Ġassum ptions
Ġoxy tocin
ffic ient
ĠPr ize
Ġrare ly
Ġinj ury
ĠGl obal
ĠGen eral
Ġcha os
Ġnurs es
ĠDep artment
ĠRw anda
Ġgla ci
Ġpyram id
Ġlin ear
Ġvacu um
A f
G et
h al
k in
p ond
r ome
t ical
y a
z ero
Ġth resh
Ġw ra
Ġs le
Ġs ulf
Ġp unch
Ġf ool
Ġf ract
Ġf ought
Ġin herent
ic ious
Ġst om
op ard
Ġsp a
ĠS ing
ĠS uper
Ġcomp rom
ach e
ĠG and
Ġar row
ĠR iver
Ġcour t
Ġcar ing
Ġdr ivers
Ġmod e
Ġart istic
Ġfar ming
Ġreg ener
Ġfig uring
Ġ7 00
att ered
Ġhold s
Ġgrand children
Ġstick s
Ġtar gets
Ġtransl ated
Ġpush ed
Ġsal t
ĠSp ace
Ġexpand ing
Ġdinos aur
Ġhack ers
Ġshop ping
Ġreve al
Ġshel ter
Ġextend ed
Ġinev itable
Ġbeg un
Ġbubb les
Ġschizoph ren
B I
L ife
b ru
b orn
i ens
l ar
m akers
Ġs its
Ġh ip
on ia
ar an
Ġg ases
ur se
op y
Ġme al
Ġch airs
ca p
ie l
ĠS im
ĠS yr
el f
Ġsa cred
ment ed
iz ar
Ġper mission
Ġexp ed
Ġcl ar
Ġ2 8
ĠH ollywood
Ġres on
ell er
ĠR io
ĠW all
Ġinv olve
Ġown er
Ġsc ores
Ġatt itude
gg ing
Ġansw ered
Ġobject ive
Ġfocus ing
ĠAl zheimer
Ġobs ervation
ĠBe ij
Ġvol can
Ġemerg ed
Ġprim itive
Ġpu pp
Ġthrow ing
Ġbur st
Ġpan els
ĠCar ol
ĠQ ue
ĠArab ic
mark et
Ġfrequ ency
Re ally
Ġconsist ent
ĠSat urn
ĠMart in
ĠAnt ar
Ġelder ly
Ġgon na
Ġchrom os
P M
a uc
f ree
h alf
l iam
o cent
r iger
Ġs ink
Ġs isters
er d
er r
it udes
en a
Ġh ill
ar l
al i
ow ing
Ġab ilities
ill a
Ġsh arp
ul um
Ġr ice
Ġde ar
Ġsa v
ap or
ĠB ob
Ġpart ly
Ġac id
Ġfl our
ath ered
Ġsm arter
ĠJ eff
ĠO ctober
Ġwr iters
Ġhelp ful
Ġhigh light
Ġimag ery
Ġser ved
Ġstu nt
Ġsub tle
Ġreg ime
Ġconf ident
Ġmag ical
Ġmeas ures
Ġdifficult y
Ġsens or
ove mber
Ġoper ations
gen cy
Ġsuggest ed
Ġprom ote
Ġprop osed
Ġarr ay
Ġsleep ing
Ġbar rel
Ġparticip ation
Ġgraph ic
Ġdisapp oint
Ġcollabor ative
Ġphil anthrop
Ġdoc uments
Ġdiagn osed
Ġsatell ites
Ġpurs ue
Ġflex ible
ĠCE O
Ġforgot ten
Ġens ure
Ġautonom ous
Ġresil ience
Ġmyster ious
ĠEthiop ia
Ġexpans ion
ĠVir gin
" ]
D A
E C
E T
E n
Q u
e ep
Ġt ear
at ural
er able
Ġc as
Ġc ott
Ġm ur
Ġh itting
Ġp ione
ar ry
Ġwh is
ot hing
Ġwhat so
Ġhe y
Ġpro sth
ear t
Ġpl ain
Ġpl ug
iz er
ĠM RI
ud i
ĠB on
Ġneed le
Ġbu cks
ĠD ere
Ġro ots
ĠL ab
ĠW al
ĠJ im
Ġtrans m
ĠSt ar
Ġel ite
Ġopen ness
Ġcur ren
Ġdef e
Ġ200 3
Ġref riger
ins on
Ġass ess
Ġprogram ming
Ġaud io
Ġrad ically
Ġfail ing
Ġsupport ed
Ġjo int
Ġkey board
Ġphotograph ed
Ġimm ense
Ġimmedi ate
Ġbur ied
Ġstrugg ling
Ġvict im
Ġbase ball
Ġliber al
Ġaddition al
Ġanaly ze
Ġske pt
Ġenter pr
Ġtrib e
atr ix
Ġmill enn
Ġeleph ants
Ġgather ing
Ġdial ogue
Ġcolon ies
Ġmere ly
Ġaston ishing
Ġbiod iversity
izar re
Ġwhatso ever
1 8
G reat
l ow
m ates
w orth
Ġt one
Ġthe ore
Ġs illy
it ous
Ġm ood
on ing
Ġd uck
or a
or an
or por
Ġl amp
Ġg ee
al a
Ġha m
ol i
Ġch ron
Ġcon vert
un ction
ĠS und
Ġle verage
Ġag ent
ĠG ates
ĠP an
ib an
ĠT itan
Ġph os
ĠF in
ĠF irst
Ġfl ows
ars h
Ġend ing
Ġfound ed
Ġcomple ted
Ġinteresting ly
Ġgr at
Ġself ish
Ġcra ft
Ġ9 5
Ġsuccess fully
Ġexpect ancy
Ġshap ed
ĠBr own
Ġda ughters
Ġdel iber
Ġexplain ing
Ġindust ries
Ġarr ive
Ġsold ier
Ġexcept ion
Ġdom ain
Ġfra ction
Ġdemonstr ation
Ġshock ed
ĠRuss ian
Ġclimb ing
Ġrout ine
Ġfab ulous
esth es
Ġdolph in
Ġrefuge es
Ġlawy er
Ġsla very
sem ble
Ġinstruct ions
Ġgenoc ide
ĠCambr idge
Ġwheelch air
bru ary
liam ent
f e
s c
y ard
Ġa qu
Ġw ider
er b
Ġc ig
Ġc able
Ġc ert
Ġc ats
Ġb izarre
en ly
ed ay
Ġl it
ĠI nt
Ġst ab
if ice
Ġwas hing
Ġbut t
Ġte ch
el a
Ġcomp os
ĠM or
ag os
Ġdes cription
int erest
Ġown ed
con f
Ġcap abilities
Ġpub l
Ġwar ning
Ġconf used
Ġcur ric
Ġ200 1
Ġcra w
Ġfund ed
Ġinvest ed
Ġsurv iv
Ġstrong ly
Ġarchitect ural
eng ine
Ġsuff ered
Ġrepresent ation
Ġtransl ation
Ġmeth ane
Ġprep are
Ġsurprising ly
Ġske let
Ġske leton
cop es
Ġinform ed
Ġtor t
Ġrefuge e
ĠGree k
Ġperce ive
Ġintr ig
Ġhypoth esis
oos ing
Ġaccompl ish
emb ered
Ġcorres pond
Ġproport ion
Ġunbelie vable
Ob viously
Ġmanif est
Ġbask et
L A
P h
p arents
s p
u ity
v ille
Ġt ong
Ġa in
en cing
Ġd im
ed a
as on
ic ian
Ġn erve
Ġn urse
Ġbe ars
se y
st age
ro ad
Ġst ake
ce mber
Ġu b
Ġse w
Ġch am
Ġch oosing
Ġr ivers
Ġde cent
um es
ist ically
Ġtr ash
ment al
ab y
ĠB ron
ĠL ED
pl ay
Ġsim ulation
Ġent ering
Ġstr anger
az e
Ġcor rel
Ġhome work
Ġelect ed
Ġwee ke
Ġeduc ated
Ġche ese
Ġadv oc
Ġ8 5
Ġ8 00
ĠAr ch
ĠAr ctic
Ġbreak s
Ġtem pt
Ġlea f
Ġthreat s
ĠDe cember
Ġcart oons
Ġinfect ion
ĠIsl ands
Ġtun nel
Ġmix ed
Ġgold en
Ġattract ive
Ġtum ors
ĠNor way
Ġsynth es
Ġfrag ile
Ġadop ted
Ġgar age
Ġnutr ition
Ġneuro log
Ġfortun ate
Ġlawy ers
Ġmira cle
Ġhem isphere
Ġpharm aceutical
Ġstro ke
Ġuncertain ty
fess or
B M
B ack
T urn
W ill
f riend
h op
s un
v iol
w orking
y al
Ġw ired
at i
Ġb oo
Ġb ored
en h
Ġd umb
st one
Ġsh out
Ġsh ips
Ġne ck
il ize
Ġr ats
Ġor ph
um ble
ate ver
ĠA h
ĠC oun
Ġcomp elling
Ġsu ck
ĠD et
rain ed
other ap
Ġreal izing
pl ed
Ġbr ut
Ġgen etically
Ġpers ist
Ġrem embered
Ġdist ingu
Ġmem br
Ġrest ore
Ġrest rict
Ġkill er
cl ock
Ġexpect ing
Ġsqu ee
Ġfast est
Ġcompet itive
Ġaffect s
Ġexperien cing
Ġclos ing
Ġterror ist
Ġmagn itude
Ġauthor ities
Ġjud gment
Ġphysic ian
Ġmicrob ial
Ġgrad ually
Ġintu ition
Ġreplic ate
Ġadvent ure
Ġtack le
ĠTal iban
Ġparaly zed
ĠBeij ing
M e
N ever
V ideo
] .
f lies
g ence
k ins
m aker
r un
s ch
Ġs in
Ġc ous
Ġto oth
Ġp ale
ow ers
Th rough
ur able
Ġsh ots
Ġch ances
Ġcon g
Ġsp ray
Ġup d
ĠS pan
Ġen ables
ĠM iss
Ġle ather
ach ing
Ġun able
ĠG ore
Ġpr ide
Ġdis m
ĠP eter
ang ible
Ġdes erve
ĠL ib
ĠW ith
Ġrem aining
ĠCh urch
Ġsch em
Ġtrans cend
ost ic
Ġimag ing
Ġart icles
Ġmin ing
Ġfood s
Ġhead ed
Ġdem ands
Ġca ke
Ġadd ict
Ġchar ges
Ġinn ocent
Ġocc urs
Ġimpro ved
Ġtrad itions
Ġstay ing
Ġwin ning
Ġbene ath
ug ust
Ġinclud ed
Ġjump ed
Ġcover ing
yr us
ĠQ u
Ġprofound ly
Ġfort une
Ġhom eless
Ġwide ly
Ġinstitution al
Ġinit ially
Ġnegot i
Ġprofession als
Ġbes ides
Ġexpon ential
Ġsen ior
Ġtraject ory
Ġenth us
Ġthresh old
ĠDere k
B F
H i
N ext
S ah
b ar
d es
f our
f ield
g u
i ogen
k ind
l im
n es
s hip
x ual
Ġ Then
Ġa h
Ġp airs
Ġd an
Ġd ile
Ġl ap
Ġg aps
ic ient
Ġn urt
ct u
all ow
op ath
op les
ad ing
ad ays
Ġcom ments
Ġsh ore
Ġch ips
Ġr h
Ġpe oples
Ġal ph
Ġsp ont
ĠS ou
act ive
ĠM ah
Ġle an
ag ue
Ġbu g
ang ed
ound ing
ĠL ou
ĠL ike
ĠF re
ĠJ o
Ġdr one
Ġmet ric
ced ented
Ġpres erve
Ġdist ort
Ġval id
ott ed
Ġmusic ian
Ġsec rets
ien ces
Ġdel i
Ġsurv ived
Ġapproach es
Ġciv ic
Ġobs erve
Ġfoot age
Ġmar ry
Ġste al
Ġfac ilities
Ġprin ter
Ġer rors
Ġtrack s
Ġreact ions
Ġtend ency
Ġdetail ed
Ġassum ption
Ġinflu enced
Ġburn ed
Ġphysic ists
Ġvulner ability
edd ing
ĠMin ister
Ġsubst ance
Ġgod s
Ġqual ities
ĠFe bruary
Ġscenar io
Ġshr ink
Ġpandem ic
Ġcurric ulum
ĠBron x
G ive
G irl
S pe
a a
Ġt sun
in arily
er ies
Ġc ub
Ġd ow
Ġl one
Ġg athered
Ġn om
Ġre hab
ere r
if er
Ġdo p
ad ed
ol ic
Ġcon vey
Ġout er
Ġsp ons
ĠA ugust
ĠS quare
em ploy
Ġen gin
are s
ag en
Ġcl othing
Ġun iform
ĠD is
ĠL ong
ire ct
Ġfact ories
Ġbr ows
ĠO s
Ġask s
Ġinst antly
Ġform ing
Ġform al
Ġdist ract
Ġsoci ally
Ġwo ke
Ġprof ile
rop y
Ġinvest ing
Ch ina
Ġminds et
Ġsignific antly
Ġsou p
Ġport ion
Ġoptim ism
Ġsus p
Ġpig s
Ġur ge
Ġfro g
Ġinsight s
Ġodd s
Ġchann els
Ġnutr ients
Ġagg reg
Ġagg ressive
Ġfrustr ated
Ġsubst ant
Ġconduct ed
Ġinterpret ation
Ġcompar ison
Ġque en
ĠTur key
ĠBro ok
Ġglam orous
ĠJes us
Ġunpre cedented
Ġsimult aneously
Ġdile m
Ġengin es
M T
T ell
b ing
f ast
p ress
in i
Ġw est
is c
is y
Ġd ies
Ġd ung
Ġl ions
Ġbe ll
se e
Ġan onymous
est r
qu is
Ġte nds
and ering
Ġtr iv
ĠM oo
Ġexp ort
Ġco ca
ĠH igh
Ġac oust
ĠO k
Ġind ig
Ġrem ained
Ġcour ses
ail s
ĠK en
Ġ3 3
Ġla ke
Ġext ension
Ġser ving
Ġhealth ier
Ġsub way
Ġdem ographic
Ġmor ality
Ġkill s
end ing
Ġstruct ural
Ġbott les
Ġexplain s
Ġimpro ving
Ġcomb at
Ġmedic ation
Ġlif es
Ġarr ange
Ġflow ing
Ġaccount s
Ġstrateg ic
Ġwild life
Ġpurp oses
Ġroll ing
Ġwealth y
Ġir re
Ġhall uc
Ġcru el
Ġgentle man
ĠNor thern
Ġrestaur ants
Ġgar bage
Ġexpert ise
Ġrub ber
Ġanalog y
Ġtrig ger
Ġcontem porary
look ing
Ġowners hip
Ġobstac les
Ġconserv ative
quar ters
ĠHom o
otherap y
Ġdeli very
4 0
D r
E M
] ,
f ram
h uman
l ings
p rodu
u ke
at ar
it ating
an i
an gh
Ġin hab
Ġg ear
Ġg ate
as m
ĠI m
us iness
Ġbe nd
Ġre cept
im al
ch ron
Ġsh ipping
ant om
Ġsom eday
Ġout s
ĠS ar
og ram
ast y
ag on
ud ed
Ġimp ression
ĠH ill
Ġgot ta
ĠD utch
Ġcont rad
co st
Ġpre c
ath an
ĠJ oe
ren ce
Ġpoint ing
Ġ3 6
lic it
Ġinter rupt
Ġdr ones
Ġcr ick
Ġprot o
Ġcam ps
Ġloc ated
Ġexc it
Ġtrain s
Ġnon profit
Ġsupport ing
Ġfriend ly
Ġvers ions
Ġfear s
Ġdraw ings
Ġflu ores
Ġcompassion ate
With in
Ġfem ales
Ġthreat ened
Ġtrou b
Ġpan el
Ġprint ed
Ġremind s
ĠSp ain
Ġblog s
Ġclassroom s
ĠiP od
Ġairpl anes
Ġcos mic
Ġcateg ories
Ġtick et
Ġestablish ed
Ġhunt ing
Af ric
Ġub iqu
ĠCoun cil
Sah aran
ĠSou thern
L e
W oman
a ves
k ward
y ou
z ee
re ens
Ġm atrix
Ġh ors
Ġf ile
ar ge
om in
Ġis lands
Ġon going
ust ed
um in
ect ive
Ġint im
Ġup side
ĠC D
Ġen erg
ĠM arch
ĠB u
ip ts
Ġun cle
orm al
ĠH ave
Ġar med
ass es
Ġlo ves
per form
Ġcount ing
ord s
Ġgen u
Ġgen etics
Ġrel iable
Ġbelie ves
Ġent ropy
Ġplan es
Ġext inction
Ġcre w
Ġcomput ation
ote chnology
Ġfun g
ĠInd ians
Ġconnect s
Ġbad ly
Ġsix th
Ġnight s
Ġclass ical
Ġ[ "
Ġred esign
Ġperform ed
Ġredu cing
by e
Ġclos est
Ġaw kward
Ġpeace ful
Ġpa use
Ġgraph ics
Ġdetect ion
Ġdesp air
Ġsus pe
Ġscan ner
Ġoffic er
Ġalt ru
Ġpoem s
Second ly
Ġincent ive
ĠSc ott
min ute
.' "
Ġinev it
Ġdiscipl ine
Ġritual s
Ġexplos ion
Ġoccasion ally
ĠSa udi
Ġcolum n
Ġstere oty
Ġexcell ent
Ġcig aret
Ġtong ue
Ġdop amine
Ġexcit ement
P ut
P ro
R B
R S
m ade
w ind
Ġt ut
Ġt ie
in ter
it ative
Ġb ats
Ġh o
Ġg am
Ġn erd
Ġbe ating
ct ica
Ġcan opy
Ġas h
Ġcom edy
Ġor ient
Ġde ck
Ġup load
ĠS om
ĠM other
Ġper cept
Ġcl ay
Ġcl ient
Ġover l
Ġimp ressive
ĠH all
ĠT es
ang es
ĠD es
Ġpre cious
Ġpre val
Ġinc om
ĠO f
ne ys
row ing
Ġtra gic
Ġgra m
Ġter ribly
Ġstr ike
Ġbus h
Ġsub t
ĠV er
Ġprof its
Ġcontin ents
Ġcontin uing
Ġdev il
Ġinvest ors
app ed
Ġoper a
Ġlow est
Ġgrand parents
Ġrobot ics
Ġapproach ing
Ġnear by
Ġhar ness
Ġspread s
ĠAs ian
Al though
put er
Ġearl iest
Ġann ual
Ġmagn ific
Ġappear ance
Ġ201 1
Ġphenomen a
Ġpack age
Ġstraight forward
Ġcatch ing
Ġglass es
ĠLe on
ĠOr gan
Ġgradu ated
Ġapply ing
Ġtiss ues
ĠBl ue
Ġjournal ists
Ġgun s
cop ic
Ġcorpor ations
Ġstim ul
Ġveget ables
Ġrein vent
Ġtow er
Ġrecon struct
Ġshif ting
Ġfortun ately
Ġencoura ged
bur gh
Ġitem s
Ġsacr ifice
ĠDel hi
phor us
Ġlux ury
ĠSpan ish
Ġgenu ine
G l
K B
N one
a id
c ro
e fficient
h ist
Ġt une
Ġt ubes
Ġw ires
Ġc ath
it age
it ated
Ġb ind
Ġf its
Ġf ancy
an ia
Ġd ressed
ed s
ed ge
ic ial
Ġre think
Ġst ability
if ully
Ġan ge
Ġne oc
il ty
Ġj ew
Ġex cess
Ġpro l
um ines
Ġal b
Ġal ign
Ġsee mingly
ĠA ny
Ġsa uce
ast ics
ĠM ag
Ġman agers
ud ge
ĠB as
Ġun employ
Ġdis ability
ĠT el
ĠT anz
ang ered
ĠD en
Ġro se
Ġlo an
Ġph antom
Ġam ate
Ġtra its
av a
ĠIt alian
Ġgra v
Ġdr own
Ġ20 50
Ġfar ms
ĠY our
ĠIn ter
Ġsk etch
ĠV ery
Ġpass enger
Ġsign ature
Ġresearch er
ush ed
ane ous
Ġfree ly
Ġspeak s
Ġrev ol
Ġtem porary
Ġeat en
Ġpredict ion
Ġrelig ions
ey n
Ġcirc uits
Ġcompet e
Ġaffect ing
Ġprop ose
Ġprop ag
With out
Ġec ological
Ġann oy
Ġlands capes
Ġdam n
Ġbur den
Ġachieve ment
Ġeth nic
Ġinterview ed
Ġbroad cast
Ġnut s
Ġaltern atives
Ġphilos opher
Sh ould
ĠCom m
Ġparad ox
gra de
Ġteen ager
Ġprevious ly
uild ing
Ġperce ived
Ġchimpan zee
Ġbran ches
Ġped estr
itz er
ih ad
Ġnavig ate
Ġarrest ed
Ġcollaps ed
ĠNG Os
Ġschol ars
Ġmonit oring
Ġcott on
Ġcurren cy
esthes ia
Ġdow nt
angh ai
1 2
N ew
T en
a way
l ist
m ony
nd rome
Ġb in
Ġh iding
Ġd ys
Ġd ating
or age
Ġin ex
le nd
Ġre cess
Ġha bits
Ġst atic
am ps
Ġsh irt
nt il
Ġyour selves
our t
ĠC ome
ĠC amp
Ġwork force
reat ing
are st
Ġman ager
Ġ2 9
Ġpo ckets
ĠT as
Ġro pe
Ġlo ving
Ġres olve
pl ess
Ġcomm ission
Ġoff ices
Ġoff ering
Ġra pe
Ġend angered
ĠK oran
Ġnum er
Ġrec all
Ġsmall est
Ġhard est
Ġed itor
Ġgener ous
Ġsk i
ĠV an
Ġca ves
ĠInd ones
Ġdist ances
ash ed
Ġvir al
Ġcollect ively
els on
Ġimpro v
Ġsaf er
ev in
Ġrespons es
Ġrepl aced
Where as
Ġcamp us
Ġtransform ing
Ġsyn chron
Ġdiv or
Ġ201 2
Ġprison ers
ĠJohn son
Ġhyd ro
iber ia
Ġdiagn osis
Ġcustom er
Ġflag s
Ġrat io
Ġassign ment
cont roll
Ġdrag on
Ġassist ance
Ġmak ers
Ġadminist ration
Ġsubs id
Ġdecre ase
Ġvag ina
Ġastero id
Ġproced ure
Ġguarant ee
Ġfib ers
Ġjelly fish
Ġstom ach
ĠAntar ctica
ĠSund ay
Ġtsun ami
O L
P re
S ame
S ix
V oice
d ig
l ers
Ġt att
at ivity
Ġc rop
is ons
en ry
Ġh ired
Ġp atch
Ġf usion
Ġd iving
Ġg ained
Ġst orage
ch anging
ol n
ci p
ĠS ud
ĠS ystem
iz ers
Ġco at
ĠB o
Ġag ents
Ġcl ue
ĠH i
ĠP art
ĠT wo
ĠD V
Ġad s
ĠR ay
ĠF BI
ĠJ uly
Ġbuild s
we ight
Ġsc rew
Ġrel ation
he a
Ġsci ences
Ġins ul
Ġinter ven
Ġinter ior
Ġsl ime
Ġsl ums
Ġwar r
Ġadd iction
Ġpass ive
ĠNew ton
Ġloc om
Ġterr ifying
omet own
Ġwind s
Ġaud iences
Ġsens ation
Ġbreak fast
Ġspecial ized
Ġenc ry
Ġpredict able
Ġcy cles
Ġste pped
cr im
Ġsil ver
Ġest ate
Ġbed room
Ġfa ult
Ġmob ility
Ġdiscover ing
Ġmis erable
Ġign ored
Ġwhe at
Ġwhe els
Ġpark s
Ġteen age
inc oln
Ġsucceed ed
Ġunc onscious
ĠNe ander
Ġencoura ging
Ġestim ates
ĠMo z
Ġdesper ately
ĠAlex ander
Ġmathematic ians
Ġrhyth m
Ġtro ops
Ġhelicop ter
Ġschizophren ia
Ġphos phorus
ĠMoo re
Ġcoca ine
Ġubiqu itous
B oy
E ight
H ello
M ake
P r
P art
R N
S p
a o
c ol
e ge
l ades
r ance
s ized
in th
in ery
Ġw edding
Ġb old
Ġh al
on a
Ġto es
Ġp iz
Ġd rought
Ġl es
Ġn ative
ut s
ut her
Ġre ct
Ġre def
se ll
ra ham
Ġan ten
ir lf
out s
Ġwor ms
Ġhe al
Ġsh it
Ġsh ine
Ġpro ven
Ġkn ife
ist ot
Ġint ended
Ġv en
Ġsp ill
Ġsee king
ĠA ge
ie ce
Ġpl ank
ĠS ee
ĠS now
ĠS anta
ĠM om
ĠM ike
Ġdon or
Ġman ual
Ġco inc
ĠB ell
ĠE ric
Ġover night
ens us
ĠT y
ĠN ic
ep s
Ġcont rary
Ġres idents
Ġam pl
ick ed
ĠR and
ĠR os
Ġpre vention
ĠF ord
Ġbr id
Ġmay or
Ġtra ce
ious ly
Ġob t
Ġinter connected
Ġside walk
Ġreason able
Ġdef ic
Ġequ ations
Ġlab s
Ġchallen ged
Ġterr itory
Ġabs ence
Ġ5 5
ĠYork er
Some body
Ġda wn
Ġarg uing
Ġrequ est
Ġdest iny
ĠSh anghai
Ġmar vel
Ġmain stream
Ġdescrib es
Ġimm ig
Ġemp owered
Ġsafe ly
Ġec ology
Ġconcer ns
Ġclin ics
udd enly
Ġcooper ate
Ġpuzz les
Ġbag s
ĠBang lades
Ġpurs uit
Ġvolunte er
Ġbull et
ĠCol umb
Ġminim um
Ġhoriz on
ĠRes earch
Ġhorm one
Ġwhist le
Ġconstrain ts
Ġclus ter
Ġacknow ledge
Ġstri king
Ġconven ient
ĠPalest in
Ġunh appy
B oth
C ons
D uring
b ow
g ram
g ments
u ctor
Ġa the
Ġf allen
Ġf ires
Ġg if
et e
ere nt
Ġst ored
if ty
Ġme lt
Ġj et
Ġj azz
Ġj ihad
Ġpro ved
Ġpro ceed
Ġch ains
ure auc
Ġma pping
Ġv ia
Ġv alley
Ġen abled
ĠM ill
Ġexp osure
Ġshe ets
ĠL ake
ict or
Ġoff ers
ĠJ ose
Ġra ped
Ġhuman itarian
Ġtrans mit
Ġtrans mission
Ġins ane
Ġgra bb
uc ose
Ġter rain
Ġstr ict
Be ing
conom ic
Ġbi ol
Ġeconom ist
.. ."
Ġinf ant
Ġ4 2
Ġform ula
Ġhead lines
Ġset t
Ġhalf way
Ġstop ping
ead y
Ġprot est
Ġ200 2
Ġref lection
Ġloc ally
Ġloc ations
Ġass ets
Ġadv ances
Ġmarket place
Ġlisten ed
Ġmot ors
Ġfail ures
Ġpsych ologist
Ġtem por
Ġstay s
ĠTh ree
ĠZ eal
Ġattack ed
Ġextraord inarily
ĠFr iday
Ġinfect ions
Ġcalcul ations
Ġcontrib uted
Ġemail s
Ġprep aring
Ġhonest ly
Ġsurround ing
Ġtens ion
Ġdoub led
cript ions
Ġcla ims
Ġconcent rated
Ġcompl ain
Ġelement ary
Ġnewsp apers
Ġking dom
Ġlimit ations
Ġcontinu ous
Ġmanip ulate
Ġpal m
Ġreprodu ce
Ġelectro des
Ġbarr ier
Ġrecyc ling
ĠPe ace
Ġgeomet ry
Ġeleg ant
ĠCarol ina
ĠBrook lyn
Ġinevit ably
Ġdownt own
, '
B l
g a
g rad
h h
o en
y e
Ġt urb
Ġa ug
Ġw rap
Ġs ons
er ry
Ġb other
Ġb ills
Ġf ate
Ġf athers
Ġin ch
Ġl oose
ar ians
Ġn odes
ut y
Ġre nder
ent h
if act
ir ts
ul es
Ġpro state
Ġr ib
Ġma nd
Ġv it
Ġv oting
Ġsp erm
ĠS ur
ĠS ir
ĠS ky
Wh atever
Ġsa il
our nal
ap ed
Ġwork place
Ġen force
Ġman ner
ens es
ell ed
ĠL incoln
Ġam bit
Ġgu ard
Ġob ese
Ġsch ed
Ġke ys
Ġbelie ving
Ġbo ats
Ġfound ations
Ġdr um
cy cl
Ġread ers
ĠY emen
Ġcor rupt
Ġconf ig
Ġbeaut ifully
Ġcol ored
Ġamaz ed
Ġamazing ly
Ġfollow s
Ġdeep est
Ġterr ified
Ġsuper market
Ġconsum ed
Ġemb ry
Ġapproach ed
Ġdisc rim
Ġsum m
Ġobs erved
Is n
Ġcy l
Ġpur ple
ĠHow ard
Ġimm un
Ġconscious ly
Ġlog ical
cient ists
Ġphysic ians
Ġdemonstr ated
Ġcorrect ly
Ġexer c
Ġconcent ration
ĠPl ay
Ġtoile ts
Ġscen es
Ġinstall ation
yn th
stand ing
Ġgras p
Ġgest ure
Ġben ch
Ġstoryt elling
Ġlegit imate
Ġretire ment
Ġmur der
Ġorph an
Ġtriv ial
Ġcrick et
Ġproto cell
eyn man
ĠIndones ia
Ġinsul in
ĠZeal and
B A
W as
a eda
d is
m ill
p y
p at
p ers
p erson
p owered
t wo
v ation
w orld
y d
Ġa ward
Ġo d
Ġo oh
Ġs ir
Ġc ows
Ġb att
en ous
Ġh ub
Ġh ometown
Ġp ir
Ġp ills
Ġd ent
Ġin her
Ġl anes
Ġg re
Ġn erves
Ġe ch
im a
Ġst ones
Ġst aring
Ġse vent
Ġcan cers
ad o
il ized
ol ine
Ġpro ph
ist en
el ing
od ied
ĠM oon
ĠM edic
Ġle ver
ans as
Ġexp licit
ip her
ĠP at
ĠT im
Ġdes cend
ph ony
pe are
Ġuse less
ĠF our
ĠW omen
Ġra bb
Ġtra il
Ġgu ilty
Ġrel ief
Ġinst alled
Ġgl ue
Ġgl ucose
ĠK e
Ġ3 50
Ġcr imes
Ġart ifact
Ġmin es
Ġbeh alf
Ġsupp lies
Ġmem es
Ġpolit ically
Ġpar am
Ġhy br
Ġpsych ologists
Ġcommunic ating
Ġcal ories
Ġsum mar
Ġorig ins
Ġpost ed
Ġcivil izations
Ġsuff icient
Ġfu nds
Ġprop osition
Ġ199 8
Ġprinci p
Ġactiv ist
akes peare
Ġinterview s
Ġord ers
adem y
Ġfat al
Ġver b
ĠCl int
Ġtherap ies
Ġbeat en
gra du
Ġamb ig
Ġpartners hip
ĠAb raham
Ġselect ed
forest ation
Ġenem ies
Ġillustr ate
Ġteles copes
ĠCo ast
Ġintr ins
Ġexec ut
Ġofficial s
Ġestim ated
Ġasp ir
Ġglam our
Ġmak er
Ġiniti ative
Ġhoriz ont
Ġmosquit o
Ġbreed ing
Ġatom ic
Ġneut ral
Ġportra it
Ġdevast ating
Ġorchest ra
li hood
Ġtrop ical
Ġgro cer
Ġcab in
ĠSil icon
Ġprosper ity
Tw enty
ĠMand ela
Ġexped ition
Ġmagnific ent
oen ix
Ġambit ious
A IDS
S ure
S te
S uddenly
j o
r ating
t r
Ġt iles
Ġth read
in ent
Ġo ct
Ġb inary
Ġh ipp
Ġto ss
Ġp it
Ġd rew
om ics
ĠI re
ent er
ro f
ere y
Ġfor b
ra cies
Ġan atom
Ġme me
Ġr ank
Ġde ce
Ġde als
um ented
Ġcon gest
Ġlike lihood
Ġbut ter
It s
Ġsa ke
Ġcomp re
Ġpo le
Ġdis abled
ĠH er
ĠH uman
Ġcont am
Ġsy ndrome
Ġhum il
pl us
Ġtechn ically
Ġrem ix
ĠCh e
Ġinst ruction
Ġgra ve
Ġhigh way
Ġcell ular
Ġcare d
Ġbi ologist
Ġbus es
Ġhead ing
Ġpar ach
ats on
ĠHe y
Ġdel ay
Ġpersonal ized
Ġcal m
Ġste am
Ġworth y
Ġcompet ing
Ġrece iving
Ġactiv ists
Ġmagn et
Ġenjoy ing
Ġblind ness
Ġpack ed
Ġworry ing
ĠLe ban
Ġexh a
Ġvari ations
Ġexpress ions
Ġmotiv ated
Ġpig e
Ġtax es
Ġhistor ically
Ġepide m
Com p
Ġshel f
Ġopin ions
Ġlapt ops
Ex cept
Ġcrim inals
Ġspin ning
Ġsan itation
Ġregard less
Ġreci pe
ĠBer lin
Ġrenew able
Ġnit rogen
Ġpunish ment
Ġathlet es
Ġadap ted
ĠDet ro
Ġlone ly
Ġindig enous
Ġjew el
ĠTas man
ĠDV D
Ġpiz za
Ġbiol umines
cycl op
H uman
P rob
b i
r ane
r ats
t ake
z es
Ġ .
Ġ ..."
Ġt ur
Ġt act
ou g
Ġc ree
Ġb ite
Ġb ump
Ġb amb
Ġm urd
Ġm esh
Ġd ough
Ġg irlf
Th ird
Ġst air
Ġas leep
Ġcom ic
Ġhe aling
Ġme als
Ġsh y
Ġj ugg
Ġch op
Ġor b
Ġpe ers
Ġcon qu
Ġout do
Ġsp an
os n
Ġsa le
ĠC ap
ap ore
Ġen zy
Ġco ach
Ġco vers
ĠB ol
ĠH enry
ĠD ra
ep hen
Ġres erves
ĠF ar
ful ness
igh th
ĠCh ile
Ġcar pet
velop ment
Ġ20 20
Ġelect rons
Ġconnect ivity
Ġcur ves
Ġtop ics
Ġappro ved
Ġmess y
Ġengine ered
Ġpred ator
ale m
ĠBr ian
Ġsex y
Ġpsych opath
Ġstra w
Ġprom ised
Ġreact or
St ud
Ġdom inated
Ġdiv ision
Ġdro ps
Ġpen cil
Ġwebs ites
Ġenjoy ed
Ġrespond ed
Ġalg ae
Ġrandom ly
Ġsimpl er
Ġban king
Ġhistor ic
Ġresist ant
ĠMc Don
Ġreve aled
Ġnarr atives
Ġbelong s
Ġbul b
uls ion
ĠRed wood
Ġfisher ies
Ġcere mony
bre ak
Ġbarr iers
Ġimpl ant
ĠHaw ai
keep ers
Ġlegisl ation
Ġlob by
Ġhier archy
Ġdisag ree
Ġpubl ishing
ĠLeon ardo
ĠTanz ania
ĠBanglades h
Ġbamb oo
" ?
C O
U p
a ware
d a
f ive
f ront
g ie
u ilt
Ġt in
in em
re me
Ġs ne
Ġb ang
Ġb ureauc
ing ing
Ġp ound
Ġd il
Ġd ivers
as semb
ut an
ot o
et te
Ġst ad
th ur
th eless
Ġj unk
Ġr ings
ck ing
ess ions
Ġout l
Ġint ensive
Ġsp at
Ġpl astics
ĠS pe
ĠC ourt
ĠM od
ĠM edia
Ġun re
Ġover head
ĠH el
ĠH ong
Ġkind ness
ĠT un
ĠN ature
ĠN ovember
ĠD id
Ġro les
Ġlo ads
Ġac cent
ĠL es
Ġbl ink
Ġinc orpor
ĠU C
ĠU SA
Ġgen omes
Ġdec or
oc ation
Ġ19 00
Ġ19 30
Ġcr iter
Ġstr ings
Ġart work
Ġatt itudes
Ġel abor
Ġgener ating
Ġcor ners
ĠV ictor
pr il
Ġeduc ate
Ġexc use
Ġview er
Ġappro x
Ġname ly
Ġz ones
Ġpred ators
Ġmeasure ments
Ġstra nds
Ġsho e
Ġbacter ial
Ġtemper atures
Ġcalcul ated
ĠGe ographic
ĠSw iss
ĠSw itzer
ĠPro fessor
Ġautom obile
Ġsimpl est
Ġscan ning
Ġwood en
Ġindepend ence
Ġalt itude
Ġregular ly
Ġbatter ies
Ġvacc ines
Ġiron y
ĠChar l
Ġagre ement
ĠBen j
ĠTur k
ĠPort ug
Ġcock ro
Ġanticip ate
Ġmim ic
Ġauthent ic
Ġenh ance
ĠQue en
Ġdilem ma
ĠClint on
ĠSwitzer land
A cc
U ntil
c ons
i ots
l an
u an
u ction
in come
ing er
Ġm ask
Ġm entally
Ġd irt
or ic
or ough
or ient
Ġin hib
Ġl ists
Ġg orge
se en
st orm
ig ma
ra ine
Ġdo se
th irds
Ġse nds
Ġcom ics
ol en
Ġj ar
Ġv ary
ĠS en
ĠC ath
Ġcomp ound
Ġcomp ounds
Ġexp ressed
Ġco verage
Ġnow adays
Ġhapp ily
ĠG ene
ĠH is
ĠH ans
ĠT ib
ĠN ord
Ġshe er
ial s
ĠR ome
Ġbl ess
Ġbl ah
pl ic
ress ing
ĠW alk
Ġsm iling
ĠJ on
ĠJ ud
ĠJ ane
ĠJ ones
Ġtra pped
Ġapp e
Ġapp la
Ġ3 7
Ġent ry
Ġla wn
Ġrec re
Ġ20 30
Ġmin us
Ġsub m
ĠInd ustrial
Ġelect rom
ĠNew s
Ġfore cast
Ġmach inery
Ġnorm s
Some one
Ġdep os
Ġpick s
crib e
ĠSh akespeare
Ġhar bor
Ġprofess ors
Ch ildren
Ġmedic ines
Ġfavor ites
Ġstat istic
Ġvisual ization
asc ular
Ġ199 9
Ġunf old
Ġwish es
Ġintrodu ction
Ġpen et
Ġremark ably
Any one
Ġhop es
Ġcontrib ution
stit ution
ĠBrazil ian
Ġinj uries
Ġharm ony
Ġble ed
Ġaccur acy
ĠFor ce
Ġund erest
Ġfrequ ently
Ġpros pect
Ġcontinu ously
Ġembarrass ing
ĠMont erey
ĠColl ege
Ġdiam eter
Ġhorm ones
dr iven
imp se
ĠLeg o
Ġmaxim um
Ġabund ance
Ġaesth etic
ĠIce land
Ġobserv ations
Ġcomprom ise
ET I
Ġskelet al
Ġrehab il
Ġfluores cent
istot le
ĠIre land
Ġelectrom agn
C on
G e
H A
M om
N e
R ather
S upp
T ry
[ "
a ired
e u
f unction
m o
m es
n ut
t t
y on
in ity
Ġh ated
or ph
ĠI BM
Ġe rect
Ġbe lly
ot on
Th ings
im eters
ch er
Ġse ctors
ad or
Ġne arest
ge nd
ist ical
Ġint act
Ġint ensity
ĠA pril
ĠS us
iv ate
ĠC ra
ĠC oke
ast e
Ġen velop
ĠM ur
ĠM ach
Ġman kind
ĠP ower
ĠT ony
co ver
ĠR ock
ĠR oy
Ġreal ities
Ġreal ization
Ġoff s
ĠW atson
Ġfind ings
Ġhel pless
Ġrel atives
Ġcar p
Ġgl impse
ĠK ong
Ġgra ce
Ġbi of
Ġspace craft
Ġmoment um
Ġplanet ary
Ġcra p
Ġland ing
Ġmass es
Ġcut s
Ġcool ing
Ġsuggest ion
Ġtext ure
Ġlif ted
Ġflu ctu
Ġimm ers
Al most
eth eless
Ġann ounce
Ġphenomen al
Ġpan ic
Ġhop eless
Ġrespond ing
Ġbroad er
Ġreflect ed
Ġexpand ed
Ġattract ed
Ġhack ing
Ġaccom pan
Ġcoast al
Ġgrad es
Ġju ice
Ġaccompl ished
Ġoverwhel ming
Ġadminist r
ĠOlymp ic
Ġfright ening
Ġclus ters
Ġrecyc led
Ġtab les
Ġcandid ate
Ġdelic ious
Ġcontrovers ial
Ġaband oned
ĠSec urity
Ġtraum a
mun ic
Ġtextbook s
Ġglaci er
Ġchron ic
Ġsuspe nded
ĠOrgan ization
Ġbrid ges
Prob ably
1 5
C or
D es
J H
L ad
M ean
R es
c reat
f are
g al
m at
m ind
u ana
v ia
w art
Ġ Which
Ġs lic
Ġs izes
Ġc attle
Ġp orn
Ġf est
or se
le an
al ia
Ġn u
Ġre vel
Ġre vers
Ġre wards
Ġst olen
ke ley
th ree
am as
Ġse al
Ġli vest
Ġso vere
ad ian
Ġch ew
Ġr iding
Ġde af
Ġpe cul
est y
Ġv ocal
ĠA udience
ie ve
Ġtr ips
Ġpl a
Ġcomp aring
Ġcomp osition
Ġbu ff
Ġdis par
Ġback yard
ĠH ol
ĠN elson
ĠD a
ĠD ad
ĠD esign
ber ry
ĠL in
ĠR om
du c
Ġreal istic
Ġshow er
ĠF ore
ĠW ay
ĠW ol
Ġbr ush
ĠJ osh
Ġra p
Ġsc reens
Ġend e
Ġtrans it
Ġunderstand s
Ġcons p
Ġinter section
Ġbo ots
Ġkid ding
Ġdr if
Ġcr ude
Ġpat ents
Ġcre am
Ġear ning
Ġteach es
Ġform ation
ĠV al
Ġdist inction
lf are
Ġdef ault
arr hea
Ġpublic ly
Ġanswer ing
Ġret ail
aw ater
Ġliter acy
Ġill um
Ġreach es
Ġap olog
Ġast h
Ġhor ror
Ġdescrib ing
Ġvisual ize
Ġtouch ing
Ġtransform ative
Ġexcept ions
Ġactiv ate
Ġcross ed
Ġsepar ation
Ġdro pping
