{"<pad>":0,"<sos>":1,"<eos>":2,"<unk>":3,"!":4,"\"":5,"#":6,"$":7,"%":8,"&":9,"'":10,"(":11,")":12,"*":13,"+":14,",":15,"-":16,".":17,"/":18,"0":19,"1":20,"2":21,"3":22,"4":23,"5":24,"6":25,"7":26,"8":27,"9":28,":":29,";":30,"<":31,"=":32,">":33,"?":34,"@":35,"A":36,"B":37,"C":38,"D":39,"E":40,"F":41,"G":42,"H":43,"I":44,"J":45,"K":46,"L":47,"M":48,"N":49,"O":50,"P":51,"Q":52,"R":53,"S":54,"T":55,"U":56,"V":57,"W":58,"X":59,"Y":60,"Z":61,"[":62,"\\":63,"]":64,"^":65,"_":66,"`":67,"a":68,"b":69,"c":70,"d":71,"e":72,"f":73,"g":74,"h":75,"i":76,"j":77,"k":78,"l":79,"m":80,"n":81,"o":82,"p":83,"q":84,"r":85,"s":86,"t":87,"u":88,"v":89,"w":90,"x":91,"y":92,"z":93,"{":94,"|":95,"}":96,"~":97,"¡":98,"¢":99,"£":100,"¤":101,"¥":102,"¦":103,"§":104,"¨":105,"©":106,"ª":107,"«":108,"¬":109,"®":110,"¯":111,"°":112,"±":113,"²":114,"³":115,"´":116,"µ":117,"¶":118,"·":119,"¸":120,"¹":121,"º":122,"»":123,"¼":124,"½":125,"¾":126,"¿":127,"À":128,"Á":129,"Â":130,"Ã":131,"Ä":132,"Å":133,"Æ":134,"Ç":135,"È":136,"É":137,"Ê":138,"Ë":139,"Ì":140,"Í":141,"Î":142,"Ï":143,"Ð":144,"Ñ":145,"Ò":146,"Ó":147,"Ô":148,"Õ":149,"Ö":150,"×":151,"Ø":152,"Ù":153,"Ú":154,"Û":155,"Ü":156,"Ý":157,"Þ":158,"ß":159,"à":160,"á":161,"â":162,"ã":163,"ä":164,"å":165,"æ":166,"ç":167,"è":168,"é":169,"ê":170,"ë":171,"ì":172,"í":173,"î":174,"ï":175,"ð":176,"ñ":177,"ò":178,"ó":179,"ô":180,"õ":181,"ö":182,"÷":183,"ø":184,"ù":185,"ú":186,"û":187,"ü":188,"ý":189,"þ":190,"ÿ":191,"Ā":192,"ā":193,"Ă":194,"ă":195,"Ą":196,"ą":197,"Ć":198,"ć":199,"Ĉ":200,"ĉ":201,"Ċ":202,"ċ":203,"Č":204,"č":205,"Ď":206,"ď":207,"Đ":208,"đ":209,"Ē":210,"ē":211,"Ĕ":212,"ĕ":213,"Ė":214,"ė":215,"Ę":216,"ę":217,"Ě":218,"ě":219,"Ĝ":220,"ĝ":221,"Ğ":222,"ğ":223,"Ġ":224,"ġ":225,"Ģ":226,"ģ":227,"Ĥ":228,"ĥ":229,"Ħ":230,"ħ":231,"Ĩ":232,"ĩ":233,"Ī":234,"ī":235,"Ĭ":236,"ĭ":237,"Į":238,"į":239,"İ":240,"ı":241,"Ĳ":242,"ĳ":243,"Ĵ":244,"ĵ":245,"Ķ":246,"ķ":247,"ĸ":248,"Ĺ":249,"ĺ":250,"Ļ":251,"ļ":252,"Ľ":253,"ľ":254,"Ŀ":255,"ŀ":256,"Ł":257,"ł":258,"Ń":259,"Ġt":260,"Ġth":261,"Ġa":262,"in":263,"Ġw":264,"Ġthe":265,"re":266,"Ġo":267,"Ġs":268,"at":269,"er":270,"nd":271,"ou":272,"Ġc":273,"is":274,"it":275,"Ġb":276,"ing":277,"Ġm":278,"en":279,"Ġh":280,"on":281,"Ġto":282,"Ġp":283,"Ġf":284,"an":285,"es":286,"Ġd":287,"Ġof":288,"or":289,"ll":290,"Ġin":291,"Ġand":292,"ed":293,"Ġl":294,"ar":295,"Ġy":296,"Ġthat":297,"om":298,"Ġg":299,"as":300,"ic":301,"le":302,"Ġyou":303,"ve":304,"ĠI":305,"al":306,"Ġwe":307,"Ġn":308,"Ġwh":309,"ow":310,"Ġis":311,"Ġe":312,"us":313,"Ġbe":314,"ut":315,"Ġit":316,"ion":317,"ot":318,"'s":319,"et":320,"Ġre":321,"Ġha":322,"ent":323,"ct":324,"Ġon":325,"ld":326,"ver":327,"Th":328,"ay":329,"id":330,"And":331,"se":332,"all":333,"Ġthis":334,"im":335,"st":336,"ro":337,"ig":338,"ur":339,"ere":340,"ly":341,"Ġst":342,"ch":343,"ke":344,"ce":345,"Ġfor":346,"if":347,"Ġwas":348,"ra":349,"Ġan":350,"ir":351,"Ġdo":352,"Ġare":353,"oo":354,"ith":355,"ally":356,"op":357,"th":358,"am":359,"Ġhave":360,"Ġwith":361,"Ġab":362,"Ġthey":363,"Ġu":364,"Ġse":365,"Ġk":366,"Ġcan":367,"Ġ-":368,"Ġ--":369,"Ġas":370,"Ġmo":371,"ation":372,"out":373,"ht":374,"Ġli":375,"Ġso":376,"Ġgo":377,"So":378,"Ġwhat":379,"ad":380,"Ġcom":381,"Ġwor":382,"'t":383,"Ġhe":384,"very":385,"ould":386,"ill":387,"Ġat":388,"Ġme":389,"Ġabout":390,"Ġsh":391,"Ġne":392,"ant":393,"Ġnot":394,"ter":395,"ge":396,"il":397,"The":398,"ul":399,"ol":400,"Ġall":401,"ust":402,"Ġj":403,"Ġfr":404,"Ġex":405,"ers":406,"use":407,"ight":408,"Ġpro":409,"Ġsom":410,"Ġch":411,"Ġr":412,"Ġor":413,"Ġde":414,"Ġthere":415,"Ġmy":416,"We":417,"Ġpe":418,"'re":419,"ear":420,"um":421,"art":422,"ople":423,"pp":424,"ck":425,"Ġcon":426,"ess":427,"Ġlike":428,"ate":429,"ure":430,"Ġone":431,"ies":432,"Ġpeople":433,"Ġ\"":434,"ca":435,"ive":436,"ity":437,"Ġma":438,"est":439,"Ġfrom":440,"nt":441,"Ġkn":442,"ect":443,"ist":444,"ble":445,"ind":446,"qu":447,"Ġbut":448,"Ġour":449,"ink":450,"Ġout":451,"Ġal":452,"Ġus":453,"It":454,"Ġint":455,"Ġknow":456,"Ġte":457,"Ġjust":458,"ook":459,"rou":460,"un":461,"Ġv":462,"Ġthing":463,"and":464,"cause":465,"Ġsp":466,"ide":467,"Ġthem":468,"But":469,"Ġsee":470,"ĠA":471,"ie":472,"Ġthese":473,"Ġvery":474,"os":475,"ort":476,"Ġtr":477,"Ġif":478,"Ġthink":479,"Ġup":480,"her":481,"Ġwho":482,"Ġget":483,"Ġpl":484,"ich":485,"Ġgoing":486,"Ġby":487,"ci":488,"ĠS":489,"el":490,"ain":491,"Ġact":492,"Ġsome":493,"one":494,"Ġwhen":495,"iv":496,"Ġ1":497,"Ġbecause":498,"Ġyour":499,"Ġhad":500,"Ġmore":501,"Wh":502,"Ġyear":503,"em":504,"og":505,"Ġsa":506,"our":507,"Ġim":508,"ĠC":509,"Ġtim":510,"Ġwould":511,"Ġwere":512,"ine":513,"00":514,"Ġwhich":515,"Ġlook":516,"od":517,"Ġtheir":518,"ame":519,"Ġwant":520,"ast":521,"Ġreally":522,"ment":523,"Ġhow":524,"Ġcomp":525,"ually":526,"ap":527,".\"":528,"Ġsu":529,"Ġwork":530,"ard":531,"ood":532,"iz":533,"ous":534,"act":535,"'ve":536,"ack":537,"gh":538,"Ġen":539,"reat":540,"ĠM":541,"Ġway":542,"You":543,"hing":544,"Ġta":545,"ose":546,"Ġle":547,"Ġhere":548,"'m":549,"ore":550,"Ġworld":551,"This":552,"are":553,"Ġtime":554,"Ġhas":555,"ans":556,"ther":557,"Ġthen":558,"ab":559,"ag":560,"Ġper":561,"ong":562,"Ġqu":563,"Ġevery":564,"Ġdon":565,"Ġinto":566,"Ġexp":567,"Ġactually":568,"ace":569,"Ġsay":570,"Ġwill":571,"Ġcould":572,"Ġman":573,"Ġfe":574,"res":575,"Ġev":576,"ions":577,"ild":578,"ud":579,"Ġco":580,"ence":581,"itt":582,"Ġthings":583,"Ġwhere":584,"age":585,"Ġyears":586,"Ġnow":587,"ĠB":588,"Ġag":589,"Ġother":590,"Ġdid":591,"alk":592,"Now":593,"Ġsomet":594,"ff":595,"iff":596,"They":597,"ach":598,"nder":599,"ical":600,"Ġany":601,"Ġbeen":602,"Ġno":603,"Ġmake":604,"Ġhapp":605,"Ġdiff":606,"Ġcl":607,"ice":608,"Ġtw":609,"ip":610,"Ġthan":611,"so":612,"Ġun":613,"Ġneed":614,"red":615,"Ġsaid":616,"ĠE":617,"ĠG":618,"Ġstart":619,"Ġpr":620,"Ġpart":621,"Ġright":622,"irst":623,"Ġover":624,"own":625,"ree":626,"Ġbu":627,"Ġimp":628,"ry":629,"Ġ2":630,"Ġsomething":631,"ign":632,"ia":633,"Ġpo":634,"ome":635,"Ġdis":636,"ory":637,"ite":638,"Ġâ":639,"Ġback":640,"uch":641,"pt":642,"Ġtwo":643,"orm":644,"ĠH":645,"round":646,"ount":647,"Ġmuch":648,"olog":649,"Ġgot":650,"ĠP":651,"Ġar":652,"Ġkind":653,"ib":654,"Ġcall":655,"ens":656,"Ġthose":657,"ĠT":658,"ass":659,"ife":660,"Ġfirst":661,"Ġdiffere":662,"ĠN":663,"ang":664,"ittle":665,"ater":666,"ound":667,"ĠD":668,"Ġlittle":669,"sel":670,"Ġalso":671,"cent":672,"ue":673,"Ġro":674,"Ġnew":675,"Ġlot":676,"ep":677,"Ġlo":678,"That":679,"Ġspe":680,"ces":681,"ght":682,"ple":683,"Ġcont":684,"ult":685,"way":686,"ĠâĻ":687,"Ġac":688,"ves":689,"Ġtalk":690,"ber":691,"Ġmost":692,"Ġbet":693,"king":694,"Ġph":695,"Ġdes":696,"Ġshe":697,"ving":698,"vel":699,"rain":700,"ody":701,"Ġonly":702,"Ġres":703,"In":704,"Ġunder":705,"ru":706,"ated":707,"able":708,"What":709,"Ġlife":710,"ations":711,"co":712,"ell":713,"Ġhis":714,"Ġsy":715,"Ġad":716,"Ġday":717,"Ġeven":718,"ĠL":719,"Ġhum":720,"Ġam":721,"Ġdifferent":722,"ish":723,"Ġtake":724,"ms":725,"Ġmany":726,"ick":727,"ict":728,"ial":729,"Ġgood":730,"ĠR":731,"rough":732,"other":733,"There":734,"ĠâĻ«":735,"du":736,"Ġdoes":737,"Ġbl":738,"int":739,"Ġreal":740,"Ġdown":741,"Ġaround":742,"ance":743,"Ġide":744,"Ġher":745,"ank":746,"ire":747,"Ġthrough":748,"ob":749,"ph":750,"ase":751,"Ġput":752,"ents":753,"pl":754,"'ll":755,"Ġcomm":756,"pe":757,"urn":758,"ark":759,"Ġpre":760,"Ġshow":761,"Ġuse":762,"ange":763,"cess":764,"Ġbeing":765,"Ġtell":766,"form":767,"Ġoff":768,"ible":769,"ĠF":770,"ress":771,"ade":772,"ors":773,"ak":774,"Ġsame":775,"Ġhappen":776,"Well":777,"Ġthou":778,"Ġproble":779,"Ġtoo":780,"ether":781,"Ġtry":782,"ĠW":783,"Ġfl":784,"chn":785,"ary":786,"per":787,"ath":788,"Ġfact":789,"Ġinc":790,"ject":791,"ys":792,"Ġem":793,"wn":794,"Ġcome":795,"xt":796,"Ġsm":797,"iver":798,"Ġbr":799,"stem":800,"Ġcount":801,"ful":802,"day":803,"tern":804,"Ġdoing":805,"ars":806,"ord":807,"ual":808,"ning":809,"ĠJ":810,"Ġra":811,"ĠO":812,"Ġmay":813,"Ġgreat":814,"Ġfind":815,"ool":816,"ric":817,"Ġtechn":818,"Ġthree":819,"ĠU":820,"Ġbig":821,"ons":822,"ically":823,"ne":824,"row":825,"ting":826,"Ġgen":827,"Ġwr":828,"Ġhuman":829,"ile":830,"ac":831,"ved":832,"Ġpers":833,"Ġbec":834,"Ġsur":835,"Ġpercent":836,"ology":837,"Ġwell":838,"ied":839,"ower":840,"Ġsystem":841,"He":842,"Ġtra":843,"fore":844,"Ġdec":845,"Ġbuild":846,"thing":847,"fter":848,"nds":849,"Ġstud":850,"illion":851,"Ġcalled":852,"If":853,"ub":854,"self":855,"te":856,"Ġgu":857,"'d":858,"Ġlet":859,"Ġapp":860,"igh":861,"Ġsim":862,"Ġagain":863,"body":864,"Ġchild":865,"ics":866,"we":867,"Ġquest":868,"ition":869,"cial":870,"ious":871,"Ġmade":872,"Ġinv":873,"ating":874,"Ġind":875,"Ġlong":876,"Ġexper":877,"Ġown":878,"Ġimport":879,"oss":880,"Ġbel":881,"mer":882,"ities":883,"Ġrem":884,"oc":885,"Ġshould":886,"Ġlear":887,"ize":888,"ian":889,"ĠCh":890,"ren":891,"Ġwhy":892,"Ġwom":893,"les":894,"Ġsc":895,"erest":896,"ty":897,"Ġunderst":898,"Ġturn":899,"ew":900,"ates":901,"av":902,"ft":903,"Ġob":904,"Ġdesign":905,"Ġchange":906,"Ġhel":907,"000":908,"Ġmean":909,"Ġcour":910,"Ġtoday":911,"Ġbrain":912,"Ġend":913,"ction":914,"Ġimportant":915,"Ġafter":916,"Ġdidn":917,"Ġthought":918,"be":919,"Ġfeel":920,"Ġidea":921,"Ġask":922,"Thank":923,"con":924,"Ġbas":925,"Ġperson":926,"Ġlast":927,"Ġplay":928,"Ġcreat":929,"Ġrel":930,"Ġcar":931,"als":932,"ĠAnd":933,"?\"":934,"Ġinterest":935,"Ġstarted":936,"Ġinst":937,"Ġits":938,"ail":939,"Ġgl":940,"ĠIt":941,"he":942,"Ġexam":943,"ull":944,"Ġhim":945,"Ġsch":946,"old":947,"Ġsci":948,"ough":949,"Ġtrans":950,"Ġwent":951,"ise":952,"Ġbefore":953,"Ġunderstand":954,"Ġcourse":955,"Ġins":956,"gan":957,"Ġmight":958,"ution":959,"Ġhelp":960,"Ġgive":961,"Ġbit":962,"ese":963,"Ġbetter":964,"ility":965,"Ġcons":966,"ists":967,"ĠK":968,"Ġgra":969,"ost":970,"Ġanother":971,"Ġpoint":972,"Ġproblem":973,"Ġ3":974,"ular":975,"Ġnever":976,"Ġprodu":977,"ave":978,"ily":979,"lic":980,"Ġke":981,"Ġstory":982,"Ġbelie":983,"ven":984,"Ġele":985,"Ġcoll":986,"Ġable":987,"ros":988,"Ġinter":989,"Ġfew":990,"ert":991,"und":992,"kes":993,"Ġbo":994,"Ġfound":995,"Ġstill":996,"Ġsl":997,"ix":998,"Ġsort":999,"Ġago":1000,"Ġkid":1001,"Ġent":1002,"Ġpower":1003,"Ġpol":1004,"Ġtog":1005,"Ġtogether":1006,"Ġnext":1007,"Ġplan":1008,"Ġnum":1009,"oth":1010,"erg":1011,"Ġfam":1012,"Ġdr":1013,"Ġplace":1014,"Ġcame":1015,"Ġwater":1016,"velop":1017,"Ġsol":1018,"Ġschool":1019,"Ġmon":1020,"Ġmod":1021,"uc":1022,"alth":1023,"ense":1024,"Ġcommun":1025,"ited":1026,"Ġ19":1027,"atch":1028,"Ġhigh":1029,"Ġcomple":1030,"ween":1031,"Ġcr":1032,"Ġimag":1033,"When":1034,"Ġter":1035,"ward":1036,"ience":1037,"Ġstr":1038,"ng":1039,"ather":1040,"read":1041,"Ġlearn":1042,"Be":1043,"Ġused":1044,"Ġeach":1045,"Ġbetween":1046,"Ġart":1047,"Ġpat":1048,"Ġdat":1049,"Ġla":1050,"Ġtechnology":1051,"ized":1052,"ness":1053,"Ġquestion":1054,"Ġrec":1055,"meric":1056,"Ġ10":1057,"Ġdevelop":1058,"Ġ20":1059,",\"":1060,"ĠSt":1061,"iss":1062,"Ġext":1063,"ures":1064,"Ġsmall":1065,"Ġatt":1066,"Ġlove":1067,"ĠAf":1068,"Ġfour":1069,"Ġcre":1070,"ork":1071,"Ġlooking":1072,"Ġexample":1073,"Ġmet":1074,"ific":1075,"Ġmed":1076,"Ġser":1077,"arch":1078,"ways":1079,"ram":1080,"Ġop":1081,"Ġdone":1082,"cond":1083,"az":1084,"iness":1085,"Ġold":1086,"ets":1087,"Ġpartic":1088,"Ġdata":1089,"ute":1090,"ably":1091,"Ġdoesn":1092,"Ġlight":1093,"Ġmin":1094,"Ġwomen":1095,"Ġfin":1096,"ĠAmeric":1097,"ered":1098,"ced":1099,"Ġcell":1100,"Ġgrow":1101,"Ġcare":1102,"Ġmom":1103,"Ġeff":1104,"Ġword":1105,"cept":1106,"Ġcent":1107,"ings":1108,"ative":1109,"Ġwanted":1110,"Ġcomput":1111,"cy":1112,"Ġbeh":1113,"Ġstu":1114,"conom":1115,"Ġhard":1116,"Ġread":1117,"Ġmove":1118,"ah":1119,"Ġfar":1120,"Ġwhole":1121,"Ġposs":1122,"Ġlar":1123,"Ġreas":1124,"Ġlive":1125,"ands":1126,"ĠY":1127,"formation":1128,"ger":1129,"Ġtrying":1130,"Ġnat":1131,"Ġever":1132,"Ġmillion":1133,"Ġear":1134,"ross":1135,"Ġed":1136,"Ġbi":1137,"ĠIn":1138,"Ġworking":1139,"Ġchang":1140,"ote":1141,"selves":1142,"Ġaway":1143,"Ġgiv":1144,"Ġalways":1145,"ope":1146,"Ġel":1147,"ational":1148,"Because":1149,"ird":1150,"Ġeconom":1151,"oney":1152,"Ġchildren":1153,"Ġexpl":1154,"Ġless":1155,"Ġbelieve":1156,"cer":1157,"Ġbus":1158,"ĠSo":1159,"wh":1160,"ural":1161,"ĠWe":1162,"Ġgener":1163,"..":1164,"gin":1165,"ism":1166,"Ġrep":1167,"ments":1168,"Ġcap":1169,"Ġsk":1170,"50":1171,"Ġbook":1172,"Ġhealth":1173,"Ġcountry":1174,"Ġanim":1175,"How":1176,"Ġresp":1177,"Ġsupp":1178,"ĠAfric":1179,"Ġpict":1180,"Ġfo":1181,"Ġcor":1182,"Ġmus":1183,"ont":1184,"Ġfrie":1185,"ries":1186,"Ġsub":1187,"Ġrun":1188,"ruct":1189,"nect":1190,"Ġusing":1191,"ract":1192,"Ġspace":1193,"Ġopen":1194,"Ġproject":1195,"hip":1196,"Ġhand":1197,"Ġmeans":1198,"ock":1199,"Ġfive":1200,"Ġprob":1201,"atter":1202,"Ġthinking":1203,"led":1204,"Ġtook":1205,"ps":1206,"Ġkids":1207,"vers":1208,"Ġcreate":1209,"nce":1210,"Ġinformation":1211,"Ġmaybe":1212,"Ġvis":1213,"aces":1214,"Ġinf":1215,"Ġ4":1216,"Ġmoney":1217,"alf":1218,"Ġeverything":1219,"Ġcou":1220,"Ġdoll":1221,"Ġnumber":1222,"Ġpub":1223,"air":1224,"Ġlead":1225,"Ġhome":1226,"vern":1227,"Ġspec":1228,"gg":1229,"Ġbecome":1230,"Ġmind":1231,"Ġsecond":1232,"oy":1233,"iron":1234,"Ġreg":1235,"Ġprocess":1236,"Ġcompan":1237,"Ġorgan":1238,"its":1239,"ks":1240,"ĠYou":1241,"Ġsing":1242,"rib":1243,"Ġleft":1244,"ident":1245,"ond":1246,"Ġteach":1247,"iew":1248,"ten":1249,"ues":1250,"ergy":1251,"Ġfood":1252,"ention":1253,"Ġenough":1254,"ĠUn":1255,"Ġwalk":1256,"Ġquite":1257,"ever":1258,"Ġacc":1259,"Ġbest":1260,"Ġgetting":1261,"aut":1262,"ivers":1263,"Ġfut":1264,"sw":1265,"Ġform":1266,"Ġhead":1267,"Ġinteresting":1268,"Ġprog":1269,"Ġeng":1270,"These":1271,"Ġcomes":1272,"Ġfun":1273,"Ġwar":1274,"ories":1275,"ĠV":1276,"pr":1277,"Ġsense":1278,"ouse":1279,"ital":1280,"Ġpres":1281,"iting":1282,"Ġprobably":1283,"Ġsocial":1284,"Ġdem":1285,"Ġmark":1286,"Ġfuture":1287,"Ġenergy":1288,"Ġgovern":1289,"Ġca":1290,"Ġhappened":1291,"Ġansw":1292,"Ġconf":1293,"Ġtimes":1294,"Ġset":1295,"ines":1296,"Ġcle":1297,"ĠInd":1298,"Ġelect":1299,"ertain":1300,"ts":1301,"Ġgrou":1302,"Ġmonth":1303,"ety":1304,"ier":1305,"Ġtalking":1306,"Ġmaking":1307,"Ġadd":1308,"Ġbegin":1309,"Ġstuff":1310,"tty":1311,"Ġcontro":1312,"Ġroom":1313,"Ġbuilding":1314,"Ġconnect":1315,"Ġcur":1316,"Ġmoment":1317,"Ġpass":1318,"ient":1319,"Ġbody":1320,"Ġpop":1321,"Ġglob":1322,"Ġenv":1323,"Ġphys":1324,"Ġsign":1325,"Ġwithout":1326,"Ġtold":1327,"Ġdist":1328,"ately":1329,"reen":1330,"Ġgr":1331,"Ġhalf":1332,"Ġside":1333,"Ġpretty":1334,"Ġelse":1335,"Ġcountries":1336,"ake":1337,"ner":1338,"Ġwee":1339,"Ġbeaut":1340,"Ġdollars":1341,"Ġpie":1342,"Ġlives":1343,"Ġcoming":1344,"Ġreason":1345,"Ġbusiness":1346,"ogra":1347,"Ġkeep":1348,"imes":1349,"Ġanything":1350,"Ġmodel":1351,"Ġhist":1352,"Ġsoci":1353,"Ġsuch":1354,"One":1355,"Ġjob":1356,"ior":1357,"Ġbad":1358,"Ġwo":1359,"lf":1360,"Ġtop":1361,"ices":1362,"Ġopp":1363,"Why":1364,"gs":1365,"me":1366,"Ġallow":1367,"Ġdef":1368,"Ġacross":1369,"My":1370,"ember":1371,"ortun":1372,"Ġenviron":1373,"der":1374,"Ġstop":1375,"Ġmen":1376,"Ġsound":1377,"uring":1378,"Ġeas":1379,"Ġsays":1380,"ĠThe":1381,"Ġmakes":1382,"Here":1383,"Ġyoung":1384,"Ġbring":1385,"Ġstand":1386,"ead":1387,"Ġhope":1388,"Ġair":1389,"Ġscience":1390,"Ġseen":1391,"olution":1392,"Ġsaw":1393,"Ġmatter":1394,"Ġliving":1395,"idd":1396,"ince":1397,"Ġty":1398,"Ġlater":1399,"Ġprot":1400,"most":1401,"Ġfig":1402,"Ġasked":1403,"Ġval":1404,"Ġexperience":1405,"Ġeduc":1406,"ĠAfrica":1407,"Ġgoes":1408,"Ġsimple":1409,"Ġ200":1410,"Ġparticular":1411,"ided":1412,"Ġhour":1413,"io":1414,"Ġrese":1415,"where":1416,"kay":1417,"ying":1418,"Ġey":1419,"Ġhappens":1420,"Ġcult":1421,"ality":1422,"Ġsit":1423,"man":1424,"Ġhaving":1425,"Ġwonder":1426,"llow":1427,"ĠChin":1428,"Ġscient":1429,"Ġcam":1430,"Ġphot":1431,"Ġpicture":1432,"ash":1433,"ime":1434,"ilt":1435,"aps":1436,"Ġways":1437,"angu":1438,"ken":1439,"ught":1440,"She":1441,"Ġaut":1442,"ization":1443,"ott":1444,"Ġcomplete":1445,"Ġcol":1446,"Ġmem":1447,"Ġfamily":1448,"Ġthous":1449,"Ġdet":1450,"ots":1451,"Ġeffect":1452,"For":1453,"Ġlist":1454,"Ġsix":1455,"arth":1456,"Ġchar":1457,"Ġproblems":1458,"Ġref":1459,"Ġprof":1460,"Ġbre":1461,"Ġshare":1462,"Ġlevel":1463,"ĠNew":1464,"Ġdays":1465,"Ġcomputer":1466,"ream":1467,"Ġresearch":1468,"Ġsingle":1469,"iter":1470,"Ġrest":1471,"Ġequ":1472,"Ġglobal":1473,"Ġenvironment":1474,"Ġplanet":1475,"Ġcase":1476,"arr":1477,"irl":1478,"Let":1479,"Ġcity":1480,"ograph":1481,"Ġlangu":1482,"As":1483,"arent":1484,"Ġfore":1485,"Ġmach":1486,"Ġbasically":1487,"Ġtest":1488,"Ġloc":1489,"ED":1490,"ike":1491,"ins":1492,"orn":1493,"Ġinside":1494,"Ġmusic":1495,"ready":1496,"Ġpolit":1497,"Ġcertain":1498,"Ġmor":1499,"ulation":1500,"Ġalmost":1501,"Ġpossible":1502,"Ġpublic":1503,"Ġsure":1504,"less":1505,"Ġyet":1506,"Ġsaying":1507,"ov":1508,"Ġboth":1509,"Ġamaz":1510,"Ġanswer":1511,"Ġwatch":1512,"Ġvide":1513,"Ġonce":1514,"Ġguy":1515,"med":1516,"Ġhear":1517,"Ġwhile":1518,"itive":1519,"allen":1520,"ĠEarth":1521,"uge":1522,"Ġwhether":1523,"unch":1524,"Ġrob":1525,"Ġpain":1526,"ants":1527,"osed":1528,"Ġdisco":1529,"Ġage":1530,"Ġalready":1531,"Ġnothing":1532,"Ġcontin":1533,"ee":1534,"Ġsuc":1535,"ury":1536,"Ġbillion":1537,"Ġincred":1538,"Ġwrong":1539,"lish":1540,"ivid":1541,"Ġlooked":1542,"Ġself":1543,"Ġideas":1544,"Ġdise":1545,"iverse":1546,"Ġsomeone":1547,"Ġexact":1548,"Ġwithin":1549,"oice":1550,"Ġexc":1551,"âĢ":1552,"Ġtreat":1553,"Ġremember":1554,"Ġcommunity":1555,"Ġlooks":1556,"Ġproduct":1557,"Ġass":1558,"Ġcontrol":1559,"Ġunt":1560,"Ġhistory":1561,"ield":1562,"Ġsw":1563,"Ġheart":1564,"Ġmyself":1565,"iful":1566,"Ġpar":1567,"ases":1568,"ware":1569,"Ġlarge":1570,"Ġcells":1571,"Ġoften":1572,"side":1573,"Ġtrue":1574,"Ġcost":1575,"Ġamazing":1576,"undred":1577,"Ġdev":1578,"Ġheard":1579,"Ġmil":1580,"Ġlab":1581,"Ġiss":1582,"utes":1583,"Ġdire":1584,"imate":1585,"pect":1586,"ĠIntern":1587,"Ġkill":1588,"Ġchallen":1589,"Ġcond":1590,"Ġwords":1591,"uro":1592,"ages":1593,"Ġfigure":1594,"work":1595,"Ġimagine":1596,"Ġwa":1597,"de":1598,"ians":1599,"aterial":1600,"aster":1601,"Ġmag":1602,"âĢĻ":1603,"vious":1604,"ene":1605,"Ġworks":1606,"ivity":1607,"Ġche":1608,"cle":1609,"Ġadv":1610,"Ġbuilt":1611,"ĠUnited":1612,"Ġnight":1613,"Ġhundred":1614,"Ġmonths":1615,"ling":1616,"Ġnews":1617,"land":1618,"Ġcouple":1619,"ering":1620,"Ġclass":1621,"Ġorder":1622,"Ġentire":1623,"Ġbeautiful":1624,"uck":1625,"ex":1626,"Ġaff":1627,"Ġindivid":1628,"Ġfriends":1629,"Ġcancer":1630,"iddle":1631,"bers":1632,"Ġfull":1633,"Ġface":1634,"ĠTED":1635,"Ġgovernment":1636,"Ġ100":1637,"bs":1638,"Ġresult":1639,"Ġpay":1640,"Ġ30":1641,"aper":1642,"Ġmarket":1643,"Ġgroup":1644,"Ġlanguage":1645,"Ġmust":1646,"Ġincre":1647,"Ġgirl":1648,"ives":1649,"Ġtre":1650,"Ġfil":1651,"Ġpiece":1652,"line":1653,"Ġnet":1654,"get":1655,"to":1656,"Ġ6":1657,"Ġfollow":1658,"Ġstate":1659,"Ġspecies":1660,"Ġplaces":1661,"Ġ50":1662,"Ġisn":1663,"Ġdeep":1664,"All":1665,"up":1666,"Ġmaterial":1667,"Ġsec":1668,"Ġfront":1669,"Ġindividual":1670,"Ġvir":1671,"Ġview":1672,"Ġeverybody":1673,"Ġwasn":1674,"Ġvideo":1675,"Ġuntil":1676,"ustr":1677,"atic":1678,"Ġappro":1679,"Ġconst":1680,"ired":1681,"ator":1682,"ush":1683,"Ġdecided":1684,"Ġpast":1685,"ny":1686,"Ġdra":1687,"Ġeducation":1688,"Ġcompletely":1689,"ĠInternet":1690,"Ġline":1691,"eah":1692,"Ġquick":1693,"Ġbehav":1694,"ron":1695,"Ġuniverse":1696,"Ġinn":1697,"Ġdi":1698,"Ġtrain":1699,"No":1700,"Ġcra":1701,"outh":1702,"omes":1703,"ĠIs":1704,"Ġret":1705,"Ġstudy":1706,"ane":1707,"Ġobject":1708,"Ġstories":1709,"Ġterr":1710,"Ġnature":1711,"Ġexactly":1712,"cing":1713,"ined":1714,"Ġbecame":1715,"ĠStates":1716,"Ġdeal":1717,"Ġthough":1718,"ental":1719,"Ġfree":1720,"br":1721,"Ġ'":1722,"Ġname":1723,"Ġabs":1724,"Ġsca":1725,"Ġtaking":1726,"Ġhappening":1727,"Ġstudents":1728,"Ġanimals":1729,"Ġtool":1730,"Ġ9":1731,"Ġmess":1732,"Ġhuge":1733,"Ġfund":1734,"end":1735,"Ġpos":1736,"Ġland":1737,"Ġknew":1738,"Ġkinds":1739,"ĠThey":1740,"Ġitself":1741,"Ġexperim":1742,"acter":1743,"Ġoce":1744,"Ġcollect":1745,"Ġlaw":1746,"ters":1747,"Ġsomebody":1748,"Ġstruct":1749,"ien":1750,"Ġourselves":1751,"Ġwoman":1752,"Ġlearned":1753,"Ġengine":1754,"ats":1755,"ision":1756,"gest":1757,"Ġsince":1758,"ients":1759,"ogn":1760,"Ġsociety":1761,"Ġhouse":1762,"Ġris":1763,"Ġsuccess":1764,"Ġ[":1765,"ional":1766,"dd":1767,"Ġclose":1768,"Ġminutes":1769,"etic":1770,"Ġgets":1771,"ret":1772,"Ġdru":1773,"haps":1774,"omet":1775,"rop":1776,"Ġspend":1777,"Ġcomplex":1778,"Ġcompany":1779,"sy":1780,"Ġquestions":1781,"cc":1782,"Ġthemselves":1783,"Ġz":1784,"icult":1785,"Ġalong":1786,"Ġturns":1787,"Ġmass":1788,"itting":1789,"Ġav":1790,"ability":1791,"Ġagainst":1792,"ocus":1793,"cl":1794,"Ġmeet":1795,"Ġrelations":1796,"thers":1797,"Ġmic":1798,"ĠIndia":1799,"Ġhours":1800,"Ġgame":1801,"ĠAmerica":1802,"Ġopportun":1803,"ctor":1804,"Ġones":1805,"Ġprov":1806,"Ġrather":1807,"Then":1808,"Ġcreated":1809,"Ġbott":1810,"Ġfly":1811,"ibly":1812,"ĠThis":1813,"urs":1814,"ium":1815,"ĠThank":1816,"...":1817,"Ġclear":1818,"face":1819,"ature":1820,"Ġparent":1821,"aw":1822,"Ġleast":1823,"ĠHe":1824,"Ġ7":1825,"ĠThat":1826,"Ġthird":1827,"Ġfocus":1828,"Ġexpect":1829,"Ġcouldn":1830,"Ġinvest":1831,"Ġ8":1832,"Ġwon":1833,"Ġwind":1834,"ames":1835,"Ġmeas":1836,"Ġguys":1837,"ones":1838,"Ġworked":1839,"att":1840,"Ġsometimes":1841,"Ġpred":1842,"Ġdifficult":1843,"eg":1844,"iversity":1845,"ĠGod":1846,"ming":1847,"Ġmother":1848,"Ġothers":1849,"Ġ15":1850,"Ġarch":1851,"Ġthousands":1852,"Ġvar":1853,"Ġdisease":1854,"Ġliter":1855,"Ġearly":1856,"Ġgave":1857,"Ġprogram":1858,"Ġill":1859,"Ġhold":1860,"Ġhappy":1861,"Ġspeak":1862,"cul":1863,"istic":1864,"ples":1865,"Ġamount":1866,"Ġsystems":1867,"Ġnorm":1868,"olved":1869,"wards":1870,"Ġlots":1871,"Ġaud":1872,"not":1873,"illions":1874,"Ġve":1875,"Ġeveryone":1876,"Ġinnov":1877,"Ġinstead":1878,"app":1879,"Ġmath":1880,"Ġfield":1881,"Ġteam":1882,"Ġbab":1883,"Ġsens":1884,"erv":1885,"ale":1886,"ented":1887,"Ġbehavior":1888,"ither":1889,"Ġexist":1890,"ider":1891,"Ġrad":1892,"Ġ5":1893,"Ġnatural":1894,"Ġprotect":1895,"Ġlisten":1896,"iqu":1897,"ove":1898,"ination":1899,"Ġmot":1900,"Ġtaken":1901,"ĠEuro":1902,"ological":1903,"ĠAmerican":1904,"aking":1905,"Ġoil":1906,"Ġoutside":1907,"fect":1908,"ially":1909,"Ġinteract":1910,"Ġrelationship":1911,"Ġmiss":1912,"Ġcir":1913,"ared":1914,"Ġdifference":1915,"Ġcut":1916,"Ġshap":1917,"ĠWhat":1918,"Ġant":1919,"ted":1920,"Ġblack":1921,"Ġrecord":1922,"Every":1923,"ĠBr":1924,"Ġlearning":1925,"Ġhy":1926,"Ġrev":1927,"Ġrecent":1928,"Do":1929,"Ġleg":1930,"Ġchanged":1931,"Ġmachine":1932,"Ġoper":1933,"Ġfail":1934,"vered":1935,"Ġextra":1936,"ĠYork":1937,"gen":1938,"Ġseven":1939,"Ġdeath":1940,"uss":1941,"ential":1942,"Ġarea":1943,"ĠChina":1944,"Ġbro":1945,"Ġcentury":1946,"Ġstep":1947,"Some":1948,"Ġmiddle":1949,"Ġsex":1950,"Ġgreen":1951,"ully":1952,"Ġbeginning":1953,"Ġpattern":1954,"Ġpot":1955,"Ġred":1956,"sych":1957,"ides":1958,"iol":1959,"Ġnetwork":1960,"ĠEng":1961,"Ġcommon":1962,"ĠEurope":1963,"Ġ...":1964,"ased":1965,"Ġstre":1966,"Ġperhaps":1967,"Ġmoving":1968,"Ġgiven":1969,"Ġeasy":1970,"Ġeyes":1971,"Or":1972,"Ġyourself":1973,"utions":1974,"Ġhands":1975,"Ġshort":1976,"Ġda":1977,"Ġleave":1978,"NA":1979,"orth":1980,"Ġdel":1981,"verage":1982,"ĠâĢ":1983,"Ġturned":1984,"Ġnon":1985,"Ġdep":1986,"Ġterms":1987,"Ġsym":1988,"Ġlow":1989,"Ġfish":1990,"Ġincl":1991,"Ġexplain":1992,"Ġpopulation":1993,"Ġes":1994,"era":1995,"ery":1996,"Ġtakes":1997,"Ġculture":1998,"Ġcities":1999,"itions":2000,"olute":2001,"Ġsent":2002,"Ġneeds":2003,"ump":2004,"Ġtyp":2005,"Ġocc":2006,"Ġobvious":2007,"Ġsupport":2008,"Ġ12":2009,"Ġlim":2010,"Ġjour":2011,"els":2012,"elt":2013,"ption":2014,"Ġcolle":2015,"Ġwonderful":2016,"Ġchem":2017,"Ġseeing":2018,"ude":2019,"Ġfinally":2020,"Ġdig":2021,"ĠAr":2022,"ĠâĻª":2023,"Ġbehind":2024,"inary":2025,"Ġpaper":2026,"Ġintell":2027,"astic":2028,"jor":2029,"ply":2030,"Ġident":2031,"ern":2032,"aring":2033,"iving":2034,"ipp":2035,"Ġbegan":2036,"Ġpsych":2037,"Ġimpro":2038,"Ġcommunic":2039,"Ġbreak":2040,"Ġcannot":2041,"Ġjo":2042,"Ġpract":2043,"Ġperform":2044,"Ġparts":2045,"Ġfriend":2046,"idence":2047,"Ġlocal":2048,"rew":2049,"Ġsaf":2050,"Ġtrad":2051,"Ġocean":2052,"itch":2053,"Ġeight":2054,"Ġsqu":2055,"Ġreach":2056,"year":2057,"Ġtot":2058,"Ġduring":2059,"Ġimage":2060,"ges":2061,"Ġblue":2062,"Ġlonger":2063,"ĠâĢĶ":2064,"Ġpick":2065,"Ġsuper":2066,"Ġperfect":2067,"Ġsimply":2068,"ran":2069,"Ġsun":2070,"Ġtem":2071,"Ġcompanies":2072,"eople":2073,"Ġrealized":2074,"Ġextre":2075,"Ġarg":2076,"Ġpowerful":2077,"Ġfall":2078,"itect":2079,"Ġfre":2080,"Ġmajor":2081,"Ġevent":2082,"fully":2083,"Ġneeded":2084,"Ġaccess":2085,"Ġstay":2086,"cious":2087,"ource":2088,"Ġwall":2089,"Ġdream":2090,"ĠAl":2091,"Ġdark":2092,"port":2093,"ĠBut":2094,"Ġwhatever":2095,"Ġess":2096,"Ġweek":2097,"Ġsize":2098,"Ġconsum":2099,"Ġ18":2100,"Ġeconomic":2101,"Ġspecial":2102,"Ġfamil":2103,"Ġserv":2104,"Ġrepres":2105,"ax":2106,"Ġtried":2107,"Ġabsolute":2108,"Ġparents":2109,"ero":2110,"ources":2111,"Ġemot":2112,"ton":2113,"rodu":2114,"Ġpoor":2115,"Ġsurv":2116,"Ġsurpr":2117,"Ġinterested":2118,"Ġpersonal":2119,"Ġ40":2120,"ony":2121,"Ġmedia":2122,"Ġpresent":2123,"Ġgrand":2124,"Ġfelt":2125,"Ġreality":2126,"Ġfeed":2127,"gle":2128,"ising":2129,"Ġeat":2130,"oh":2131,"Ġpriv":2132,"Ġbuy":2133,"Ġple":2134,"ledge":2135,"Ġsitu":2136,"Ġviol":2137,"Ġemb":2138,"On":2139,"ison":2140,"Ġground":2141,"rought":2142,"Ġquickly":2143,"Ġpress":2144,"ised":2145,"Ġgone":2146,"ilar":2147,"Ġrecogn":2148,"Ġscale":2149,"ibility":2150,"crib":2151,"ards":2152,"Ġstrong":2153,"Ġarchitect":2154,"bo":2155,"hood":2156,"inal":2157,"rent":2158,"Ġfather":2159,"Ġyes":2160,"Ġrobot":2161,"Ġgrowth":2162,"sh":2163,"Ġge":2164,"avor":2165,"Ġability":2166,"Ġconv":2167,"Ġspent":2168,"Ġkey":2169,"Ġrequ":2170,"Ġvalue":2171,"Ġapproach":2172,"Ġcal":2173,"oph":2174,"Ġhumans":2175,"Ġweeks":2176,"ged":2177,"ived":2178,"Ġfeet":2179,"Ġshows":2180,"ney":2181,"osp":2182,"Ġcool":2183,"Ġdemoc":2184,"Ġsitting":2185,"Ġenc":2186,"Ġanimal":2187,"ills":2188,"Ġopportunity":2189,"ators":2190,"room":2191,"Ġknown":2192,"ĠDNA":2193,"At":2194,"Ġpolitical":2195,"orld":2196,"Ġvers":2197,"Ġnear":2198,"Ġdisc":2199,"Ġtravel":2200,"Ġmult":2201,"Ġeither":2202,"ument":2203,"Ġphone":2204,"Ġdirect":2205,"ev":2206,"Ġciv":2207,"izing":2208,"Ġsum":2209,"Ġfight":2210,"Ġeconomy":2211,"Ġpredict":2212,"Not":2213,"ler":2214,"urb":2215,"Ġlost":2216,"Ġsurface":2217,"unt":2218,"Ġdest":2219,"Ġorig":2220,"Ġmeasure":2221,"Oh":2222,"Ġfear":2223,"ift":2224,"Ġareas":2225,"Ġobs":2226,"amp":2227,"ologies":2228,"Ġwrite":2229,"Ġdraw":2230,"ains":2231,"Ġmorning":2232,"ule":2233,"Ġslow":2234,"Ġrespons":2235,"Ġincredible":2236,"Ġstructure":2237,"ĠBe":2238,"Ġpost":2239,"Ġleaders":2240,"Ġmicro":2241,"Ġbottom":2242,"oll":2243,"ĠSh":2244,"ouch":2245,"uth":2246,"rom":2247,"lect":2248,"Ġextreme":2249,"ĠOK":2250,"Ġpatients":2251,"Ġattention":2252,"ral":2253,"Ġhar":2254,"uses":2255,"Ġblood":2256,"Ġphotograph":2257,"Ġbased":2258,"eed":2259,"Ġap":2260,"Ġpull":2261,"Ġsoft":2262,"Ġwouldn":2263,"ression":2264,"iny":2265,"Ġnice":2266,"Ġchanges":2267,"Ġfoot":2268,"Ġintern":2269,"cially":2270,"People":2271,"ively":2272,"bor":2273,"zy":2274,"Ġaverage":2275,"Ġfast":2276,"Ġnumbers":2277,"Ġchallenge":2278,"Is":2279,"Ġevolution":2280,"Ġrealize":2281,"hor":2282,"ales":2283,"Ġmole":2284,"Ġcy":2285,"ode":2286,"Ġimpact":2287,"Ġprofess":2288,"Ġpur":2289,"Ġsend":2290,"ustain":2291,"dden":2292,"Ġmar":2293,"entially":2294,"Ġbox":2295,"Ġwin":2296,"Ġsudden":2297,"of":2298,"Ġbrought":2299,"Ġste":2300,"Ġindust":2301,"ateg":2302,"ĠSe":2303,"lt":2304,"Okay":2305,"anger":2306,"Ġphysical":2307,"Ġcrit":2308,"Ġfeeling":2309,"erm":2310,"Ġsea":2311,"Ġmeaning":2312,"Ġborn":2313,"Ġdeveloped":2314,"com":2315,"Ġrelig":2316,"Ġrisk":2317,"Ġredu":2318,"Ġcomb":2319,"Ġbene":2320,"Ġanal":2321,"ows":2322,"Ġrock":2323,"Ġdie":2324,"Ġinsp":2325,"Ġgrowing":2326,"ole":2327,"acy":2328,"Ġexperiment":2329,"eng":2330,"Ġknowledge":2331,"To":2332,"bon":2333,"Ġseems":2334,"Ġforward":2335,"Ġmov":2336,"Ġwrote":2337,"Ġbooks":2338,"ey":2339,"lu":2340,"Ġrunning":2341,"Ġgiving":2342,"Ġliterally":2343,"Ġtheory":2344,"Ġopt":2345,"Ġforce":2346,"Ġtechnologies":2347,"Ġinstit":2348,"An":2349,"ging":2350,"Ġdeg":2351,"Ġfac":2352,"Ġmain":2353,"Ġcirc":2354,"Ch":2355,"ext":2356,"Ġrele":2357,"ified":2358,"Ġfundam":2359,"ĠChr":2360,"Ġfilm":2361,"ances":2362,"Ġwhite":2363,"Ġstra":2364,"Ġvol":2365,"Ġspread":2366,"vent":2367,"ored":2368,"Ġclimate":2369,"leep":2370,"ned":2371,"Ġast":2372,"Ġhor":2373,"Ġrepl":2374,"chie":2375,"Ġmap":2376,"Ġunderstanding":2377,"Ġmedic":2378,"Ġscientists":2379,"ĠEnglish":2380,"Ġsimilar":2381,"Ġelectric":2382,"Ġhundreds":2383,"cr":2384,"Ġfavor":2385,"Ġneigh":2386,"Ġstarting":2387,"Ġmiles":2388,"oon":2389,"Ġdepe":2390,"Ġanyone":2391,"CA":2392,"par":2393,"Ġworth":2394,"aged":2395,"Ġprin":2396,"ug":2397,"Ġvill":2398,"ĠThere":2399,"Ġserious":2400,"Ġgives":2401,"ggest":2402,"Ġcolor":2403,"Ġcivil":2404,"chan":2405,"Ġimages":2406,"Ġaudience":2407,"Ġball":2408,"Ġmillions":2409,"ĠWorld":2410,"Ġcurrent":2411,"Our":2412,"omen":2413,"Ġalone":2414,"Ġtele":2415,"Ġsuggest":2416,"Ġtelling":2417,"Ġtools":2418,"Ġhot":2419,"Ġsoon":2420,"Ġthank":2421,"Ġcompet":2422,"Ġguess":2423,"por":2424,"assion":2425,"Ġdescrib":2426,"ades":2427,"Ġtradition":2428,"Ġice":2429,"icy":2430,"Ġsil":2431,"Ġprom":2432,"ploy":2433,"Ġnormal":2434,"Ġproper":2435,"Ġtext":2436,"Ġflo":2437,"ĠTh":2438,"Ġcars":2439,"Ġhosp":2440,"Ġpath":2441,"racy":2442,"ilities":2443,"Ġdead":2444,"Ġissue":2445,"Ġavail":2446,"iet":2447,"Ġsho":2448,"ensive":2449,"Ġrul":2450,"Ġcenter":2451,"Where":2452,"Ġinclud":2453,"ites":2454,"ĠAs":2455,"iant":2456,"Ġplaying":2457,"Ġcreating":2458,"Ġdevelopment":2459,"Ġdiscovered":2460,"bit":2461,"Ġsustain":2462,"Ġlif":2463,"Ġseem":2464,"Ġamong":2465,"Ġtype":2466,"Ġaffect":2467,"Ġshowed":2468,"Ġstat":2469,"Ġstage":2470,"Ġsuff":2471,"head":2472,"Ġmovement":2473,"Ġconcept":2474,"ai":2475,"Ġaren":2476,"Ġroad":2477,"Ġmodern":2478,"ped":2479,"amed":2480,"Ġvisual":2481,"Ġabsolutely":2482,"Ġest":2483,"Ġtouch":2484,"Just":2485,"Ġsell":2486,"pecially":2487,"Ġrecently":2488,"Ġer":2489,"Ġsn":2490,"Ġcop":2491,"asing":2492,"imens":2493,"by":2494,"oud":2495,"Ġpoll":2496,"iod":2497,"Ġdeveloping":2498,"Ġcamp":2499,"Ġindustry":2500,"Ġintellig":2501,"Ġonline":2502,"Ġtrack":2503,"Ġhon":2504,"Ġarm":2505,"Ġtalked":2506,"ĠWell":2507,"Ġachie":2508,"Ġfu":2509,"urity":2510,"oose":2511,"Ġchance":2512,"ique":2513,"Ġprop":2514,"Ġtruth":2515,"ĠSouth":2516,"Ġresources":2517,"Ġincredibly":2518,"Ġsong":2519,"Ġconvers":2520,"Ġissues":2521,"like":2522,"Ġreact":2523,"Ġasking":2524,"Ġarr":2525,"Ġtransform":2526,"Ġpatient":2527,"Ġreasons":2528,"Ġsubject":2529,"erence":2530,"Ġvoice":2531,"ished":2532,"Ġexperien":2533,"Ġmathem":2534,"Ġshape":2535,"Ġfur":2536,"lear":2537,"Ġbenef":2538,"Ġlay":2539,"Ġproduce":2540,"Ġinnovation":2541,"ĠZ":2542,"Ġknows":2543,"ival":2544,"Ġavailable":2545,"phere":2546,"Ġbra":2547,"asc":2548,"Ġrate":2549,"Ġperiod":2550,"Ġsolution":2551,"Ġsold":2552,"Ġmechan":2553,"apt":2554,"Ġinvolved":2555,"Ġfire":2556,"Ġhaven":2557,"ung":2558,"Ġevidence":2559,"ĠNo":2560,"Ġattack":2561,"Ġsave":2562,"ĠHow":2563,"Ġsituation":2564,"St":2565,"Ġ25":2566,"Ġtiny":2567,"ency":2568,"Ġchoice":2569,"abor":2570,"iction":2571,"Ġdesigned":2572,"Ġeye":2573,"Ġflu":2574,"Ġflow":2575,"Ġsolve":2576,"Ġpictures":2577,"Ġneur":2578,"ister":2579,"Ġdin":2580,"yond":2581,"Ġbecomes":2582,"Ġespecially":2583,"ences":2584,"Ġdou":2585,"Ġcompassion":2586,"Ġchanging":2587,"ify":2588,"Ġsearch":2589,"Ġmessage":2590,"Ġbigger":2591,"Ġbaby":2592,"Ġ199":2593,"Ġcomputers":2594,"ĠChinese":2595,"ik":2596,"pan":2597,"arily":2598,"Ġexcept":2599,"Ġclos":2600,"Ġcarbon":2601,"Ġstreet":2602,"Ġputting":2603,"light":2604,"Ġult":2605,"Ġunf":2606,"Ġsmart":2607,"Ġsleep":2608,"Ġimm":2609,"Ġfunction":2610,"Ġfair":2611,"Ġlived":2612,"Ġemp":2613,"Ġemerg":2614,"Ġwriting":2615,"Ġnuc":2616,"istan":2617,"Ġgroups":2618,"Can":2619,"lict":2620,"oices":2621,"Ġbird":2622,"Ġsever":2623,"Ġtrust":2624,"Ġmedical":2625,"Ġlikely":2626,"Ġgirls":2627,"Ġbed":2628,"Ġdrive":2629,"pid":2630,"Ġtable":2631,"Ġforest":2632,"Ġsat":2633,"Ġce":2634,"Ġdied":2635,"str":2636,"ĠCan":2637,"ishing":2638,"Ġbeyond":2639,"Ġgeneral":2640,"Ġsoftware":2641,"Ġ60":2642,"Ġbacter":2643,"Ġtowards":2644,"Ġdom":2645,"Ġnine":2646,"aybe":2647,"Ġnecess":2648,"Ġlea":2649,"Ġsounds":2650,"oogle":2651,"Ġsolar":2652,"Ġrules":2653,"Ġbar":2654,"oring":2655,"ctors":2656,"umb":2657,"Ġtend":2658,"Ġreport":2659,"ips":2660,"Ġprim":2661,"Ġgeneration":2662,"Ġaw":2663,"Ġmount":2664,"Ġdefin":2665,"Ġdevice":2666,"Ġseveral":2667,"pre":2668,"Ġrain":2669,"Ġpeace":2670,"ressed":2671,"fort":2672,"nam":2673,"usion":2674,"Ġplant":2675,"ously":2676,"Ġdrugs":2677,"lo":2678,"Ġwish":2679,"Ġdanger":2680,"Ġrich":2681,"Ġbreat":2682,"Ġspeed":2683,"Ġparticularly":2684,"Ġrevolution":2685,"With":2686,"how":2687,"ina":2688,"Ġfa":2689,"Ġanybody":2690,"Ġconscious":2691,"oms":2692,"Ġcapital":2693,"Ġdrug":2694,"Ġsafe":2695,"used":2696,"une":2697,"Ġquality":2698,"Ġsyn":2699,"Ġblock":2700,"By":2701,"oun":2702,"Ġec":2703,"Ġmoved":2704,"Who":2705,"Ġonto":2706,"vert":2707,"Ġcharacter":2708,"medi":2709,"Ġextraord":2710,"ief":2711,"Ġaction":2712,"Ġoffice":2713,"book":2714,"ground":2715,"rast":2716,"xy":2717,"Ġfem":2718,"Ġgames":2719,"Ġrece":2720,"Ġbasic":2721,"Ġschools":2722,"Ġpotential":2723,"ires":2724,"view":2725,"Ġaf":2726,"Ġstru":2727,"Ġneg":2728,"Ġlink":2729,"Ġprinci":2730,"Ġshowing":2731,"ĠFr":2732,"Ġexamples":2733,"come":2734,"Ġhit":2735,"idge":2736,"pped":2737,"Ġwalking":2738,"Ġobviously":2739,"Ġcertainly":2740,"iar":2741,"uly":2742,"Ġlog":2743,"irth":2744,"Ġvision":2745,"Ġmaterials":2746,"Ġjourney":2747,"Ġpa":2748,"ĠAn":2749,"Ġfurther":2750,"oke":2751,"Ġscientific":2752,"ask":2753,"the":2754,"Ġtotally":2755,"Man":2756,"ners":2757,"Ġdiv":2758,"Ġcontext":2759,"Al":2760,"here":2761,"Ġaware":2762,"Ġep":2763,"Ġwants":2764,"ores":2765,"Ġstarts":2766,"Ġprojects":2767,"Ġchemical":2768,"ma":2769,"Ġnational":2770,"Ġnobody":2771,"Ġbiggest":2772,"Ġscreen":2773,"Ġeffic":2774,"Ġlargest":2775,"Ġexciting":2776,"onse":2777,"Ġgas":2778,"Ġgal":2779,"igher":2780,"Ġextremely":2781,"ought":2782,"Ġfix":2783,"ĠPh":2784,"Ġstudent":2785,"tend":2786,"Ġteachers":2787,"put":2788,"verty":2789,"Ġdoor":2790,"Ġeverywhere":2791,"ĠGoogle":2792,"Ġaccount":2793,"Ġfundamental":2794,"Ġparticip":2795,"Ġresults":2796,"uit":2797,"Look":2798,"eter":2799,"Ġactiv":2800,"Ġadm":2801,"Ġfarm":2802,"Ġmemory":2803,"Ġvirt":2804,"Ġdigital":2805,"Ġokay":2806,"Ġhigher":2807,"Ġmeant":2808,"antly":2809,"Ġdetail":2810,"Ġrepresent":2811,"Ġneighbor":2812,"itiz":2813,"cient":2814,"Ġcamera":2815,"Ġson":2816,"Ġnotice":2817,"Ġcarry":2818,"itary":2819,"eth":2820,"Ġcomplic":2821,"Maybe":2822,"Ġpositive":2823,"Ġapart":2824,"Of":2825,"ĠNow":2826,"Ġcross":2827,"icle":2828,"apan":2829,"Ġrole":2830,"Ġskin":2831,"oming":2832,"Ġhappiness":2833,"Ġthousand":2834,"Ġcontinue":2835,"more":2836,"Ġtrial":2837,"Ġsupposed":2838,"Ġviolence":2839,"Yes":2840,"for":2841,"Ġled":2842,"itten":2843,"Ġresponse":2844,"Ġsecurity":2845,"Ġ80":2846,"ohn":2847,"Ġpu":2848,"Ġintrodu":2849,"Ġclean":2850,"Ġjobs":2851,"Ġthreat":2852,"Ġmob":2853,"Ġboy":2854,"Ġconflict":2855,"Ġbirth":2856,"Ġnamed":2857,"Ġspir":2858,"ĠNorth":2859,"Ġfavorite":2860,"isions":2861,"osphere":2862,"Ġpoverty":2863,"Ġcheck":2864,"Ġtrees":2865,"Ġeventually":2866,"Ġdemocracy":2867,"Ġdepend":2868,"rest":2869,"ids":2870,"Ġstick":2871,"ĠDe":2872,"Ġadult":2873,"Ġready":2874,"Ġcapt":2875,"Ġconnected":2876,"Ġindividuals":2877,"Ġimprove":2878,"aur":2879,"iation":2880,"Ġfill":2881,"ann":2882,"Ġsepar":2883,"Ġvac":2884,"ruction":2885,"Ġconsider":2886,"Ġcris":2887,"Ġearl":2888,"ughter":2889,"Ġbunch":2890,"Ġdro":2891,"Ġsequ":2892,"Ġgraph":2893,"Ġterror":2894,"mb":2895,"Ġtar":2896,"Ġcitiz":2897,"agn":2898,"ossible":2899,"Ġtransl":2900,"ĠBrit":2901,"Ġfant":2902,"ulate":2903,"Ġprogress":2904,"Ġmodels":2905,"Ġwatching":2906,"urban":2907,"Ġactivity":2908,"Ġminds":2909,"mend":2910,"Ġdiscover":2911,"Ġessentially":2912,"IV":2913,"Ġfaster":2914,"ims":2915,"iger":2916,"Ġtells":2917,"akes":2918,"ĠWest":2919,"ĠJapan":2920,"Ġcause":2921,"Ġcrazy":2922,"After":2923,"Ġpen":2924,"iding":2925,"rad":2926,"Ġann":2927,"Ġmagn":2928,".,":2929,"ze":2930,"Ġplants":2931,"odies":2932,"Ġperspect":2933,"Ġlose":2934,"Ġgrew":2935,"Ġimmedi":2936,"ĠCal":2937,"conds":2938,"Ġreturn":2939,"joy":2940,"erve":2941,"Ġwebs":2942,"Ġworse":2943,"Ġconcer":2944,"Ġclin":2945,"Ġcommunities":2946,"Ġassum":2947,"Ġconditions":2948,"Ġsuddenly":2949,"Ġmovie":2950,"Ġvillage":2951,"Ġmathemat":2952,"Ġmine":2953,"Ġpush":2954,"Ġshown":2955,"Ġdisapp":2956,"ounds":2957,"Ġaccept":2958,"ortunately":2959,"iers":2960,"Ġgoal":2961,"Ġ16":2962,"Ġbrains":2963,"Ġcreative":2964,"Ġnuclear":2965,"First":2966,"Ġsource":2967,"lex":2968,"Ġbuildings":2969,"Ġstrateg":2970,"Ġmeth":2971,"Ġobjects":2972,"Ġgalax":2973,"OK":2974,"Ġbom":2975,"ĠHIV":2976,"Ġappear":2977,"Ġindeed":2978,"Ġcollabor":2979,"Ġhospital":2980,"Ġwaste":2981,"Ġchoose":2982,"Ġsorts":2983,"Ġlaunch":2984,"Ġcart":2985,"Ġ11":2986,"Ġpublish":2987,"Ġpassion":2988,"Ġcolleag":2989,"Ġlate":2990,"Ġsomewhere":2991,"ipt":2992,"Ġfinding":2993,"Ġremark":2994,"ring":2995,"Ġsite":2996,"cape":2997,"Ġimpossible":2998,"Ġphen":2999,"Ġextraordinary":3000,"nces":3001,"atory":3002,"Ġmarr":3003,"Ġlands":3004,"let":3005,"Ġlarger":3006,"Ġteacher":3007,"Ġlabor":3008,"inct":3009,"Ġsand":3010,"Ġ201":3011,"ĠAfrican":3012,"Ġmedicine":3013,"cise":3014,"ana":3015,"Ġabove":3016,"Ġminute":3017,"Any":3018,"ror":3019,"estern":3020,"Ġ14":3021,"Ġtaught":3022,"Ġkilled":3023,"Most":3024,"ued":3025,"Ġforms":3026,"Ġdoctor":3027,"Ġdeb":3028,"Ġenjoy":3029,"Ġsignific":3030,"Ġallowed":3031,"ech":3032,"wo":3033,"Ġblind":3034,"others":3035,"Ġdetect":3036,"Ġproducts":3037,"Ġsky":3038,"Ġinflu":3039,"Ġincluding":3040,"Ġcomplicated":3041,"nal":3042,"Ġwife":3043,"Ġmis":3044,"sect":3045,"rage":3046,"Ġphil":3047,"Ġcat":3048,"izations":3049,"Ġended":3050,"Ġtemper":3051,"Ġfine":3052,"Ġdam":3053,"ster":3054,"though":3055,"Ġheav":3056,"ured":3057,"Ġusually":3058,"Ġcases":3059,"urt":3060,"amm":3061,"Ġallows":3062,"Ġincrease":3063,"Ġbal":3064,"Ġtruly":3065,"Ġ17":3066,"Ġmanage":3067,"Ġunivers":3068,"Ġstudies":3069,"ission":3070,"Ġposition":3071,"Ġdiscuss":3072,"Ġtraditional":3073,"Ġphenomen":3074,"Ġbank":3075,"Ġburn":3076,"Ġalive":3077,"oday":3078,"ologists":3079,"Ġearth":3080,"Ġafford":3081,"Ġtraining":3082,"ining":3083,"Ġmist":3084,"Ġfing":3085,"rap":3086,"Ġexcited":3087,"Ġfamilies":3088,"!\"":3089,"Even":3090,"Ġwild":3091,"Ġoxy":3092,"Ġpack":3093,"ffic":3094,"Ġbeings":3095,"Ġpoints":3096,"Ġmoral":3097,"Ġdecision":3098,"Ġolder":3099,"Ġdistrib":3100,"Ġstanding":3101,"Ġauthor":3102,"Ġsuccessful":3103,"Ġinternational":3104,"Im":3105,"Ġfram":3106,"edom":3107,"Ġluck":3108,"Ġstars":3109,"useum":3110,"Ġprice":3111,"Ġprote":3112,"Ġcritical":3113,"Ġcard":3114,"Ġmention":3115,"Ġdy":3116,"ĠAm":3117,"Ġregion":3118,"Ġwait":3119,"Ġsquare":3120,"ugh":3121,"Ġthrow":3122,"Ġdoc":3123,"Ġkil":3124,"Ġfinan":3125,"Ġpurp":3126,"po":3127,"Ġbur":3128,"Ġlower":3129,"iven":3130,"Ġcollege":3131,"Ġelectricity":3132,"Ġbacteria":3133,"go":3134,"Ġtree":3135,"Ġlines":3136,"Which":3137,"Ġprison":3138,"Ġreading":3139,"Ġinfect":3140,"Ġconversation":3141,"Ġcrisis":3142,"Don":3143,"isms":3144,"Ġupon":3145,"Ġsomehow":3146,"Ġcold":3147,"Ġseries":3148,"Ġengage":3149,"Ġpieces":3150,"Ġachieve":3151,"Ġperspective":3152,"inated":3153,"rel":3154,"Ġcook":3155,"Ġfasc":3156,"ĠIf":3157,"ĠAll":3158,"Ġprovide":3159,"Ġpatterns":3160,"Ġstraight":3161,"ration":3162,"ĠJohn":3163,"Ġpolicy":3164,"Ġhealthy":3165,"Ġrespect":3166,"Ġspecific":3167,"fact":3168,"la":3169,"men":3170,"Ġtrou":3171,"Ġcode":3172,"Ġstar":3173,"ĠWar":3174,"Ġsmaller":3175,"ĠChrist":3176,"Ġign":3177,"Ġurban":3178,"rect":3179,"Ġpan":3180,"Ġseconds":3181,"soci":3182,"Ġkept":3183,"Ġphysics":3184,"Ġenorm":3185,"Ġquant":3186,"Ġrights":3187,"Ġwritten":3188,"Ġoccur":3189,"Ġhop":3190,"Ġfra":3191,"Ġprint":3192,"ĠPr":3193,"ĠTV":3194,"Ġbiology":3195,"Ġrecognize":3196,"Ġneurons":3197,"âĻ":3198,"Ġtown":3199,"agine":3200,"Ġanywhere":3201,"Ġcontent":3202,"Ġslight":3203,"Ġorganization":3204,"Ġtreatment":3205,"Ġpage":3206,"ently":3207,"rab":3208,"Ġhimself":3209,"Ġterm":3210,"Ġrobots":3211,"Ġversion":3212,"Ġsou":3213,"Ġswe":3214,"imb":3215,"ama":3216,"Ġactual":3217,"Ġroll":3218,"Ġmilitary":3219,"Ġcalcul":3220,"ping":3221,"Ġsal":3222,"Ġweight":3223,"ays":3224,"Ġdoctors":3225,"Ġanymore":3226,"ube":3227,"Ġincreasing":3228,"cies":3229,"iced":3230,"ops":3231,"ĠEast":3232,"Ġboard":3233,"Ġ198":3234,"Ġplease":3235,"Ġmolec":3236,"dom":3237,"Ġdog":3238,"ustrial":3239,"Ġservice":3240,"Ġarchitecture":3241,"ĠGe":3242,"epend":3243,"Ġeffort":3244,"met":3245,"Ġbodies":3246,"Ġgenes":3247,"Ġrespond":3248,"Ġaddress":3249,"erman":3250,"Ġwhe":3251,"uments":3252,"Ġtrick":3253,"ĠMan":3254,"Ġcontrib":3255,"Ġemploy":3256,"ĠIsl":3257,"Ġveh":3258,"Today":3259,"iling":3260,"aging":3261,"Ġtransport":3262,"bol":3263,"back":3264,"zz":3265,"Ġport":3266,"Ġweb":3267,"ulf":3268,"Ġstrange":3269,"Ġmagic":3270,"Ġearlier":3271,"Ġlegs":3272,"Ġgreater":3273,"Ġbecoming":3274,"Ġmachines":3275,"Ġpainting":3276,"Ġprivate":3277,"ried":3278,"Those":3279,"Ġloved":3280,"Ġemail":3281,"Ġdecisions":3282,"Ġpolice":3283,"ĠAfgh":3284,"Ġskills":3285,"time":3286,"Ġcatch":3287,"Ġyeah":3288,"Ġeth":3289,"thern":3290,"Ġwilling":3291,"Ġdesp":3292,"Ġremind":3293,"Ġclearly":3294,"Ġlistening":3295,"itation":3296,"rams":3297,"oles":3298,"Ġ13":3299,"Ġweren":3300,"Ġthroughout":3301,"Ġglass":3302,"lebr":3303,"erson":3304,"ĠSw":3305,"Ġexpensive":3306,"ĠPro":3307,"Ġlaugh":3308,"Ġfamiliar":3309,"oes":3310,"Ġsam":3311,"aries":3312,"Ġcomfort":3313,"Ġshot":3314,"Ġjump":3315,"Ġfamous":3316,"itude":3317,"Ġmental":3318,"Ġworry":3319,"Ġtherefore":3320,"Ġspect":3321,"Ġunique":3322,"Ġ21":3323,"ĠLe":3324,"acity":3325,"Ġdrink":3326,"Ġsolutions":3327,"ĠYeah":3328,"bb":3329,"ĠCar":3330,"ĠBra":3331,"Ġcloud":3332,"ĠAmericans":3333,"Ġcosts":3334,"inating":3335,"Ġstore":3336,"Ġexh":3337,"Ġalg":3338,"Ġproduction":3339,"Ġexplore":3340,"Ġsociet":3341,"Ġ90":3342,"Ġstrugg":3343,"aly":3344,"sequ":3345,"Ġforth":3346,"Ġdeterm":3347,"Ġlevels":3348,"Ġwebsite":3349,"Ġthr":3350,"enn":3351,"Ġpark":3352,"ceed":3353,"Ġrid":3354,"Ġgenetic":3355,"Ġwaiting":3356,"Ġpractice":3357,"Ġfantastic":3358,"eral":3359,"ained":3360,"Ġcover":3361,"Ġdangerous":3362,"ĠAfghan":3363,"ky":3364,"mic":3365,"Ġtap":3366,"iti":3367,"Ġrange":3368,"Ġsurger":3369,"Ġautom":3370,"Ġfreedom":3371,"Ġintelligence":3372,"ec":3373,"fer":3374,"iest":3375,"eless":3376,"ables":3377,"Ġgreatest":3378,"Ġfinal":3379,"Ġdirection":3380,"Ġperformance":3381,"ystem":3382,"atives":3383,"Ġsaving":3384,"ĠRight":3385,"Ġbeauty":3386,"Ġcelebr":3387,"Somet":3388,"Ġweap":3389,"imately":3390,"Ġrise":3391,"Ġprep":3392,"Ġrand":3393,"Ġwalked":3394,"Ġenvironmental":3395,"Ġzero":3396,"Right":3397,"orry":3398,"uted":3399,"Ġsecret":3400,"Ġinstitutions":3401,"Ġcitizens":3402,"ises":3403,"orrow":3404,"Ġatm":3405,"osing":3406,"ĠCity":3407,"resh":3408,"Ġdecade":3409,"Ġspirit":3410,"atically":3411,"ashing":3412,"ils":3413,"ĠUniversity":3414,"Ġvalues":3415,"Ġeffective":3416,"Ġvari":3417,"Another":3418,"Ġfuel":3419,"Ġimmediately":3420,"Yeah":3421,"oid":3422,"rees":3423,"Ġcry":3424,"Ġcrow":3425,"istics":3426,"Ġdriving":3427,"Ġmeeting":3428,"yr":3429,"oty":3430,"ologist":3431,"Ġrandom":3432,"Ġlad":3433,"Ġwealth":3434,"Ġshark":3435,"ĠSp":3436,"Ġinvented":3437,"Ġoptim":3438,"Ġfloor":3439,"Ġmatch":3440,"Ġran":3441,"Ġplastic":3442,"Ġcoun":3443,"ondon":3444,"Ġteaching":3445,"Ġmassive":3446,"Ġvarious":3447,"Ġtypes":3448,"Ġahead":3449,"itor":3450,"Ġdecades":3451,"airs":3452,"Ġdemon":3453,"Ġlaws":3454,"attle":3455,"Ġencou":3456,"Imagine":3457,"Ġincome":3458,"ĠOr":3459,"Ġservices":3460,"Ġmultip":3461,"vision":3462,"ches":3463,"Ġjud":3464,"ĠLondon":3465,"Ġhumanity":3466,"Ġinterview":3467,"Ġcareer":3468,"Ġgovernments":3469,"Ġconnection":3470,"Ġneighborhood":3471,"ball":3472,"pro":3473,"iles":3474,"Ġgradu":3475,"rastruct":3476,"âĻ«":3477,"antic":3478,"ĠMus":3479,"ĠGerman":3480,"Ġdecide":3481,"Ġapply":3482,"Ġcondition":3483,"iot":3484,"Ġconcl":3485,"Ġinstance":3486,"Ġfollowing":3487,"Ġbabies":3488,"60":3489,"SA":3490,"eny":3491,"Ġinsect":3492,"Ġord":3493,"Ġalthough":3494,"Ġuses":3495,"ĠHar":3496,"Ġuseful":3497,"Ġsimpl":3498,"Ġinstr":3499,"Ġi":3500,"Ġfit":3501,"ĠCent":3502,"ricult":3503,"Ġpopular":3504,"Ġphysic":3505,"Ġterrible":3506,"Ġmethod":3507,"Ġremarkable":3508,"Se":3509,"Ġnation":3510,"stit":3511,"key":3512,"Ġchoices":3513,"ĠAt":3514,"ĠWestern":3515,"Ġrelative":3516,"Ġpossibly":3517,"Ġinfrastruct":3518,"Ġelectron":3519,"Ġenormous":3520,"ef":3521,"Ġsurve":3522,"Ġstandard":3523,"Ġhonest":3524,"aign":3525,"ĠX":3526,"Ġdram":3527,"Ġforget":3528,"ĠOkay":3529,"Ġscr":3530,"Ġeffects":3531,"Ġdemonstr":3532,"wise":3533,"Ġraise":3534,"Ġpolitics":3535,"Ġflying":3536,"Ġatmosphere":3537,"gain":3538,"iate":3539,"yl":3540,"Ġanyway":3541,"Ġchallenges":3542,"Ġbroad":3543,"board":3544,"Ġsus":3545,"Ġsad":3546,"Ġcust":3547,"Ġhous":3548,"Ġhair":3549,"Ġstress":3550,"Ġassoci":3551,"Ġ24":3552,"Ġtrade":3553,"Ġoppos":3554,"Ġvirus":3555,"Ġfinancial":3556,"Ġsocieties":3557,"Ġyell":3558,"Ġnut":3559,"ervation":3560,"anced":3561,"iforn":3562,"Ġinteg":3563,"Ġvict":3564,"Ġexpress":3565,"Ġhelped":3566,"Ġslide":3567,"Ġdiseases":3568,"Ġengineering":3569,"Ġmotiv":3570,"Ġdynam":3571,"Ġslightly":3572,"Like":3573,"uct":3574,"Ġtiss":3575,"repre":3576,"Ġmamm":3577,"arm":3578,"Ġaltern":3579,"Ġrace":3580,"Ġunderstood":3581,"Ġ197":3582,"Ġsupply":3583,"Ġ70":3584,"Ġsymbol":3585,"Ġpressure":3586,"Ġsummer":3587,"reprene":3588,"now":3589,"ray":3590,"Ġmut":3591,"Ġworst":3592,"ĠAustr":3593,"itted":3594,"Ġspeech":3595,"Ġsurround":3596,"Ġban":3597,"iring":3598,"ĠSch":3599,"ĠMars":3600,"Ġcommer":3601,"Ġscan":3602,"Ġcapacity":3603,"Ġhyd":3604,"Ġmicrob":3605,"Ġpurpose":3606,"win":3607,"Ġbase":3608,"Ġmal":3609,"Ġpig":3610,"Ġdrop":3611,"udd":3612,"iber":3613,"Ġbelow":3614,"Ġtelevision":3615,"Ġphilos":3616,"cles":3617,"Ġwood":3618,"Ġartist":3619,"Ġshared":3620,"Ġswitch":3621,"Ġsurvive":3622,"Ġdirectly":3623,"Ġdestro":3624,"Ġfemale":3625,"ĠCaliforn":3626,"Ġcolleagues":3627,"ĠQ":3628,"Ġir":3629,"Ġtens":3630,"Ġwhose":3631,"cience":3632,"ĠCong":3633,"Ġmostly":3634,"Ġcultural":3635,"Ġswim":3636,"Ġ500":3637,"Ġpaid":3638,"Ġtemperature":3639,"ufact":3640,"Ġrule":3641,"Ġoffic":3642,"Ġcentral":3643,"Ġprograms":3644,"Ġtremend":3645,"ancy":3646,"arian":3647,"Ġstates":3648,"Ġagricult":3649,"ĠIndian":3650,"Ġrelationships":3651,"Ġreligion":3652,"yle":3653,"Ġforces":3654,"Ġconsequ":3655,"unk":3656,"Ġprevent":3657,"Ġinvent":3658,"Ġboys":3659,"ios":3660,"Ġdad":3661,"Ġdimens":3662,"Ġet":3663,"cell":3664,"ĠArab":3665,"Ġcauses":3666,"Ġdoub":3667,"Ġpublished":3668,"Ġinfrastructure":3669,"ĠCalifornia":3670,"cope":3671,"olve":3672,"Ġdifferences":3673,"Ġblog":3674,"Ġcreativity":3675,"Ġbelief":3676,"Ġmeters":3677,"Ġorganizations":3678,"ID":3679,"wood":3680,"Ġaid":3681,"Ġloss":3682,"raq":3683,"Ġnoticed":3684,"Ġconc":3685,"ĠBl":3686,"Ġfunny":3687,"Ġanswers":3688,"Ġcontroll":3689,"Ġreflect":3690,"Ġprofound":3691,"Ġtotal":3692,"load":3693,"Ġmobile":3694,"Ġtun":3695,"Ġtask":3696,"ooper":3697,"Ġmale":3698,"Ġoxygen":3699,"gy":3700,"ked":3701,"ened":3702,"stead":3703,"Ġheat":3704,"cks":3705,"cules":3706,"Ġradio":3707,"Ġcloser":3708,"ris":3709,"raid":3710,"Ġliber":3711,"izes":3712,"Ġexpand":3713,"Ġspeaking":3714,"Ġdiagn":3715,"Ġlegal":3716,"Ġcampaign":3717,"ĠAfghanistan":3718,"Are":3719,"inate":3720,"Ġmid":3721,"ement":3722,"Ġtwice":3723,"rupt":3724,"rench":3725,"Ġ300":3726,"Ġentreprene":3727,"Ġbiological":3728,"Ġstopped":3729,"Ġoriginal":3730,"Ġmountain":3731,"Ġtrouble":3732,"Ġsurgery":3733,"af":3734,"off":3735,"anda":3736,"ander":3737,"ĠMar":3738,"Ġplayed":3739,"Ġafraid":3740,"ĠMusl":3741,"esis":3742,"aling":3743,"Ġspaces":3744,"ĠSte":3745,"Ġworkers":3746,"Ġmanufact":3747,"Ġevolved":3748,"ĠNational":3749,"ĠOne":3750,"Ġproduced":3751,"Ġmarkets":3752,"Ġnetworks":3753,"Ġstreets":3754,"Ġcommunicate":3755,"ira":3756,"pes":3757,"uing":3758,"Ġhole":3759,"ĠIraq":3760,"Ġang":3761,"Ġcompon":3762,"ĠMy":3763,"Ġgotten":3764,"Ġsustainable":3765,"vest":3766,"water":3767,"Ġbought":3768,"icles":3769,"Ġshock":3770,"Ġactive":3771,"Ġpoet":3772,"Ġdispl":3773,"phone":3774,"Ġapplic":3775,"Ġhighly":3776,"Ġjournal":3777,"Ġoh":3778,"Ġhus":3779,"arter":3780,"rael":3781,"Ġfeels":3782,"Ġmissing":3783,"Ġmix":3784,"Ġseemed":3785,"Ġtax":3786,"Ġsmell":3787,"Ġeasily":3788,"Ġexperiments":3789,"Ġresponsibility":3790,"Ġcustom":3791,"hy":3792,"Ġut":3793,"Ġdance":3794,"Ġdying":3795,"Ġfort":3796,"amb":3797,"adem":3798,"atell":3799,"Ġvast":3800,"ception":3801,"ashion":3802,"Ġemotional":3803,"Ġmolecules":3804,"ĠIslam":3805,"orith":3806,"Ġlack":3807,"empt":3808,"order":3809,"Ġcorner":3810,"Ġhistor":3811,"Ġclassroom":3812,"exic":3813,"Ġsurprising":3814,"Ġshoot":3815,"Sh":3816,"band":3817,"zil":3818,"Ġfat":3819,"ste":3820,"Ġrough":3821,"ibr":3822,"Ġdifferently":3823,"ĠRuss":3824,"aced":3825,"Ġindepend":3826,"Ġbasis":3827,"ica":3828,"Ġeating":3829,"ulner":3830,"Ġknowing":3831,"ĠAd":3832,"Ġcoff":3833,"ĠFace":3834,"Ġcreates":3835,"Ġhelping":3836,"Ġplanets":3837,"Ġdegrees":3838,"Ġexperiences":3839,"Ġbirds":3840,"Ġalgorith":3841,"ĠWhy":3842,"edia":3843,"Ġhall":3844,"istry":3845,"Ġdesigners":3846,"Ġdeliver":3847,"Ġreduce":3848,"Ġefficient":3849,"Ġsignificant":3850,"Ġwire":3851,"Ġdiversity":3852,"ĠIran":3853,"Ġgold":3854,"Ġrapid":3855,"avid":3856,"Ġattract":3857,"Ġmembers":3858,"Ġwindow":3859,"mon":3860,"rical":3861,"Ġsick":3862,"Ġcru":3863,"itter":3864,"Ġnone":3865,"ctually":3866,"ĠShe":3867,"ĠOh":3868,"Ġdaughter":3869,"reg":3870,"Ġsatell":3871,"Ġweird":3872,"Ġhabit":3873,"Ġindustrial":3874,"Ġcommunication":3875,"cript":3876,"ening":3877,"ears":3878,"Ġbackground":3879,"Instead":3880,"Ġrare":3881,"Ġbringing":3882,"Ġcomplexity":3883,"Ġbroken":3884,"Ġnearly":3885,"Ġdinos":3886,"ĠiP":3887,"Ġ$":3888,"Ġver":3889,"Ġur":3890,"Ġseas":3891,"term":3892,"ĠCom":3893,"Ġflight":3894,"Ġgenome":3895,"Ġscientist":3896,"Ġspending":3897,"ĠBrazil":3898,"From":3899,"mp":3900,"Ġhom":3901,"Ġgent":3902,"ĠSan":3903,"ĠCl":3904,"ĠMexic":3905,"Ġagree":3906,"Ġclimb":3907,"Ġvisit":3908,"Ġairpl":3909,"Ġetc":3910,"Two":3911,"ratic":3912,"icking":3913,"osystem":3914,"Ġcontact":3915,"Ġstudying":3916,"Ġlights":3917,"Ġdemand":3918,"Ġconference":3919,"Ġphoto":3920,"ĠBecause":3921,"Ġconsciousness":3922,"Ġtarget":3923,"Ġcommercial":3924,"Your":3925,"gth":3926,"isco":3927,"icon":3928,"Ġreb":3929,"Ġreco":3930,"Ġstren":3931,"Ġtrip":3932,"anging":3933,"Ġresist":3934,"Ġaddition":3935,"Ġhearing":3936,"Ġdevices":3937,"Ġanaly":3938,"ĠAustral":3939,"30":3940,"Ġske":3941,"Ġfold":3942,"Ġshift":3943,"Ġenter":3944,"Ġbreast":3945,"Ġopportunities":3946,"Ġvolunt":3947,"Ġcrowd":3948,"Ġtremendous":3949,"Ġwide":3950,"reci":3951,"Ġbees":3952,"rogen":3953,"Ġvulner":3954,"ording":3955,"Ġboat":3956,"Ġmetap":3957,"Ġfocused":3958,"Ġjoin":3959,"Many":3960,"Ġlandscape":3961,"IDS":3962,"ĠFacebook":3963,"Ġinj":3964,"Ġhack":3965,"Ġchim":3966,"Ġtrib":3967,"ĠLet":3968,"Ġecosystem":3969,"Ġstrength":3970,"Ġtum":3971,"Ġfro":3972,"Ġrout":3973,"ĠDr":3974,"Ġflag":3975,"Ġfairly":3976,"aul":3977,"ees":3978,"edd":3979,"Ġstem":3980,"Ġbrill":3981,"Ġimagination":3982,"Ġforever":3983,"Ġfully":3984,"Ġmaster":3985,"Ġpassed":3986,"Ġsexual":3987,"Ġidentity":3988,"rie":3989,"Ġtherap":3990,"Ġcooper":3991,"Ġbread":3992,"Think":3993,"aining":3994,"bert":3995,"Ġdesert":3996,"ĠIsrael":3997,"Ġmission":3998,"iam":3999,"Ġmuseum":4000,"Ġbeat":4001,"Ġancient":4002,"Ġshop":4003,"Ġcorrect":4004,"Ġparad":4005,"Ġcoffee":4006,"hand":4007,"house":4008,"na":4009,"Ġcred":4010,"Ġaspect":4011,"Ġcreatures":4012,"Ġconsid":4013,"Ġpleas":4014,"Ġinspired":4015,"Ġbomb":4016,"Ġphenomenon":4017,"Ġlucky":4018,"Ġopposite":4019,"Ġyellow":4020,"Un":4021,"based":4022,"do":4023,"gra":4024,"pping":4025,"Ġalt":4026,"ĠMiddle":4027,"Ġparty":4028,"orders":4029,"Ġartists":4030,"Ġpossibility":4031,"Ġcheap":4032,"Ġargument":4033,"Ġreligious":4034,"Ġfarmers":4035,"Ġdespite":4036,"ties":4037,"atr":4038,"Ġcore":4039,"Ġmort":4040,"Ġamb":4041,"Ġturning":4042,"Ġmagaz":4043,"Ġfailure":4044,"Ġcogn":4045,"Ġhost":4046,"ifying":4047,"Ġaccom":4048,"Ġaccident":4049,"Ġeasier":4050,"idden":4051,"ography":4052,"Ġadvant":4053,"ipped":4054,"Ġdescribe":4055,"Ġbrand":4056,"Ġgentle":4057,"cest":4058,"mark":4059,"val":4060,"atures":4061,"Ġmouth":4062,"orge":4063,"Ġgiant":4064,"Ġrepe":4065,"Ġhell":4066,"Ġsharing":4067,"Ġnotion":4068,"Ġteen":4069,"Ġevents":4070,"itely":4071,"ĠRe":4072,"Ġparticles":4073,"Ġfigured":4074,"Ġdreams":4075,"ront":4076,"Ġgun":4077,"using":4078,"irt":4079,"Ġship":4080,"Ġnote":4081,"Ġpartners":4082,"Ġraised":4083,"Ġimportantly":4084,"ification":4085,"Ġmoments":4086,"Ġstructures":4087,"lies":4088,"zen":4089,"edic":4090,"Ġnor":4091,"ulpt":4092,"ĠDo":4093,"ĠRo":4094,"Ġsculpt":4095,"ĠWeb":4096,"Ġforeign":4097,"Ġentirely":4098,"Ġbenefits":4099,"cop":4100,"rim":4101,"Ġing":4102,"Ġancest":4103,"Ġjoy":4104,"Ġexer":4105,"roud":4106,"ager":4107,"Ġcoast":4108,"ĠTw":4109,"Ġgene":4110,"Ġharm":4111,"cra":4112,"ford":4113,"Ġfol":4114,"vere":4115,"Ġforg":4116,"Ġheld":4117,"ulations":4118,"Ġplat":4119,"Ġbright":4120,"ĠYes":4121,"Ġregular":4122,"print":4123,"ĠAsia":4124,"20":4125,"rated":4126,"ĠWh":4127,"reet":4128,"Ġsorry":4129,"Ġbatter":4130,"icians":4131,"ett":4132,"ada":4133,"ĠMich":4134,"Ġcla":4135,"Ġpoem":4136,"Ġcalls":4137,"Ġbrings":4138,"Ġelements":4139,"Ġsuffering":4140,"Ġnecessarily":4141,"Ġnegative":4142,"Ġpuzz":4143,"Ġvacc":4144,"Ġble":4145,"Ġbillions":4146,"Ġtom":4147,"Ġsport":4148,"ĠPar":4149,"Ġtraffic":4150,"connect":4151,"Ġcharge":4152,"Ġrequire":4153,"vity":4154,"Ġwis":4155,"Ġfashion":4156,"ley":4157,"Ġnorth":4158,"enty":4159,"roll":4160,"Ġstream":4161,"Ġconcent":4162,"Ġquote":4163,"ĠNor":4164,"Ġattempt":4165,"Ġaccur":4166,"Ġrestaur":4167,"Ġresponsible":4168,"Ġkilomet":4169,"dimens":4170,"equ":4171,"my":4172,"rate":4173,"Ġtough":4174,"inc":4175,"Ġmill":4176,"Ġproud":4177,"ĠMc":4178,"Ġbrother":4179,"Ġbridge":4180,"Ġappreci":4181,"Ġremote":4182,"Ġdistance":4183,"Ġphotos":4184,"Ġleadership":4185,"Ġcompetition":4186,"Again":4187,"Ġbud":4188,"Ġbound":4189,"Ġpounds":4190,"Ġseed":4191,"Ġdisp":4192,"Ġprevious":4193,"Ġsmo":4194,"Ġinvis":4195,"Ġhelps":4196,"Ġcorpor":4197,"Ġopened":4198,"ĠEuropean":4199,"Ġcounter":4200,"Ġtissue":4201,"ugg":4202,"ĠĠ":4203,"Ġiron":4204,"aria":4205,"verse":4206,"celer":4207,"ifically":4208,"ulated":4209,"Ġchick":4210,"ruption":4211,"ĠFor":4212,"ĠFrench":4213,"Ġstudied":4214,"Ġindic":4215,"Ġedge":4216,"Ġ400":4217,"Ġleading":4218,"Ġnecessary":4219,"Ġdefinition":4220,"Ġepide":4221,"Ġvirtual":4222,"Ġweapons":4223,"gypt":4224,"stein":4225,"eared":4226,"uild":4227,"inally":4228,"itable":4229,"Ġinform":4230,"Ġegg":4231,"idents":4232,"Ġsector":4233,"ibilities":4234,"ĠNiger":4235,"ĠFran":4236,"ysis":4237,"Ġgrass":4238,"Ġoceans":4239,"Ġintellect":4240,"Ġemotion":4241,"Ġdocument":4242,"Ġphilosoph":4243,"Ġcand":4244,"Ġreve":4245,"Ġadapt":4246,"Ġshouldn":4247,"Ġbelieved":4248,"Ġmatters":4249,"Ġholding":4250,"Ġultimately":4251,"Ġbalance":4252,"Ġhusband":4253,"Ġbrilliant":4254,"Actually":4255,"Com":4256,"kn":4257,"lin":4258,"Ġmaint":4259,"Ġhero":4260,"Ġrelated":4261,"Ġstuck":4262,"However":4263,"Ġdollar":4264,"Ġmotor":4265,"Ġfailed":4266,"Ġunfortunately":4267,"Ġfaith":4268,"Ġadults":4269,"Ġdestroy":4270,"ses":4271,"Ġtast":4272,"artment":4273,"Ġtruck":4274,"Ġcompl":4275,"Ġoffer":4276,"Ġchildhood":4277,"Ġleads":4278,"Ġsignal":4279,"Ġcolors":4280,"Ġsucceed":4281,"Ġconvin":4282,"ĠChris":4283,"Ġdouble":4284,"His":4285,"aff":4286,"iors":4287,"uros":4288,"vant":4289,"ctions":4290,"urch":4291,"Ġund":4292,"Ġshel":4293,"Ġriver":4294,"ĠDar":4295,"ĠKeny":4296,"Ġinvestment":4297,"Ġgrandm":4298,"Ġinstitution":4299,"dimensional":4300,"iage":4301,"tle":4302,"word":4303,"Ġmouse":4304,"Ġnarr":4305,"Ġclick":4306,"iable":4307,"ĠDavid":4308,"Ġheads":4309,"Ġconcerned":4310,"Ġinsects":4311,"Ġplatform":4312,"mar":4313,"inist":4314,"Ġhate":4315,"Ġpet":4316,"Ġfab":4317,"Ġfoss":4318,"care":4319,"Ġnoise":4320,"Ġuniversity":4321,"ographic":4322,"Ġdiscovery":4323,"Ġleaving":4324,"Ġwheel":4325,"hold":4326,"ij":4327,"mit":4328,"Ġfle":4329,"Ġlunch":4330,"oop":4331,"ĠAb":4332,"oses":4333,"ĠSun":4334,"agers":4335,"Ġunlike":4336,"ĠEgypt":4337,"Hey":4338,"Ġelement":4339,"Ġnewsp":4340,"Ġdeeply":4341,"Ġconstruct":4342,"Ġslowly":4343,"Ġsequence":4344,"Ġinfluence":4345,"Ġexhib":4346,"right":4347,"ĠWhen":4348,"Ġmoves":4349,"terday":4350,"Ġexch":4351,"Ġnovel":4352,"Ġunc":4353,"Ġprior":4354,"Ġcrash":4355,"Ġlesson":4356,"Ġcaught":4357,"Ġfrequ":4358,"Ġdegree":4359,"Re":4360,"Ġweak":4361,"illed":4362,"Ġcompared":4363,"Ġtransp":4364,"Ġprototy":4365,"Ġconstantly":4366,"Ġtypical":4367,"ipping":4368,"Ġprofessional":4369,"lands":4370,"ox":4371,"Ġbag":4372,"Ġmig":4373,"alled":4374,"ĠMr":4375,"ĠBang":4376,"ĠGreat":4377,"Ġletter":4378,"ĠChar":4379,"Ġcreation":4380,"Ġpresident":4381,"Ġtrained":4382,"Ġargue":4383,"Ġembra":4384,"Ġfighting":4385,"Ġsynth":4386,"Ġprotein":4387,"Ġsister":4388,"lection":4389,"Ġnames":4390,"oted":4391,"Ġants":4392,"Ġrot":4393,"pper":4394,"Ġclosed":4395,"Ġfactory":4396,"Ġinsight":4397,"Ġgrad":4398,"Ġfinished":4399,"Ġbegins":4400,"Ġhyp":4401,"Ġmajority":4402,"Ġwalls":4403,"Ġfascinating":4404,"Ġfrag":4405,"More":4406,"ius":4407,"son":4408,"Ġbone":4409,"Ġfresh":4410,"Ġden":4411,"Ġgard":4412,"throp":4413,"Ġspot":4414,"ortex":4415,"udience":4416,"Ġacceler":4417,"Ġphones":4418,"athy":4419,"Ġopin":4420,"Ġcapable":4421,"Ġpaint":4422,"Ġcollective":4423,"Ġinteraction":4424,"Ġemotions":4425,"Ġsurprise":4426,"Ġdescribed":4427,"Ġstrategy":4428,"DP":4429,"Over":4430,"mission":4431,"oom":4432,"Ġtit":4433,"Ġtour":4434,"Ġtor":4435,"Ġfaces":4436,"esth":4437,"Ġreward":4438,"ami":4439,"essed":4440,"Ġ150":4441,"Ġmanaged":4442,"Ġotherwise":4443,"Ġtalks":4444,"ĠFl":4445,"Ġattach":4446,"Ġequal":4447,"Ġequival":4448,"Ġdepression":4449,"ength":4450,"Ġhorr":4451,"Ġmathematics":4452,"Ġquantum":4453,"Ġmetaphor":4454,"IT":4455,"oe":4456,"Ġseat":4457,"Ġmos":4458,"Ġroof":4459,"Ġadop":4460,"Ġcoral":4461,"Ġpaying":4462,"Ġoperating":4463,"Ġseparate":4464,"Ġadvantage":4465,"Ġton":4466,"Ġcos":4467,"ancing":4468,"esign":4469,"urally":4470,"Ġorganisms":4471,"Ġengineers":4472,"Ġperfectly":4473,"ĠBritish":4474,"Sometimes":4475,"Ġcognitive":4476,"Once":4477,"Take":4478,"Ġera":4479,"Ġpun":4480,"entally":4481,"uries":4482,"Ġmoon":4483,"Ġsoil":4484,"Ġjustice":4485,"apers":4486,"Ġdisaster":4487,"Ġfollowed":4488,"Ġavoid":4489,"Ġcurrently":4490,"Ġbenefit":4491,"Ġprinciples":4492,"Second":4493,"oint":4494,"Ġodd":4495,"Ġband":4496,"Ġpurs":4497,"anes":4498,"Ġwhom":4499,"Ġking":4500,"Ġhasn":4501,"Ġartific":4502,"Ġconsumption":4503,"Ġcivilization":4504,"Ġbreath":4505,"Ġgalaxies":4506,"Ġmentioned":4507,"Ġvolunte":4508,"Ġinvisible":4509,"Would":4510,"vention":4511,"Ġcateg":4512,"Ġhomes":4513,"asion":4514,"ulous":4515,"Ġchann":4516,"Ġorg":4517,"ĠCO":4518,"Ġempt":4519,"Ġeleph":4520,"Ġsurprised":4521,"Ġfeedback":4522,"ae":4523,"oration":4524,"icity":4525,"Ġstim":4526,"Ġworried":4527,"Ġmeat":4528,"cked":4529,"Ġbrief":4530,"Ġharder":4531,"Ġgrown":4532,"Ġequip":4533,"Ġtreated":4534,"Ġlimited":4535,"Ġreplace":4536,"Ġfinger":4537,"known":4538,"Ġmir":4539,"Ġincent":4540,"Ġwearing":4541,"alley":4542,"irm":4543,"ĠCon":4544,"ĠPl":4545,"Ġleader":4546,"Ġbusinesses":4547,"Ġvehicle":4548,"ashington":4549,"Ġequivalent":4550,"Did":4551,"gar":4552,"Ġdue":4553,"Ġlapt":4554,"Ġgar":4555,"ads":4556,"Ġeveryday":4557,"Ġfell":4558,"Ġcontract":4559,"Ġdesire":4560,"Ġprecise":4561,"Ġbelong":4562,"Ġlanguages":4563,"Ġinvestig":4564,"Ġreceived":4565,"Ġgalaxy":4566,"ĠFranc":4567,"ok":4568,"Ġsouth":4569,"isher":4570,"onom":4571,"ara":4572,"Ġwear":4573,"Ġnerv":4574,"uman":4575,"cket":4576,"Ġcompare":4577,"apse":4578,"ildren":4579,"Ġarms":4580,"Ġinvited":4581,"ĠEngland":4582,"Ġcycle":4583,"Ġwisdom":4584,"rict":4585,"wide":4586,"Ġtox":4587,"Ġextend":4588,"Ġchair":4589,"ume":4590,"ichard":4591,"Ġfellow":4592,"ĠEd":4593,"ĠGu":4594,"Ġbull":4595,"ĠWashington":4596,"Ġ35":4597,"Ġplanning":4598,"Ġfourth":4599,"Ġwatched":4600,"Ġcircle":4601,"Ġmarried":4602,"Ġmolecule":4603,"Ġalternative":4604,"ĠMexico":4605,"ĠAustralia":4606,"Ġmagazine":4607,"car":4608,"cil":4609,"pet":4610,"Ġax":4611,"Ġwave":4612,"Ġpow":4613,"Ġweather":4614,"Ġselect":4615,"umber":4616,"Ġagre":4617,"Ġunless":4618,"Ġimplic":4619,"ĠPark":4620,"elling":4621,"aked":4622,"ublic":4623,"issions":4624,"Ġlaunched":4625,"Go":4626,"Ġtal":4627,"Ġmothers":4628,"roph":4629,"Ġexists":4630,"Ġintu":4631,"ensity":4632,"Ġsurge":4633,"Ġdesigner":4634,"Ġhighest":4635,"Ġsymmet":4636,"Ġsurvival":4637,"Ġagriculture":4638,"craft":4639,"Ġequipment":4640,"au":4641,"Ġbattle":4642,"Ġpages":4643,"Ġfed":4644,"iration":4645,"Ġusers":4646,"Ġquiet":4647,"ĠGo":4648,"Ġacadem":4649,"Ġcommit":4650,"Ġexpert":4651,"Ġstupid":4652,"Ġanti":4653,"Ġseriously":4654,"Ġsoldiers":4655,"Ġdebate":4656,"stitute":4657,"gn":4658,"Ġhun":4659,"Ġtoward":4660,"Ġdry":4661,"oman":4662,"Ġdol":4663,"Ġthinks":4664,"Ġcoal":4665,"ĠDan":4666,"Ġputs":4667,"Ġorganic":4668,"Ġcurious":4669,"Ġhopefully":4670,"Ġnormally":4671,"Ġversus":4672,"Ġdrawing":4673,"Ġdinner":4674,"Each":4675,"lied":4676,"add":4677,"Ġpros":4678,"ĠEx":4679,"Ġeconomics":4680,"Ġshapes":4681,"Ġidentify":4682,"Ġmultiple":4683,"ĠTwitter":4684,"Ġnervous":4685,"set":4686,"Ġpoo":4687,"Ġreef":4688,"ago":4689,"Ġpolic":4690,"Ġtesting":4691,"Ġveget":4692,"Ġsteps":4693,"Ġdistribution":4694,"Ġincreasingly":4695,"Ġassociated":4696,"Ġnutr":4697,"Ġkilometers":4698,"bel":4699,"hab":4700,"Ġhidden":4701,"Ġinit":4702,"ushing":4703,"anted":4704,"Ġround":4705,"Ġves":4706,"ĠCol":4707,"ĠMin":4708,"ĠGl":4709,"ĠHere":4710,"place":4711,"Ġplayers":4712,"Ġplane":4713,"Ġarticle":4714,"Ġprocesses":4715,"Ġwarm":4716,"Ġsignals":4717,"Ġexistence":4718,"Ġsentence":4719,"Ġyesterday":4720,"Ġproperty":4721,"Ġstatistics":4722,"Ġfolks":4723,"ha":4724,"Ġcro":4725,"encies":4726,"Ġreform":4727,"Ġstation":4728,"Ġneuro":4729,"Ġneuros":4730,"Ġrural":4731,"Ġmyth":4732,"estic":4733,"Ġsaved":4734,"Ġagg":4735,"Ġresource":4736,"Ġtechnical":4737,"forest":4738,"Ġtransformation":4739,"Ġinterp":4740,"Ġaccording":4741,"Ġmotion":4742,"Ġastron":4743,"Ġleaves":4744,"Ġordinary":4745,"Ġdolph":4746,"Ex":4747,"RI":4748,"rum":4749,"Ġtick":4750,"Ġgather":4751,"otic":4752,"Ġchain":4753,"ĠJust":4754,"ocol":4755,"Ġdriver":4756,"Ġgenerations":4757,"Ġinfin":4758,"Ġwarming":4759,"Ġsites":4760,"Ġillness":4761,"Ġantib":4762,"Ġcircum":4763,"Ġfilled":4764,"Ġcomfortable":4765,"Ġstruggle":4766,"ĠGermany":4767,"Ġairplane":4768,"oot":4769,"ri":4770,"Ġtall":4771,"instein":4772,"Ġdate":4773,"Ġinner":4774,"aled":4775,"Ġisland":4776,"Ġstood":4777,"cale":4778,"Ġtail":4779,"ĠEn":4780,"ĠEvery":4781,"ĠGra":4782,"Ġflat":4783,"Ġcaused":4784,"Ġdiet":4785,"Ġdaily":4786,"Ġsafety":4787,"Ġlifet":4788,"Ġawful":4789,"Ġdimensions":4790,"bl":4791,"vard":4792,"Ġtons":4793,"ino":4794,"Ġlosing":4795,"Ġrein":4796,"Ġshut":4797,"olves":4798,"Ġfrustr":4799,"Ġspl":4800,"ĠSc":4801,"ĠPal":4802,"ĠNA":4803,"Ġimportance":4804,"Ġdesigning":4805,"Ġsubst":4806,"Ġsetting":4807,"Ġresearchers":4808,"Ġconduct":4809,"Ġdealing":4810,"Ġgender":4811,"Ġexperienced":4812,"Ġprinciple":4813,"Ġintellectual":4814,"Ġvessel":4815,"aurs":4816,"cast":4817,"Ġtheater":4818,"erves":4819,"Ġhide":4820,"Ġtoile":4821,"Ġdial":4822,"lease":4823,"Ġnan":4824,"Ġabst":4825,"ession":4826,"Ġspoke":4827,"Ġhadn":4828,"Ġcovered":4829,"ressive":4830,"Ġscen":4831,"Ġcrime":4832,"Ġexplan":4833,"Ġelectrical":4834,"Ġcolon":4835,"Ġshoes":4836,"Ġheavy":4837,"Ġsoul":4838,"Ġconsequences":4839,"ait":4840,"lom":4841,"Ġcow":4842,"Ġgap":4843,"semb":4844,"Ġlibr":4845,"ĠBig":4846,"Ġscene":4847,"Ġfinish":4848,"Ġvalu":4849,"Ġwondering":4850,"Ġfields":4851,"engu":4852,"Ġmovies":4853,"Ġcopy":4854,"Ġarrived":4855,"ĠJapanese":4856,"Ġclinical":4857,"Ġconvinced":4858,"Ġartificial":4859,"Ġsoph":4860,"Ġtow":4861,"ald":4862,"urd":4863,"Ġforced":4864,"Ġliked":4865,"Ġgod":4866,"Ġrow":4867,"ĠAIDS":4868,"Ġenem":4869,"ĠMay":4870,"Ġpartner":4871,"aker":4872,"akistan":4873,"Ġfacts":4874,"Ġbits":4875,"Ġsigns":4876,"Ġkilling":4877,"Ġlimit":4878,"Ġlayer":4879,"force":4880,"Ġdamage":4881,"Ġuniversal":4882,"Ġpoetry":4883,"ĠKenya":4884,"Per":4885,"ns":4886,"ux":4887,"rete":4888,"Ġdots":4889,"cipl":4890,"ĠMIT":4891,"Ġcloth":4892,"Ġcalling":4893,"ĠTimes":4894,"Ġconnections":4895,"Ġcontinu":4896,"Ġpicked":4897,"Ġessential":4898,"Ġprofessor":4899,"Ġintelligent":4900,"Ġnegot":4901,"Ġmicrobes":4902,"Ġconsidered":4903,"Ind":4904,"bble":4905,"uff":4906,"zing":4907,"eras":4908,"Ġholes":4909,"lement":4910,"Ġbear":4911,"Ġrecon":4912,"Ġheight":4913,"Ġpeak":4914,"odes":4915,"ĠPaul":4916,"Ġadvert":4917,"neath":4918,"ĠKore":4919,"Ġmuscle":4920,"Ġopening":4921,"Ġrefuge":4922,"Ġcontinent":4923,"Ġdeeper":4924,"Ġappropr":4925,"Ġengineer":4926,"Ġanalysis":4927,"Ġreplic":4928,"ĠBritain":4929,"Ġsatellite":4930,"Ġgrandmother":4931,"Ġwond":4932,"Ġpil":4933,"Ġnar":4934,"cend":4935,"Ġlie":4936,"Ġmanip":4937,"Ġresc":4938,"Ġletters":4939,"Ġfeelings":4940,"Ġplayer":4941,"Ġconsist":4942,"Ġpossibilities":4943,"iency":4944,"Ġcutting":4945,"Ġreaction":4946,"Ġchemicals":4947,"Ġmanagement":4948,"Ġfossil":4949,"fish":4950,"hi":4951,"zed":4952,"Ġsources":4953,"organ":4954,"Ġgall":4955,"Ġkick":4956,"Ġrat":4957,"Ġwhenever":4958,"abet":4959,"Ġqual":4960,"Ġexpression":4961,"ĠGree":4962,"ĠPakistan":4963,"Ġblow":4964,"Ġsurf":4965,"Ġgrade":4966,"Ġrecy":4967,"Ġhealthcare":4968,"Ġexpected":4969,"Ġchemistry":4970,"Ġestab":4971,"Ġtrials":4972,"Ġvariety":4973,"Ġmosqu":4974,"cers":4975,"mas":4976,"mber":4977,"ener":4978,"Ġgrain":4979,"icip":4980,"Ġperce":4981,"Ġpray":4982,"ĠWill":4983,"ĠKing":4984,"Ġwaves":4985,"Ġmessages":4986,"Ġcredit":4987,"Ġbattery":4988,"Ġempty":4989,"life":4990,"min":4991,"Ġends":4992,"Ġstock":4993,"Ġlies":4994,"Ġvote":4995,"osition":4996,"resident":4997,"ĠBill":4998,"ĠNe":4999,"Ġunderneath":5000,"Ġexperts":5001,"Ġcrim":5002,"Ġvideos":5003,"Ġconstruction":5004,"Ġcollection":5005,"Ġillustr":5006,"Ġreview":5007,"olly":5008,"hyth":5009,"Ġdinosaurs":5010,"Ġtomorrow":5011,"Ġten":5012,"Ġwake":5013,"itness":5014,"Ġhurt":5015,"Ġpengu":5016,"Ġfal":5017,"ulating":5018,"Ġrates":5019,"acters":5020,"Ġsolid":5021,"what":5022,"Ġcorruption":5023,"Ġadvanced":5024,"Ġbroke":5025,"Ġrequires":5026,"Ġmarriage":5027,"Ġdynamic":5028,"Ġexercise":5029,"gl":5030,"Ġlat":5031,"Ġgang":5032,"ests":5033,"Ġuns":5034,"ension":5035,"ĠRep":5036,"new":5037,"Ġtransition":5038,"Ġcharacters":5039,"Ġlocation":5040,"Ġmicros":5041,"Ġilleg":5042,"Ġconsumer":5043,"ĠHarvard":5044,"Ġrelatively":5045,"Ġindependent":5046,"ĠDarwin":5047,"ael":5048,"Ġshif":5049,"Ġprove":5050,"Ġchap":5051,"Ġuser":5052,"Ġteeth":5053,"ogen":5054,"Ġideal":5055,"Ġthoughts":5056,"Ġinterface":5057,"Ġcarefully":5058,"Ġ45":5059,"Ġorganized":5060,"Ġkeeping":5061,"Chris":5062,"Ġcartoon":5063,"Ġsharks":5064,"Ġfortun":5065,"Ġroughly":5066,"Ġrapidly":5067,"Ġvaluable":5068,"Ġsophistic":5069,"See":5070,"rs":5071,"Ġgift":5072,"Ġisol":5073,"Ġbee":5074,"Their":5075,"Ġmyst":5076,"Ġteles":5077,"Ġvoices":5078,"Ġevil":5079,"ĠBar":5080,"Ġdesk":5081,"Ġfewer":5082,"Ġcultures":5083,"Ġlawy":5084,"iques":5085,"Ġrepresents":5086,"Ġprivile":5087,"Ġfacing":5088,"Ġemerging":5089,"Ġcapture":5090,"ĠSwed":5091,"Ġbudget":5092,"Ġepidemic":5093,"Ġexchange":5094,"Ã©":5095,"aters":5096,"Ġhang":5097,"Ġlength":5098,"Ġgain":5099,"Ġchart":5100,"ĠApp":5101,"Ġ2000":5102,"Ġprefer":5103,"Ġproducing":5104,"Ġsla":5105,"Ġgenerate":5106,"Ġspecifically":5107,"Ġmember":5108,"Ġbehaviors":5109,"Ġsympt":5110,"Ġconvince":5111,"Ġvictims":5112,"Ġdisplay":5113,"Ġvulnerable":5114,"Ġinterpret":5115,"gets":5116,"Ġcards":5117,"Ġbul":5118,"Ġpal":5119,"Ġpure":5120,"Ġlic":5121,"Ġnations":5122,"state":5123,"lying":5124,"ĠCo":5125,"Ġflies":5126,"ĠStreet":5127,"Ġpassword":5128,"Ġcameras":5129,"Ġauth":5130,"Ġeffectively":5131,"pected":5132,"onym":5133,"Ġsituations":5134,"Ġproperties":5135,"Ġstatus":5136,"Ġprimary":5137,"Ġdisappear":5138,"Ġencourage":5139,"ĠCenter":5140,"Ġhouses":5141,"Ġentrepreneurs":5142,"Ġchimpan":5143,"ĠFrancisco":5144,"Very":5145,"can":5146,"down":5147,"over":5148,"uh":5149,"Ġpip":5150,"Ġreven":5151,"stream":5152,"Ġmel":5153,"Ġride":5154,"Ġintr":5155,"ĠSat":5156,"ĠDon":5157,"Ġemissions":5158,"Ġbran":5159,"ĠJew":5160,"Ġextract":5161,"Ġreprodu":5162,"Ġbottle":5163,"Ġdepends":5164,"ĠCanada":5165,"Ġdetails":5166,"Ġlady":5167,"ĠAtl":5168,"ĠSchool":5169,"Ġclaim":5170,".'":5171,"Have":5172,"eff":5173,"mers":5174,"uary":5175,"Ġpian":5176,"Ġflex":5177,"icago":5178,"irty":5179,"Ġshall":5180,"Ġshad":5181,"uls":5182,"osis":5183,"Ġcontain":5184,"Ġentertain":5185,"Ġmovements":5186,"ĠInstitute":5187,"Ġadded":5188,"Ġviruses":5189,"Ġrelease":5190,"Ġinstrument":5191,"Ġhydrogen":5192,"Ġkitch":5193,"Ġspin":5194,"ĠBen":5195,"ĠGreen":5196,"ĠRed":5197,"Ġarts":5198,"Everybody":5199,"Ġcarrying":5200,"Ġhypoth":5201,"Ġlifetime":5202,"Americ":5203,"eal":5204,"ym":5205,"Ġsight":5206,"Ġcure":5207,"itan":5208,"Ġinev":5209,"Ġlect":5210,"ĠII":5211,"Ġexec":5212,"Ġmaps":5213,"Ġsugar":5214,"ĠGDP":5215,"ĠPresident":5216,"chnology":5217,"ĠChicago":5218,"Ġinterests":5219,"Ġgenerally":5220,"Ġdefine":5221,"Ġpoliticians":5222,"Ġassign":5223,"Ġ99":5224,"Ġradical":5225,"Ġsending":5226,"Ġpromise":5227,"Ġmathematical":5228,"Ġmolecular":5229,"Ġmortality":5230,"Ġcircumst":5231,"itals":5232,"itarian":5233,"Ġped":5234,"Ġgay":5235,"igm":5236,"Ġliqu":5237,"ĠCE":5238,"Ġhowever":5239,"abilities":5240,"Ġunit":5241,"ĠHa":5242,"Ġacqu":5243,"Ġremain":5244,"ĠAnderson":5245,"Ġengaged":5246,"Ġgrid":5247,"Ġrisks":5248,"Everything":5249,"Ġreleased":5250,"Ġhonor":5251,"Ġdiscussion":5252,"Ġprepared":5253,"Ġofficial":5254,"ĠMuslim":5255,"Ġcomponents":5256,"ĠNigeria":5257,"Audience":5258,"fit":5259,"log":5260,"pher":5261,"Ġbeach":5262,"Ġstaff":5263,"Ġring":5264,"Ġtrillion":5265,"Ġunex":5266,"Ġdish":5267,"ĠLos":5268,"ĠRichard":5269,"Ġsmile":5270,"Ġtechniques":5271,"olds":5272,"Ġminim":5273,"Ġregions":5274,"Ġoccup":5275,"Ġselling":5276,"Ġsnow":5277,"Ġintroduce":5278,"Ġintroduced":5279,"Ġsample":5280,"Ġgraduate":5281,"Ġrestaurant":5282,"11":5283,"Tube":5284,"aving":5285,"Ġbow":5286,"Ġbath":5287,"Ġfisher":5288,"alt":5289,"oting":5290,"rog":5291,"Ġgoals":5292,"Ġatoms":5293,"Ġrom":5294,"Ġrub":5295,"Ġspo":5296,"Ġspring":5297,"Ġcompar":5298,"ĠEl":5299,"Ġbuying":5300,"Ġbubble":5301,"Ġmetal":5302,"Ġserve":5303,"Ġconvention":5304,"Ġprofession":5305,"Ġwinter":5306,"Ġanalog":5307,"Ġterrorism":5308,"ĠCongress":5309,"Ġorgans":5310,"Ġestablish":5311,"bors":5312,"fl":5313,"Ġthin":5314,"atin":5315,"ĠEinstein":5316,"Ġfactor":5317,"Ġfactors":5318,"cont":5319,"Ġdrag":5320,"Ġsteel":5321,"Ġemployees":5322,"Ġencoura":5323,"Ġmalaria":5324,"Ġpleasure":5325,"Ġforgot":5326,"Ġabstract":5327,"80":5328,"Ġsan":5329,"Ġsides":5330,"erved":5331,"Ġformer":5332,"Ġsphere":5333,"ĠCam":5334,"Ġworlds":5335,"Ġthanks":5336,"Ġunus":5337,"ĠGP":5338,"ĠGh":5339,"ĠPac":5340,"ĠNot":5341,"Ġinvention":5342,"Ġgravity":5343,"Ġmedium":5344,"Ġenvironments":5345,"Ġradiation":5346,"Ġprotection":5347,"Ġhyper":5348,"Does":5349,"Ġhorse":5350,"porary":5351,"Ġdefinitely":5352,"Ġblocks":5353,"ĠAnge":5354,"Ġmistake":5355,"Ġnewspaper":5356,"Ġmirror":5357,"Good":5358,"uel":5359,"Ġbill":5360,"Ġmer":5361,"etics":5362,"Ġque":5363,"Ġphr":5364,"Ġinstall":5365,"Ġ196":5366,"Ġlessons":5367,"Ġruns":5368,"Ġregard":5369,"Ġscared":5370,"Ġpractical":5371,"Ġcombination":5372,"Ġaffected":5373,"Ġpollution":5374,"Ġmountains":5375,"Ġspectrum":5376,"Ġtumor":5377,"bur":5378,"hone":5379,"iat":5380,"Ġoption":5381,"orous":5382,"icing":5383,"Ġconver":5384,"Ġens":5385,"ĠMil":5386,"Ġclip":5387,"ĠTe":5388,"ĠTur":5389,"ĠNob":5390,"Ġgoods":5391,"ĠWik":5392,"Ġdriven":5393,"ĠYouTube":5394,"Ġautonom":5395,"Ġrefer":5396,"Ġassist":5397,"Ġrecorded":5398,"Ġtypically":5399,"Ġreached":5400,"Ġdemocratic":5401,"Ġevolutionary":5402,"ĠAmaz":5403,"Ġseason":5404,"riend":5405,"Ġopinion":5406,"Ġkitchen":5407,"Could":5408,"lines":5409,"Ġtank":5410,"Ġcortex":5411,"Ġbare":5412,"ingu":5413,"Ġfishing":5414,"esh":5415,"olving":5416,"eline":5417,"Ġworldwide":5418,"Ġperception":5419,"Ġclock":5420,"ternal":5421,"Ġcenters":5422,"Ġinclude":5423,"Ġpulled":5424,"Ġneighbors":5425,"Ġestim":5426,"Ġaftern":5427,"Ġingred":5428,"Ġfalse":5429,"500":5430,"Since":5431,"ss":5432,"uits":5433,"Ġought":5434,"Ġcere":5435,"ita":5436,"Ġeld":5437,"sec":5438,"urance":5439,"Ġdogs":5440,"Ġrational":5441,"ĠSm":5442,"Ġactions":5443,"ĠMo":5444,"ĠGen":5445,"ĠTr":5446,"Ġsinging":5447,"Ġkeeps":5448,"Ġliterature":5449,"Ġpsychology":5450,"Ġprivacy":5451,"Ġrequired":5452,"Ġtraveling":5453,"Ġrelevant":5454,"Ġforests":5455,"Ġsatis":5456,"Ġdropped":5457,"Ġcollaboration":5458,"point":5459,"Ġchicken":5460,"Ġsophisticated":5461,"Last":5462,"ean":5463,"ham":5464,"Ġcast":5465,"Ġmira":5466,"Ġdip":5467,"Ġinput":5468,"oos":5469,"Ġsevere":5470,"Ġnotes":5471,"Ġplus":5472,"Ġfeature":5473,"Ġfeatures":5474,"Ġdiss":5475,"Ġadj":5476,"Ġapplied":5477,"Ġpersonally":5478,"Ġnaturally":5479,"Ġharvest":5480,"ĠPhil":5481,"Ġparticipate":5482,"Ġvehicles":5483,"gment":5484,"spe":5485,"Ġcord":5486,"Ġhits":5487,"usive":5488,"Ġreci":5489,"Ġju":5490,"umps":5491,"Ġvent":5492,"abled":5493,"Ġperman":5494,"Ġaging":5495,"Ġtechnological":5496,"Ġskill":5497,"Ġcourage":5498,"Ġ2008":5499,"arrass":5500,"Ġ75":5501,"Ġsenses":5502,"Ġdestruction":5503,"Ġmeaningful":5504,"Ġcombined":5505,"Ġrocket":5506,"Ġfundamentally":5507,"Ġultimate":5508,"Anyway":5509,"Ġhoping":5510,"Ġancestors":5511,"Ġsports":5512,"Ġillegal":5513,"Ġliquid":5514,"Ġunusual":5515,"Ġwine":5516,"Ġbicy":5517,"Ġmile":5518,"Ġdedic":5519,"ifth":5520,"Ġasp":5521,"Ġrig":5522,"ums":5523,"ĠBer":5524,"ĠBro":5525,"ĠGal":5526,"Ġremo":5527,"Ġscore":5528,"Ġglam":5529,"oston":5530,"Ġformed":5531,"Ġtopic":5532,"Ġincreased":5533,"Ġoperate":5534,"Ġstronger":5535,"Ġmechanism":5536,"ĠFrank":5537,"Ġawareness":5538,"Ġefficiency":5539,"Ġactivities":5540,"Ġalgorithms":5541,"Ġeggs":5542,"Ġafternoon":5543,"oly":5544,"vable":5545,"xim":5546,"itual":5547,"Ġsees":5548,"osh":5549,"Ġacting":5550,"Ġunderwater":5551,"Ġpregn":5552,"ework":5553,"Ġsolved":5554,"Ġprocessing":5555,"Ġfunctions":5556,"Ġclever":5557,"Ġphysically":5558,"Ġmemories":5559,"Ġtrend":5560,"Ġrecords":5561,"Ġsunlight":5562,"Ġembarrass":5563,"Ġinternal":5564,"Ġhospitals":5565,"Ġ1990":5566,"Ġ2010":5567,"Ġmistakes":5568,"Ġframework":5569,"Ġoccurred":5570,"Ġsweet":5571,"ĠGeorge":5572,"Ġtransportation":5573,"Ġmanufacturing":5574,"ĠRussia":5575,"Ġaccompl":5576,"ĠNASA":5577,"cred":5578,"scale":5579,"uper":5580,"enced":5581,"Ġpair":5582,"Ġpitch":5583,"Ġinequ":5584,"Ġgut":5585,"Ġwash":5586,"ĠOb":5587,"Ġstudio":5588,"Thanks":5589,"Ġfoundation":5590,"Ġ194":5591,"Ġbiom":5592,"gged":5593,"Ġtests":5594,"Ġjoke":5595,"Ġempathy":5596,"Ġcooking":5597,"Ġsurvey":5598,"Ġgarden":5599,"Ġastronom":5600,"Perhaps":5601,"Bas":5602,"bre":5603,"bed":5604,"making":5605,"nel":5606,"za":5607,"Ġwitness":5608,"asks":5609,"ula":5610,"Ġmak":5611,"Ġtheme":5612,"Ġtrig":5613,"Ġsomewhat":5614,"aren":5615,"ĠBank":5616,"ĠBoston":5617,"being":5618,"Ġconservation":5619,"Ġsuppose":5620,"Ġmusical":5621,"Ġequally":5622,"Ġlargely":5623,"Ġfalling":5624,"Ġdomin":5625,"ĠFrance":5626,"cription":5627,"ĠPacific":5628,"Os":5629,"Please":5630,"Yet":5631,"Ġwars":5632,"Ġfert":5633,"Ġiniti":5634,"Ġnav":5635,"Three":5636,"Ġstorm":5637,"Ġshame":5638,"While":5639,"abol":5640,"Ġcoord":5641,"Ġprime":5642,"Ġdiscipl":5643,"ĠLife":5644,"Ġdrives":5645,"Ġcomputing":5646,"Ġadvice":5647,"Ġcollected":5648,"retch":5649,"Ġamounts":5650,"Ġhoriz":5651,"Ġbirthday":5652,"Ġburning":5653,"Ġproteins":5654,"Ġtape":5655,"Ġdramatic":5656,"Ġswimming":5657,"Ġdoubt":5658,"Ġlaptop":5659,"fortunately":5660,"mm":5661,"ta":5662,"vis":5663,"ĠThese":5664,"Ġcave":5665,"itz":5666,"Ġhung":5667,"Ġdiction":5668,"sem":5669,"Ġanx":5670,"Ġcha":5671,"Ġbutton":5672,"Ġclub":5673,"ĠTo":5674,"berg":5675,"Ġdesper":5676,"ĠJames":5677,"Ġdecl":5678,"Ġapparent":5679,"whel":5680,"Ġvisible":5681,"Ġfigures":5682,"Ġadvent":5683,"ended":5684,"Ġprotected":5685,"Ġpotentially":5686,"Ġphotographs":5687,"Ġsilence":5688,"Ġconclusion":5689,"Ġconcrete":5690,"Ġantibiot":5691,"70":5692,"night":5693,"rat":5694,"source":5695,"xide":5696,"Ġsets":5697,"Ġtoy":5698,"Ġfake":5699,"Ġupper":5700,"Ġsuit":5701,"ĠMont":5702,"ĠPort":5703,"angers":5704,"Ġload":5705,"Ġcontrast":5706,"elly":5707,"akers":5708,"Ġpercentage":5709,"Ġelection":5710,"Ġ1960":5711,"hips":5712,"Ġpresence":5713,"Ġdefined":5714,"Ġconstant":5715,"Ġpsychological":5716,"Also":5717,"Ġridic":5718,"Ġtoxic":5719,"Ġpiano":5720,"ĠAmazon":5721,"yn":5722,"Ġvert":5723,"Ġthick":5724,"Ġcents":5725,"isters":5726,"Ġbes":5727,"Ġrenew":5728,"Ġchose":5729,"ĠAre":5730,"Ġquarter":5731,"ĠGood":5732,"Ġoverall":5733,"Ġoverwhel":5734,"Ġcontem":5735,"Ġobst":5736,"Ġcreature":5737,"Ġstring":5738,"Ġextinct":5739,"ĠValley":5740,"Ġconfidence":5741,"Ġconfront":5742,"Ġrooms":5743,"Ġmarketing":5744,"Ġsensitive":5745,"Ġoperation":5746,"Ġcritic":5747,"Ġroads":5748,"Ġtracking":5749,"Ġconversations":5750,"Ġsubjects":5751,"Ġattacks":5752,"Ġempower":5753,"Ġadminist":5754,"Ġframe":5755,"ĠProject":5756,"ĠiPhone":5757,"Ġaccurate":5758,"Ġtonight":5759,"Ġexplanation":5760,"Ar":5761,"Rem":5762,"foot":5763,"inction":5764,"Ġmere":5765,"Ġhook":5766,"Ġhunt":5767,"Ġwel":5768,"rob":5769,"Ġritual":5770,"Ġoutcome":5771,"Ġintense":5772,"ĠColl":5773,"Ġremains":5774,"Ġproductive":5775,"Ġfilms":5776,"Ġdiag":5777,"aneously":5778,"Ġproviding":5779,"Ġinnovative":5780,"Ġexisting":5781,"Ġexplained":5782,"Ġstayed":5783,"Ġinspiration":5784,"Ġsilk":5785,"Ġsustainability":5786,"Ġinfected":5787,"Ġsurrounded":5788,"Ġclothes":5789,"Ġappropriate":5790,"ollywood":5791,"Ġcircumstances":5792,"ls":5793,"iture":5794,"lly":5795,"Ġlens":5796,"aser":5797,"Ġnurs":5798,"owered":5799,"Ġreject":5800,"Ġreverse":5801,"Ġorch":5802,"estyle":5803,"ĠAlex":5804,"Ġcock":5805,"Ġnowhere":5806,"ankly":5807,"obal":5808,"Ġmonkey":5809,"Ġrecom":5810,"ĠStan":5811,"Ġsubs":5812,"Ġelectro":5813,"Ġtested":5814,"Ġclosely":5815,"Ġpresentation":5816,"Ġmeasured":5817,"Ġcircuit":5818,"Ġsongs":5819,"Ġbreathe":5820,"Ġassume":5821,"Ġauthority":5822,"Ġspiritual":5823,"Ġelectronic":5824,"iosity":5825,"Ġflew":5826,"Other":5827,"tail":5828,"itors":5829,"Ġment":5830,"Ġpill":5831,"Ġfurn":5832,"esome":5833,"Ġdot":5834,"Ġnest":5835,"stand":5836,"keys":5837,"adic":5838,"Ġcomment":5839,"Ġchurch":5840,"Ġuncom":5841,"Ġunknown":5842,"Ġresil":5843,"Ġcommand":5844,"Ġdecline":5845,"Ġdiam":5846,"Ġabsor":5847,"Ġsensors":5848,"Ġjoined":5849,"Ġoptions":5850,"Ġerror":5851,"Ġ1980":5852,"Ġapplications":5853,"Ġwireless":5854,"ĠParis":5855,"Ġappreciate":5856,"Ġhorrible":5857,"Ġsplit":5858,"den":5859,"ih":5860,"och":5861,"oons":5862,"Ġtack":5863,"Ġbones":5864,"Ġpin":5865,"Ġpump":5866,"Ġpapers":5867,"Ġloud":5868,"alu":5869,"Ġwhales":5870,"Ġears":5871,"allel":5872,"illing":5873,"Ġjail":5874,"Ġdeploy":5875,"Ġvan":5876,"Ġplate":5877,"Ġevening":5878,"ĠRes":5879,"ĠRev":5880,"Ġflower":5881,"ĠJan":5882,"Ġelev":5883,"Ġdatab":5884,"ĠState":5885,"Ġeconomists":5886,"Ġcurve":5887,"Ġchallenging":5888,"Ġzoom":5889,"Ġdeaths":5890,"Ġdepth":5891,"herent":5892,"Ġhousing":5893,"Ġcontrolled":5894,"Ġtherapy":5895,"Ġtaste":5896,"Ġsymptoms":5897,"ĠAngeles":5898,"Her":5899,"cal":5900,"look":5901,"iters":5902,"Ġboring":5903,"Ġmad":5904,"Ġhorm":5905,"Ġpool":5906,"Ġlying":5907,"omas":5908,"Ġwhist":5909,"ipedia":5910,"Ġdisg":5911,"ptember":5912,"ologically":5913,"ĠDep":5914,"Ġremove":5915,"Ġrelate":5916,"Ġtranspl":5917,"Ġcenturies":5918,"Ġhandle":5919,"ĠUnion":5920,"Ġ2007":5921,"Ġadvance":5922,"Ġstatement":5923,"Ġprovided":5924,"Only":5925,"Ġmulti":5926,"Ġcombine":5927,"Ġvolume":5928,"Ġsuffer":5929,"Ġpassionate":5930,"Ġlaboratory":5931,"Ġfingers":5932,"Ġsamples":5933,"Ġgentlemen":5934,"Ġnarrative":5935,"ĠWho":5936,"inations":5937,"Ġnose":5938,"Ġitem":5939,"ĠMic":5940,"ĠMart":5941,"Ġwherever":5942,"Ġimplement":5943,"Ġ22":5944,"athers":5945,"Ġinstruct":5946,"Ġcollapse":5947,"Ġexploration":5948,"Ġbusy":5949,"Ġglobe":5950,"Ġdistinct":5951,"Ġallowing":5952,"Ġautism":5953,"Ġfalls":5954,"Ġvillages":5955,"Ġhotel":5956,"Ġtransformed":5957,"Ġflowers":5958,"ounced":5959,"Ġclouds":5960,"Ġparadigm":5961,"Unfortunately":5962,"Ġchannel":5963,"ĠGPS":5964,"Am":5965,"ault":5966,"ounce":5967,"eness":5968,"Ġfan":5969,"Ġweigh":5970,"Ġstone":5971,"anta":5972,"que":5973,"Ġoutc":5974,"ĠMuseum":5975,"ĠGulf":5976,"Ġ23":5977,"ĠLaw":5978,"Ġtechnique":5979,"tech":5980,"Ġextent":5981,"Ġbike":5982,"Ġexplos":5983,"Ġgras":5984,"ographer":5985,"Ġmemor":5986,"Ġ600":5987,"box":5988,"Ġcyber":5989,"Ġmarine":5990,"Ġdivide":5991,"ĠChristmas":5992,"Ġdetermine":5993,"Ġangry":5994,"Basically":5995,"Ġnavig":5996,"Ab":5997,"BG":5998,"Talk":5999,"fin":6000,"father":6001,"hour":6002,"ĠWhere":6003,"Ġicon":6004,"Ġath":6005,"Ġbarr":6006,"Ġfiction":6007,"Ġdress":6008,"lymp":6009,"Ġattend":6010,"ateful":6011,"emb":6012,"Ġexpon":6013,"Ġprize":6014,"Ġpoly":6015,"ĠPer":6016,"Ġroot":6017,"Ġhumor":6018,"Ġcorres":6019,"Ġstandards":6020,"Ġprofit":6021,"Ġmilk":6022,"clear":6023,"Ġbehavioral":6024,"Ġencoun":6025,"Ġfootprint":6026,"Ġrocks":6027,"Ġfaced":6028,"Ġsuggests":6029,"Ġpollen":6030,"Ġcapitalism":6031,"Ġlinked":6032,"Ġlogic":6033,"Ġfixed":6034,"Ġinstruments":6035,"Ġapplication":6036,"Ġembrace":6037,"Ġpolicies":6038,"Ġmosquit":6039,"dr":6040,"hol":6041,"uce":6042,"Ġtent":6043,"Ġsen":6044,"nda":6045,"nding":6046,"Ġdancing":6047,"otion":6048,"iggs":6049,"ola":6050,"Ġru":6051,"Ġvibr":6052,"Ġsuic":6053,"Ġenable":6054,"ĠMon":6055,"Ġimpl":6056,"Ġdownload":6057,"onscious":6058,"Ġpolar":6059,"Ġmush":6060,"Ġorganism":6061,"Ġbreed":6062,"Ġlabel":6063,"Ġlimits":6064,"Ġidentical":6065,"ĠSeptember":6066,"Ġarmy":6067,"Ġadmit":6068,"Ġpuzzle":6069,"ĠCharles":6070,"Ġinfinite":6071,"ĠRepublic":6072,"gent":6073,"mal":6074,"well":6075,"ato":6076,"nded":6077,"Ġborder":6078,"Ġhur":6079,"Ġpushing":6080,"Ġgest":6081,"vey":6082,"etically":6083,"sters":6084,"Ġanger":6085,"Ġhem":6086,"iled":6087,"Ġspinal":6088,"Ġplans":6089,"ĠOlymp":6090,"acing":6091,"Ġdecre":6092,"Ġscar":6093,"Ġcausing":6094,"Ġyounger":6095,"Ġeducational":6096,"Ġreference":6097,"Ġcontinued":6098,"Ġdirector":6099,"Ġfunding":6100,"ĠThanks":6101,"Ġmeasuring":6102,"Ġoccasion":6103,"Ġfeeding":6104,"Ġarchitects":6105,"Ġboxes":6106,"Ġfloating":6107,"Ġmechanical":6108,"ĠMichael":6109,"Ġimplications":6110,"Ġpoorest":6111,"Ġnarrow":6112,"lock":6113,"van":6114,"Ġack":6115,"esity":6116,"Ġinject":6117,"arant":6118,"Ġwhale":6119,"Ġselection":6120,"Ġfright":6121,"Ġfrankly":6122,"Ġchocol":6123,"Ġvag":6124,"ĠAnt":6125,"Ġacts":6126,"Ġ250":6127,"Ġdisorders":6128,"Ġshell":6129,"Ġguide":6130,"Ġowners":6131,"Ġcorals":6132,"Ġequation":6133,"Ġclasses":6134,"Ġincreases":6135,"Ġconstrain":6136,"Ġanticip":6137,"Ġgreenhouse":6138,"Ġrobotic":6139,"Ġtelephone":6140,"Ġearthqu":6141,"profit":6142,"Ġmammals":6143,"ĠSteve":6144,"Ġvaccine":6145,"connected":6146,"Ġagreed":6147,"belie":6148,"Ġwondered":6149,"onymous":6150,"Ġunexpected":6151,"ĠWikipedia":6152,"90":6153,"gly":6154,"iety":6155,"rors":6156,"ups":6157,"ingly":6158,"Ġpy":6159,"Ġfirm":6160,"ota":6161,"imeter":6162,"ille":6163,"illy":6164,"ĠMed":6165,"Ġclus":6166,"ĠHiggs":6167,"Ġpharm":6168,"Ġoffered":6169,"ĠFound":6170,"Ġcarried":6171,"Ġtransfer":6172,"Ġinterf":6173,"Ġ1950":6174,"Ġelim":6175,"Ġparking":6176,"Ġsecure":6177,"Ġexisted":6178,"Ġarguments":6179,"Ġviolent":6180,"Ġdirections":6181,"Ġobsessed":6182,"Ġmathematic":6183,"Ġbreathing":6184,"Ġstruck":6185,"Ġclinic":6186,"Ġignor":6187,"Ġdrinking":6188,"Ġautomatically":6189,"Ġirr":6190,"ĠMuslims":6191,"Ġlibrary":6192,"Ġdiplom":6193,"east":6194,"iop":6195,"erge":6196,"itory":6197,"Ġmice":6198,"Ġdign":6199,"ctic":6200,"roso":6201,"Ġstro":6202,"Ġdozen":6203,"Ġatom":6204,"Ġproport":6205,"Ġmyster":6206,"Ġknock":6207,"Ġspider":6208,"Ġplaced":6209,"emoc":6210,"ĠTom":6211,"ĠLatin":6212,"Ġflood":6213,"Ġinstinct":6214,"heim":6215,"Ġmonkeys":6216,"Ġcareful":6217,"Ġeconomies":6218,"Ġ2009":6219,"Ġzone":6220,"Ġwindows":6221,"Ġinteractions":6222,"Ġperforming":6223,"Ġrepresented":6224,"Ġastero":6225,"Ġdistributed":6226,"Ġdramatically":6227,"Ġscript":6228,"Ġresistance":6229,"Ġfabric":6230,"Ġcosm":6231,"Ġsurgeon":6232,"Ġrecyc":6233,"Ġmystery":6234,"ban":6235,"ias":6236,"upp":6237,"rets":6238,"ata":6239,"Ġcash":6240,"Ġben":6241,"Ġdense":6242,"uting":6243,"etch":6244,"imp":6245,"Ġstands":6246,"amin":6247,"Ġchip":6248,"Ġrhyth":6249,"Ġours":6250,"aret":6251,"Ġarrest":6252,"Ġphase":6253,"icted":6254,"ĠJer":6255,"Ġtraged":6256,"while":6257,"Ġgrateful":6258,"Ġteams":6259,"Ġconsumers":6260,"Ġrecognition":6261,"Ġmainly":6262,"Ġspreading":6263,"Ġproperly":6264,"Ġdomestic":6265,"Ġbombs":6266,"Ġcelebrate":6267,"Something":6268,"Ġcomponent":6269,"Ġcorporate":6270,"Ġelephant":6271,"Ġtoilet":6272,"Ġoutcomes":6273,"Finally":6274,"bage":6275,"wich":6276,"Ġsed":6277,"otes":6278,"eters":6279,"struct":6280,"Ġstyle":6281,"illance":6282,"Ġneither":6283,"ĠAir":6284,"ĠSa":6285,"aint":6286,"Ġtab":6287,"Ġovercome":6288,"ĠJul":6289,"ĠUS":6290,"Ġcollaps":6291,"Ġsolving":6292,"Ġmetabol":6293,"Ġengaging":6294,"Ġpopulations":6295,"Ġ2005":6296,"Ġexcl":6297,"Ġhousehold":6298,"Ġillusion":6299,"Ġaston":6300,"Ġlifestyle":6301,"Ġsavings":6302,"Ġprototype":6303,"Ġenemy":6304,"abetes":6305,"Ġpenguins":6306,"called":6307,"iance":6308,"oca":6309,"Ġtight":6310,"Ġtube":6311,"isl":6312,"Ġborders":6313,"Ġmales":6314,"Ġhoney":6315,"iform":6316,"Ġtea":6317,"ĠMe":6318,"Ġprices":6319,"ĠRob":6320,"Ġscary":6321,"Ġobesity":6322,"Ġstoryt":6323,"Ġgrows":6324,"Ġhardware":6325,"Ġbiod":6326,"Ġcolum":6327,"Ġpainful":6328,"Ġfilter":6329,"Ġcrack":6330,"appy":6331,"Ġpractices":6332,"Ġreceive":6333,"iveness":6334,"Ġ1970":6335,"Ġcontrolling":6336,"Ġmaintain":6337,"ĠKorea":6338,"Ġphrase":6339,"Ġobstac":6340,"Ġacknow":6341,"bal":6342,"rary":6343,"tes":6344,"Ġlung":6345,"Ġloop":6346,"Ġstack":6347,"Ġstretch":6348,"through":6349,"ams":6350,"Ġsem":6351,"Ġproced":6352,"rous":6353,"Ġseek":6354,"Ġtries":6355,"Ġplenty":6356,"Ġworker":6357,"ĠMount":6358,"ĠHaw":6359,"ĠPe":6360,"ĠLa":6361,"ĠFe":6362,"aks":6363,"Ġsmoke":6364,"Ġbrothers":6365,"Ġraising":6366,"Ġlets":6367,"Ġconserv":6368,"Ġgrab":6369,"Ġentered":6370,"Ġpolio":6371,"Ġstri":6372,"Ġpresented":6373,"Ġgray":6374,"Ġrecording":6375,"Ġentrepreneur":6376,"Ġcooperation":6377,"Ġphilosophy":6378,"Ġdestroyed":6379,"Ġexhibition":6380,"Ġprecisely":6381,"Ġacademic":6382,"ĠSweden":6383,"Ġlicense":6384,"Ġromantic":6385,"Ġconventional":6386,"ĠGhana":6387,"Ġinequality":6388,"ĠObama":6389,"Ġantibiotics":6390,"ĠRevolution":6391,"ĠFoundation":6392,"10":6393,"sum":6394,"Ġsales":6395,"Ġpour":6396,"edy":6397,"Ġlun":6398,"rade":6399,"Ġabuse":6400,"Ġgolf":6401,"Ġneut":6402,"ogue":6403,"ĠMa":6404,"ĠMal":6405,"ĠEm":6406,"ĠEth":6407,"ĠHouse":6408,"ello":6409,"Ġpretend":6410,"Ġraw":6411,"Ġappeared":6412,"Ġdesigns":6413,"Ġslides":6414,"Ġparticle":6415,"Ġconnecting":6416,"Ġparallel":6417,"Ġrising":6418,"Ġexpectations":6419,"Ġtraveled":6420,"Ġconcepts":6421,"Ġimmune":6422,"Ġprinting":6423,"Ġsculpture":6424,"Ġuncertain":6425,"Ġtitle":6426,"Ġvessels":6427,"Ġscenar":6428,"ĠApple":6429,"ĠJanuary":6430,"Come":6431,"PA":6432,"top":6433,"wr":6434,"walk":6435,"Ġtip":6436,"Ġtasks":6437,"oned":6438,"Ġdict":6439,"Ġdio":6440,"Ġdensity":6441,"astern":6442,"Ġstere":6443,"cean":6444,"raction":6445,"Ġexcell":6446,"ĠAc":6447,"Ġ27":6448,"Ġpocket":6449,"Ġguarant":6450,"Ġpersonality":6451,"Ġimagined":6452,"Before":6453,"Ġexplo":6454,"Ġwalks":6455,"Ġaccum":6456,"Ġcolony":6457,"Ġsurely":6458,"Ġclassic":6459,"ĠHealth":6460,"apping":6461,"Ġinteractive":6462,"Ġdepartment":6463,"Ġembedd":6464,"Ġemergency":6465,"Ġdepending":6466,"Ġtranslate":6467,"Ġappears":6468,"Ġfascinated":6469,"Ġspectac":6470,"Ġthrown":6471,"Ġsurveillance":6472,"Ġrepeat":6473,"Ġattached":6474,"Ġlatest":6475,"Ġentertainment":6476,"Ġlecture":6477,"Ġpermanent":6478,"Ġrecommend":6479,"Ġmushroom":6480,"Te":6481,"gers":6482,"power":6483,"Ġtill":6484,"Ġmim":6485,"Ġyield":6486,"iders":6487,"erences":6488,"keep":6489,"Ġliver":6490,"Ġate":6491,"Ġorbit":6492,"ape":6493,"udes":6494,"Ġwhereas":6495,"ĠBudd":6496,"Ġunits":6497,"Ġdisorder":6498,"ĠLeg":6499,"Ġcommitted":6500,"Ġprem":6501,"Ġwriter":6502,"ubes":6503,"ocal":6504,"Ġshoulder":6505,"Ġlovely":6506,"Ġbehave":6507,"Ġexploring":6508,"pring":6509,"Ġhearts":6510,"ĠIsland":6511,"Ġinteracting":6512,"Ġreaching":6513,"Ġgeomet":6514,"Ġawesome":6515,"Ġdivided":6516,"Ġlaughing":6517,"ĠCongo":6518,"Ġconcert":6519,"ĠIslamic":6520,"Ġhabitat":6521,"Ġcandid":6522,"Ġcommitment":6523,"Ġhunger":6524,"Ġrescue":6525,"ĠNobel":6526,"arency":6527,"Ġfurniture":6528,"Ġchocolate":6529,"rosoft":6530,"SS":6531,"gic":6532,"uous":6533,"under":6534,"Ġther":6535,"aming":6536,"Ġugly":6537,"Ġdelic":6538,"earch":6539,"quar":6540,"Ġusual":6541,"Ġplot":6542,"ĠGold":6543,"ĠJune":6544,"Ġpersu":6545,"Ġinvolves":6546,"Ġscream":6547,"Ġrepair":6548,"Ġmuscles":6549,"Ġcuriosity":6550,"Ġbreaking":6551,"Ġtreating":6552,"Ġdiabetes":6553,"Ġrecognized":6554,"Ġmagnetic":6555,"related":6556,"Ġpaintings":6557,"Ġmanufacture":6558,"Ġcustomers":6559,"Ġrecovery":6560,"Ġaxis":6561,"Ġspoken":6562,"Remember":6563,"Ġdioxide":6564,"DH":6565,"Nob":6566,"hatt":6567,"iated":6568,"uk":6569,"inals":6570,"Ġtoler":6571,"Ġpace":6572,"orking":6573,"that":6574,"think":6575,"Ġsection":6576,"Ġshr":6577,"Ġchest":6578,"Ġrush":6579,"ĠAct":6580,"osen":6581,"Ġsacr":6582,"ĠHom":6583,"ĠDay":6584,"ĠRw":6585,"Ġflash":6586,"Ġbrown":6587,"Ġplays":6588,"Ġgla":6589,"azz":6590,"Ġfinance":6591,"Ġcontrovers":6592,"Ġsigned":6593,"Ġopposed":6594,"arrator":6595,"Ġproductivity":6596,"Ġ65":6597,"ĠArt":6598,"ĠSecond":6599,"Ġballoon":6600,"Ġestimate":6601,"Ġachieved":6602,"Ġceiling":6603,"Ġvirtually":6604,"Ġconcern":6605,"going":6606,"Ġshooting":6607,"Ġaspects":6608,"About":6609,"Ġpyram":6610,"hattan":6611,"MS":6612,"Wow":6613,"cence":6614,"doll":6615,"pass":6616,"vas":6617,"Ġtired":6618,"Ġwings":6619,"rey":6620,"eration":6621,"Ġpink":6622,"org":6623,"ida":6624,"Ġassemb":6625,"Ġmold":6626,"Ġlikes":6627,"Ġmaxim":6628,"Ġwanting":6629,"Ġtag":6630,"agger":6631,"ĠBab":6632,"ĠBush":6633,"ĠNG":6634,"Ġsheep":6635,"Ġmonitor":6636,"Ġanimation":6637,"Ġcorn":6638,"Ġagenda":6639,"Ġcheaper":6640,"exas":6641,"Ġescape":6642,"Ġpurch":6643,"Ġeradic":6644,"Ġreported":6645,"Ġconflicts":6646,"Ġdisappeared":6647,"Ġcolleague":6648,"Ġsandwich":6649,"Ġportra":6650,"ĠCentral":6651,"Ġscratch":6652,"Ġrebuild":6653,"ĠRobert":6654,"Ġincentives":6655,"Ġprivilege":6656,"Ġadjust":6657,"Ġbicycle":6658,"Ġdignity":6659,"Ġembedded":6660,"AR":6661,"nic":6662,"oir":6663,"Ġtro":6664,"Ġcute":6665,"Ġdiverse":6666,"Ġgig":6667,"level":6668,"lete":6669,"Ġbeg":6670,"iday":6671,"Ġaband":6672,"Ġconven":6673,"Ġvital":6674,"Ġbackwards":6675,"ĠPeople":6676,"ĠTor":6677,"ĠLook":6678,"Ġheroes":6679,"phones":6680,"Ġpref":6681,"Ġinsurance":6682,"Ġproduces":6683,"Ġmeter":6684,"Ġhardly":6685,"Ġgenerated":6686,"Ġdevast":6687,"Ġconstit":6688,"class":6689,"Ġlegisl":6690,"Ġgrandfather":6691,"ĠSec":6692,"Ġapartment":6693,"zees":6694,"Ġaccepted":6695,"Ġengagement":6696,"Ġignore":6697,"ĠManhattan":6698,"Ġladies":6699,"Ġneighborhoods":6700,"Ġfrozen":6701,"Ġvolunteers":6702,"Ġauthent":6703,"Ġremoved":6704,"Ġvertical":6705,"Ġorchest":6706,"ĠStanford":6707,"Ġdisgust":6708,"Nobody":6709,"Ah":6710,"SP":6711,"hen":6712,"ras":6713,"Ġcens":6714,"Ġbon":6715,"Ġlin":6716,"leton":6717,"Ġnit":6718,"iment":6719,"uration":6720,"Ġstations":6721,"Ġaside":6722,"Ġshake":6723,"tery":6724,"Ġchamp":6725,"Ġalien":6726,"ĠCop":6727,"Ġenh":6728,"Ġunbelie":6729,"ĠTexas":6730,"ĠNations":6731,"angle":6732,"century":6733,"phas":6734,"ĠOx":6735,"Ġtraum":6736,"Ġscales":6737,"oster":6738,"Ġ32":6739,"Ġboom":6740,"Ġreput":6741,"Ġinfl":6742,"Ġorganize":6743,"Ġdefend":6744,"Ġcontinues":6745,"Ġmeetings":6746,"aws":6747,"Ġlegit":6748,"Ġlegacy":6749,"Ġdarkness":6750,"Ġfootball":6751,"Ġreduction":6752,"ĠThomas":6753,"Ġfunctional":6754,"Ġrainforest":6755,"Ġcaptured":6756,"Ġstrategies":6757,"Ġjudge":6758,"Ġnorthern":6759,"Ġadopt":6760,"Ġdolphins":6761,"Ġtelescope":6762,"Ġelder":6763,"Ġdedicated":6764,"ĠMicrosoft":6765,"ĠEthiop":6766,"fall":6767,"part":6768,"ua":6769,"Ġtheories":6770,"Ġcup":6771,"arp":6772,"Ġchosen":6773,"andem":6774,"ĠScience":6775,"Ġactors":6776,"Ġexpans":6777,"Ġexposed":6778,"Ġbubb":6779,"Ġimper":6780,"Ġflip":6781,"Ġinstant":6782,"Ġlaughter":6783,"archy":6784,"ĠSov":6785,"Ġgovernance":6786,"Ġglobally":6787,"Ġcharity":6788,"Ġequality":6789,"lessly":6790,"Ġcollecting":6791,"Ġmissed":6792,"Ġaccessible":6793,"Ġsilent":6794,"forward":6795,"Ġdrove":6796,"Ġuniversities":6797,"Ġcontribute":6798,"Ġcrying":6799,"Ġoptimistic":6800,"Ġsuspect":6801,"Ġmotivation":6802,"Ġalgorithm":6803,"Ġpunish":6804,"Ġpowers":6805,"Ġadvertising":6806,"Ġshadow":6807,"ĠHaiti":6808,"Ġhungry":6809,"100":6810,"hib":6811,"iology":6812,"Ġaim":6813,"Ġbat":6814,"Ġmarch":6815,"Ġfulf":6816,"anthrop":6817,"Ġeast":6818,"usions":6819,"children":6820,"Ġangle":6821,"thal":6822,"Ġmeg":6823,"unclear":6824,"Ġtri":6825,"Ġevolve":6826,"ptions":6827,"ĠTalk":6828,"Ġresolution":6829,"ĠJack":6830,"Ġfinds":6831,"ĠUg":6832,"Ġpatent":6833,"Ġattrib":6834,"Ġoldest":6835,"Ġskull":6836,"Ġprobability":6837,"Ġdistant":6838,"Ġparas":6839,"Ġprovides":6840,"Ġamongst":6841,"Ġtouched":6842,"Ġmechanics":6843,"Ġsearching":6844,"pox":6845,"Ġefforts":6846,"Ġweapon":6847,"Ġhistorical":6848,"Ġroute":6849,"Ġtalent":6850,"Ġinitial":6851,"Ġneuroscience":6852,"Ġmicroscope":6853,"Ġsatisf":6854,"Ġencounter":6855,"Ġearthquake":6856,"mun":6857,"Ġtears":6858,"Ġwip":6859,"Ġborrow":6860,"Ġhol":6861,"Ġdust":6862,"asy":6863,"icop":6864,"Ġyouth":6865,"Ġbeer":6866,"ulse":6867,"Ġfruit":6868,"ckets":6869,"ĠMad":6870,"Ġleap":6871,"Ġquad":6872,"Ġunp":6873,"Ġ26":6874,"Ġlocked":6875,"Ġherself":6876,"Ġletting":6877,"Ġinvite":6878,"Ġcarr":6879,"Ġschol":6880,"Ġminister":6881,"ĠAfricans":6882,"Ġelsewhere":6883,"Ġcontrols":6884,"ĠInternational":6885,"Ġlimb":6886,"Ġessence":6887,"ietnam":6888,"Ġfluid":6889,"Ġneuron":6890,"Ġfacial":6891,"ĠChristian":6892,"yright":6893,"Ġsimplicity":6894,"Ġelectronics":6895,"Ġboundaries":6896,"Ġseeds":6897,"Ġsmooth":6898,"Ġtransparent":6899,"ĠAtlantic":6900,"Ġbarely":6901,"Ġingredients":6902,"Ġapparently":6903,"Ġtransplant":6904,"Ġsuicide":6905,"dollar":6906,"Cl":6907,"MA":6908,"Ob":6909,"Pl":6910,"Sim":6911,"Women":6912,"cut":6913,"case":6914,"han":6915,"nov":6916,"Ġ0":6917,"Ġid":6918,"Ġwound":6919,"Ġboss":6920,"Ġpra":6921,"Ġfifth":6922,"Ġder":6923,"Ġdump":6924,"orter":6925,"ari":6926,"Ġgon":6927,"Ġwet":6928,"Ġrely":6929,"Ġabund":6930,"Ġjun":6931,"Ġrating":6932,"Ġintention":6933,"ĠSam":6934,"ĠSome":6935,"astroph":6936,"ardo":6937,"Ġages":6938,"Ġlob":6939,"Ġspell":6940,"Ġcontains":6941,"Ġunderground":6942,"Ġprev":6943,"ĠJes":6944,"ocin":6945,"Ġobl":6946,"Ġdrill":6947,"Ġminor":6948,"Ġaircraft":6949,"Ġtrends":6950,"Ġviews":6951,"Ġinnovations":6952,"Ġcommunications":6953,"Ġmargin":6954,"Ġheaven":6955,"Ġutter":6956,"Ġsymmetry":6957,"Ġreefs":6958,"Ġcriminal":6959,"Ġpregnant":6960,"Ġtragedy":6961,"19":6962,"ding":6963,"ixt":6964,"ka":6965,"Ġhire":6966,"Ġfib":6967,"Ġdirty":6968,"oral":6969,"Ġlaser":6970,"Ġna":6971,"utch":6972,"ura":6973,"Ġstages":6974,"cel":6975,"Ġshrim":6976,"Ġorange":6977,"Ġconce":6978,"ivered":6979,"quare":6980,"Ġintent":6981,"Ġpoison":6982,"ĠTal":6983,"Ġlock":6984,"Ġblank":6985,"Ġrealm":6986,"Ġafterwards":6987,"Ġglad":6988,"Ġpointed":6989,"Ġvisited":6990,"ĠVietnam":6991,"Ġairport":6992,"Ġ2004":6993,"Ġparaly":6994,"Ġretire":6995,"Ġdelight":6996,"Ġballs":6997,"Ġlayers":6998,"Ġmechanisms":6999,"Ġlinks":7000,"Ġmethods":7001,"Ġsymbols":7002,"Ġbeliefs":7003,"Ġtransparency":7004,"ĠPalest":7005,"Ġsurfaces":7006,"ĠJewish":7007,"Ġdominant":7008,"Ġfertil":7009,"Ġuncomfort":7010,"li":7011,"rant":7012,"rons":7013,"war":7014,"zens":7015,"Ġthumb":7016,"oust":7017,"itate":7018,"Ġhat":7019,"Ġtoys":7020,"Ġdive":7021,"Ġdiver":7022,"Ġlift":7023,"oma":7024,"rol":7025,"igation":7026,"Ġstable":7027,"Ġseats":7028,"Ġexternal":7029,"Ġric":7030,"Ġmail":7031,"Ġyours":7032,"Ġevalu":7033,"ĠBible":7034,"ĠEve":7035,"ĠPol":7036,"ĠDel":7037,"Ġcommod":7038,"ĠItaly":7039,"Ġeleg":7040,"Ġlighting":7041,"Ġbias":7042,"irds":7043,"Ġcapita":7044,"Ġadding":7045,"Ġgranted":7046,"Ġstops":7047,"viously":7048,"Ġspeaker":7049,"Ġ120":7050,"Ġconsume":7051,"Ġinspire":7052,"Ġterrorists":7053,"Ġcatastroph":7054,"Ġcrucial":7055,"ĠWhite":7056,"Ġcrops":7057,"ĠGrand":7058,"Ġpilot":7059,"Ġpasswords":7060,"Ġdiagram":7061,"Ġdatabase":7062,"Ġathlet":7063,"Four":7064,"Int":7065,"tocin":7066,"Ġtrop":7067,"Ġwaters":7068,"Ġhier":7069,"anz":7070,"ester":7071,"Ġgro":7072,"ione":7073,"section":7074,"sth":7075,"inder":7076,"Ġoutput":7077,"ĠCount":7078,"oded":7079,"Ġtwe":7080,"Ġdisrupt":7081,"ĠHy":7082,"phor":7083,"Ġemphas":7084,"Ġgenoc":7085,"Ġgenius":7086,"Ġstrangers":7087,"Ġrecru":7088,"Ġfarmer":7089,"Ġearn":7090,"Ġcapability":7091,"Ġpassing":7092,"arents":7093,"Ġmusicians":7094,"def":7095,"Everyone":7096,"Ġdelivered":7097,"Ġdepressed":7098,"Ġposter":7099,"Ġsuggesting":7100,"Ġtextbook":7101,"Ġvacu":7102,"Ġannounced":7103,"Ġaffordable":7104,"Ġcalculate":7105,"Ġethical":7106,"Ġdemonstrate":7107,"Ġjournalist":7108,"Ġsmoking":7109,"ĠFlor":7110,"Ġintuitive":7111,"Ġisolated":7112,"Ġchimpanzees":7113,"American":7114,"Ġspectacular":7115,"ĠOxford":7116,"ĠUganda":7117,"Narrator":7118,"aj":7119,"bits":7120,"dam":7121,"rit":7122,"west":7123,"Ġx":7124,"Ġaer":7125,"Ġwing":7126,"Ġcab":7127,"Ġpile":7128,"Ġpandem":7129,"alian":7130,"Ġnets":7131,"Ġneat":7132,"Ġneural":7133,"Ġchief":7134,"Ġpeer":7135,"ideo":7136,"Ġupset":7137,"emen":7138,"izoph":7139,"ĠMac":7140,"Ġhappier":7141,"Ġclim":7142,"ĠEastern":7143,"iac":7144,"ĠLad":7145,"Ġrelax":7146,"Ġmonit":7147,"Ġedges":7148,"Ġaccidents":7149,"Ġelections":7150,"Ġdistrict":7151,"Ġtreatments":7152,"Ġdrawn":7153,"Ġspeakers":7154,"Ġbreakthrough":7155,"Ġextrem":7156,"Ġorigami":7157,"Ġpulling":7158,"Ġinspiring":7159,"Ġdegrad":7160,"Ġcircles":7161,"Ġparticipants":7162,"Ġintegrated":7163,"Ġtuna":7164,"Ġcategory":7165,"ĠWilliam":7166,"ĠSmith":7167,"Ġshrimp":7168,"Ġuncomfortable":7169,"Ġricher":7170,"200":7171,"Number":7172,"Us":7173,"fess":7174,"pen":7175,"rid":7176,"Ġwid":7177,"isphere":7178,"Ġbars":7179,"Ġink":7180,"omb":7181,"Ġanthrop":7182,"Ġdozens":7183,"Ġsoap":7184,"Ġchrom":7185,"Ġspr":7186,"osal":7187,"osure":7188,"ĠSil":7189,"ogether":7190,"Ġperpet":7191,"Ġquit":7192,"Ġmanif":7193,"aches":7194,"Ġunh":7195,"Ġparties":7196,"Ġsheet":7197,"cohol":7198,"Ġemerge":7199,"Ġtraject":7200,"uba":7201,"Ġhelicop":7202,"Ġbask":7203,"Ġconsult":7204,"Ġbiologists":7205,"Ġregret":7206,"Ġdisturb":7207,"Ġdefense":7208,"mingly":7209,"Ġvariation":7210,"Ġveter":7211,"Ġprotecting":7212,"Ġpredictions":7213,"Nothing":7214,"Ġorigin":7215,"Ġphotography":7216,"Ġreduced":7217,"Ġincludes":7218,"Ġcharacteristics":7219,"Ġdependent":7220,"Ġseparated":7221,"Ġdebt":7222,"Ġbanks":7223,"Ġtricks":7224,"Ġconclude":7225,"Ġdynamics":7226,"Ġagricultural":7227,"ĠBlack":7228,"Ġchapter":7229,"ĠCambr":7230,"Ġridiculous":7231,"heimer":7232,"Ġlungs":7233,"Ġreputation":7234,"Five":7235,"bra":7236,"fold":7237,"oor":7238,"onds":7239,"Ġaesth":7240,"Ġsession":7241,"enger":7242,"Ġpicking":7243,"ĠIce":7244,"utical":7245,"lyn":7246,"che":7247,"opher":7248,"amine":7249,"Ġjelly":7250,"ested":7251,"Ġspark":7252,"Ġspots":7253,"ĠMark":7254,"Ġagencies":7255,"ĠDemoc":7256,"Ġblame":7257,"Ġrail":7258,"Ġintervention":7259,"Ġlaid":7260,"ĠVir":7261,"Ġsettle":7262,"Ġphotographer":7263,"Ġpainted":7264,"Ġidentified":7265,"Ġobserv":7266,"Ġimpacts":7267,"ĠSea":7268,"Ġfuels":7269,"Ġreports":7270,"Ġimprovement":7271,"Ġreturned":7272,"Ġdetermined":7273,"Ġphysicist":7274,"Ġintegr":7275,"Ġconsequence":7276,"Ġtribes":7277,"Ġecosystems":7278,"Ġteenagers":7279,"Ġunlikely":7280,"Ġsynthetic":7281,"Ġbriefly":7282,"Ġfederal":7283,"Ġprosper":7284,"Indeed":7285,"Ġrevenue":7286,"Ġdictionary":7287,"Ġanxiety":7288,"Ġignorance":7289,"ĠSoviet":7290,"ĠFlorida":7291,"Tr":7292,"bul":7293,"ober":7294,"Ġtied":7295,"atom":7296,"Ġmate":7297,"onic":7298,"Ġgh":7299,"Ġstores":7300,"Ġkiss":7301,"Ġknee":7302,"Whether":7303,"ĠCA":7304,"oding":7305,"aceutical":7306,"Ġcliff":7307,"Ġunpre":7308,"Ġdisag":7309,"ĠPole":7310,"Ġadap":7311,"obs":7312,"Ġincident":7313,"ĠOcean":7314,"Ġapple":7315,"Ġschizoph":7316,"Ġenth":7317,"Ġ195":7318,"Ġstrip":7319,"Ġsmallpox":7320,"Ġopens":7321,"ribly":7322,"Ġ2006":7323,"Ġglobalization":7324,"Ġrobust":7325,"Ġlanded":7326,"Ġexperimental":7327,"Ġdigit":7328,"Ġoriginally":7329,"Ġsouthern":7330,"Ġreminded":7331,"Ġcryst":7332,"Ġdimension":7333,"ĠAdam":7334,"Ġrecover":7335,"Ġrepeated":7336,"Ġtrucks":7337,"Ġwheelch":7338,"Ġconstructed":7339,"Ġbranch":7340,"Ġbathroom":7341,"iatric":7342,"Ġwelcome":7343,"BC":7344,"God":7345,"Tw":7346,"but":7347,"ek":7348,"mod":7349,"rich":7350,"zheimer":7351,"Ġthrew":7352,"Ġwise":7353,"atts":7354,"erving":7355,"Ġmall":7356,"Ġhanging":7357,"Ġfiber":7358,"Ġinches":7359,"Ġlon":7360,"Ġlux":7361,"Ġnaked":7362,"Ġbeet":7363,"Ġrent":7364,"ctober":7365,"raw":7366,"Ġdoors":7367,"Ġproof":7368,"capes":7369,"isted":7370,"Ġalcohol":7371,"Ġactor":7372,"ĠMand":7373,"ĠMary":7374,"ĠBay":7375,"ĠBur":7376,"Ġagency":7377,"Ġclients":7378,"ĠNet":7379,"Ġunderlying":7380,"Ġadoles":7381,"icks":7382,"obile":7383,"Ġbrib":7384,"ĠOn":7385,"Ġsimult":7386,"Ġbio":7387,"Ġcaps":7388,"ĠVen":7389,"ughters":7390,"ĠTEDTalk":7391,"Ġpositions":7392,"Ġsensory":7393,"Ġsentences":7394,"Ġpredicted":7395,"Ġfacility":7396,"Ġcopyright":7397,"Ġbrave":7398,"Ġultra":7399,"Ġnucle":7400,"Ġprimarily":7401,"Ġcrossing":7402,"Ġcitizen":7403,"Ġdiscoveries":7404,"Ġassumptions":7405,"Ġoxytocin":7406,"fficient":7407,"ĠPrize":7408,"Ġrarely":7409,"Ġinjury":7410,"ĠGlobal":7411,"ĠGeneral":7412,"Ġchaos":7413,"Ġnurses":7414,"ĠDepartment":7415,"ĠRwanda":7416,"Ġglaci":7417,"Ġpyramid":7418,"Ġlinear":7419,"Ġvacuum":7420,"Af":7421,"Get":7422,"hal":7423,"kin":7424,"pond":7425,"rome":7426,"tical":7427,"ya":7428,"zero":7429,"Ġthresh":7430,"Ġwra":7431,"Ġsle":7432,"Ġsulf":7433,"Ġpunch":7434,"Ġfool":7435,"Ġfract":7436,"Ġfought":7437,"Ġinherent":7438,"icious":7439,"Ġstom":7440,"opard":7441,"Ġspa":7442,"ĠSing":7443,"ĠSuper":7444,"Ġcomprom":7445,"ache":7446,"ĠGand":7447,"Ġarrow":7448,"ĠRiver":7449,"Ġcourt":7450,"Ġcaring":7451,"Ġdrivers":7452,"Ġmode":7453,"Ġartistic":7454,"Ġfarming":7455,"Ġregener":7456,"Ġfiguring":7457,"Ġ700":7458,"attered":7459,"Ġholds":7460,"Ġgrandchildren":7461,"Ġsticks":7462,"Ġtargets":7463,"Ġtranslated":7464,"Ġpushed":7465,"Ġsalt":7466,"ĠSpace":7467,"Ġexpanding":7468,"Ġdinosaur":7469,"Ġhackers":7470,"Ġshopping":7471,"Ġreveal":7472,"Ġshelter":7473,"Ġextended":7474,"Ġinevitable":7475,"Ġbegun":7476,"Ġbubbles":7477,"Ġschizophren":7478,"BI":7479,"Life":7480,"bru":7481,"born":7482,"iens":7483,"lar":7484,"makers":7485,"Ġsits":7486,"Ġhip":7487,"onia":7488,"aran":7489,"Ġgases":7490,"urse":7491,"opy":7492,"Ġmeal":7493,"Ġchairs":7494,"cap":7495,"iel":7496,"ĠSim":7497,"ĠSyr":7498,"elf":7499,"Ġsacred":7500,"mented":7501,"izar":7502,"Ġpermission":7503,"Ġexped":7504,"Ġclar":7505,"Ġ28":7506,"ĠHollywood":7507,"Ġreson":7508,"eller":7509,"ĠRio":7510,"ĠWall":7511,"Ġinvolve":7512,"Ġowner":7513,"Ġscores":7514,"Ġattitude":7515,"gging":7516,"Ġanswered":7517,"Ġobjective":7518,"Ġfocusing":7519,"ĠAlzheimer":7520,"Ġobservation":7521,"ĠBeij":7522,"Ġvolcan":7523,"Ġemerged":7524,"Ġprimitive":7525,"Ġpupp":7526,"Ġthrowing":7527,"Ġburst":7528,"Ġpanels":7529,"ĠCarol":7530,"ĠQue":7531,"ĠArabic":7532,"market":7533,"Ġfrequency":7534,"Really":7535,"Ġconsistent":7536,"ĠSaturn":7537,"ĠMartin":7538,"ĠAntar":7539,"Ġelderly":7540,"Ġgonna":7541,"Ġchromos":7542,"PM":7543,"auc":7544,"free":7545,"half":7546,"liam":7547,"ocent":7548,"riger":7549,"Ġsink":7550,"Ġsisters":7551,"erd":7552,"err":7553,"itudes":7554,"ena":7555,"Ġhill":7556,"arl":7557,"ali":7558,"owing":7559,"Ġabilities":7560,"illa":7561,"Ġsharp":7562,"ulum":7563,"Ġrice":7564,"Ġdear":7565,"Ġsav":7566,"apor":7567,"ĠBob":7568,"Ġpartly":7569,"Ġacid":7570,"Ġflour":7571,"athered":7572,"Ġsmarter":7573,"ĠJeff":7574,"ĠOctober":7575,"Ġwriters":7576,"Ġhelpful":7577,"Ġhighlight":7578,"Ġimagery":7579,"Ġserved":7580,"Ġstunt":7581,"Ġsubtle":7582,"Ġregime":7583,"Ġconfident":7584,"Ġmagical":7585,"Ġmeasures":7586,"Ġdifficulty":7587,"Ġsensor":7588,"ovember":7589,"Ġoperations":7590,"gency":7591,"Ġsuggested":7592,"Ġpromote":7593,"Ġproposed":7594,"Ġarray":7595,"Ġsleeping":7596,"Ġbarrel":7597,"Ġparticipation":7598,"Ġgraphic":7599,"Ġdisappoint":7600,"Ġcollaborative":7601,"Ġphilanthrop":7602,"Ġdocuments":7603,"Ġdiagnosed":7604,"Ġsatellites":7605,"Ġpursue":7606,"Ġflexible":7607,"ĠCEO":7608,"Ġforgotten":7609,"Ġensure":7610,"Ġautonomous":7611,"Ġresilience":7612,"Ġmysterious":7613,"ĠEthiopia":7614,"Ġexpansion":7615,"ĠVirgin":7616,"\"]":7617,"DA":7618,"EC":7619,"ET":7620,"En":7621,"Qu":7622,"eep":7623,"Ġtear":7624,"atural":7625,"erable":7626,"Ġcas":7627,"Ġcott":7628,"Ġmur":7629,"Ġhitting":7630,"Ġpione":7631,"arry":7632,"Ġwhis":7633,"othing":7634,"Ġwhatso":7635,"Ġhey":7636,"Ġprosth":7637,"eart":7638,"Ġplain":7639,"Ġplug":7640,"izer":7641,"ĠMRI":7642,"udi":7643,"ĠBon":7644,"Ġneedle":7645,"Ġbucks":7646,"ĠDere":7647,"Ġroots":7648,"ĠLab":7649,"ĠWal":7650,"ĠJim":7651,"Ġtransm":7652,"ĠStar":7653,"Ġelite":7654,"Ġopenness":7655,"Ġcurren":7656,"Ġdefe":7657,"Ġ2003":7658,"Ġrefriger":7659,"inson":7660,"Ġassess":7661,"Ġprogramming":7662,"Ġaudio":7663,"Ġradically":7664,"Ġfailing":7665,"Ġsupported":7666,"Ġjoint":7667,"Ġkeyboard":7668,"Ġphotographed":7669,"Ġimmense":7670,"Ġimmediate":7671,"Ġburied":7672,"Ġstruggling":7673,"Ġvictim":7674,"Ġbaseball":7675,"Ġliberal":7676,"Ġadditional":7677,"Ġanalyze":7678,"Ġskept":7679,"Ġenterpr":7680,"Ġtribe":7681,"atrix":7682,"Ġmillenn":7683,"Ġelephants":7684,"Ġgathering":7685,"Ġdialogue":7686,"Ġcolonies":7687,"Ġmerely":7688,"Ġastonishing":7689,"Ġbiodiversity":7690,"izarre":7691,"Ġwhatsoever":7692,"18":7693,"Great":7694,"low":7695,"mates":7696,"worth":7697,"Ġtone":7698,"Ġtheore":7699,"Ġsilly":7700,"itous":7701,"Ġmood":7702,"oning":7703,"Ġduck":7704,"ora":7705,"oran":7706,"orpor":7707,"Ġlamp":7708,"Ġgee":7709,"ala":7710,"Ġham":7711,"oli":7712,"Ġchron":7713,"Ġconvert":7714,"unction":7715,"ĠSund":7716,"Ġleverage":7717,"Ġagent":7718,"ĠGates":7719,"ĠPan":7720,"iban":7721,"ĠTitan":7722,"Ġphos":7723,"ĠFin":7724,"ĠFirst":7725,"Ġflows":7726,"arsh":7727,"Ġending":7728,"Ġfounded":7729,"Ġcompleted":7730,"Ġinterestingly":7731,"Ġgrat":7732,"Ġselfish":7733,"Ġcraft":7734,"Ġ95":7735,"Ġsuccessfully":7736,"Ġexpectancy":7737,"Ġshaped":7738,"ĠBrown":7739,"Ġdaughters":7740,"Ġdeliber":7741,"Ġexplaining":7742,"Ġindustries":7743,"Ġarrive":7744,"Ġsoldier":7745,"Ġexception":7746,"Ġdomain":7747,"Ġfraction":7748,"Ġdemonstration":7749,"Ġshocked":7750,"ĠRussian":7751,"Ġclimbing":7752,"Ġroutine":7753,"Ġfabulous":7754,"esthes":7755,"Ġdolphin":7756,"Ġrefugees":7757,"Ġlawyer":7758,"Ġslavery":7759,"semble":7760,"Ġinstructions":7761,"Ġgenocide":7762,"ĠCambridge":7763,"Ġwheelchair":7764,"bruary":7765,"liament":7766,"fe":7767,"sc":7768,"yard":7769,"Ġaqu":7770,"Ġwider":7771,"erb":7772,"Ġcig":7773,"Ġcable":7774,"Ġcert":7775,"Ġcats":7776,"Ġbizarre":7777,"enly":7778,"eday":7779,"Ġlit":7780,"ĠInt":7781,"Ġstab":7782,"ifice":7783,"Ġwashing":7784,"Ġbutt":7785,"Ġtech":7786,"ela":7787,"Ġcompos":7788,"ĠMor":7789,"agos":7790,"Ġdescription":7791,"interest":7792,"Ġowned":7793,"conf":7794,"Ġcapabilities":7795,"Ġpubl":7796,"Ġwarning":7797,"Ġconfused":7798,"Ġcurric":7799,"Ġ2001":7800,"Ġcraw":7801,"Ġfunded":7802,"Ġinvested":7803,"Ġsurviv":7804,"Ġstrongly":7805,"Ġarchitectural":7806,"engine":7807,"Ġsuffered":7808,"Ġrepresentation":7809,"Ġtranslation":7810,"Ġmethane":7811,"Ġprepare":7812,"Ġsurprisingly":7813,"Ġskelet":7814,"Ġskeleton":7815,"copes":7816,"Ġinformed":7817,"Ġtort":7818,"Ġrefugee":7819,"ĠGreek":7820,"Ġperceive":7821,"Ġintrig":7822,"Ġhypothesis":7823,"oosing":7824,"Ġaccomplish":7825,"embered":7826,"Ġcorrespond":7827,"Ġproportion":7828,"Ġunbelievable":7829,"Obviously":7830,"Ġmanifest":7831,"Ġbasket":7832,"LA":7833,"Ph":7834,"parents":7835,"sp":7836,"uity":7837,"ville":7838,"Ġtong":7839,"Ġain":7840,"encing":7841,"Ġdim":7842,"eda":7843,"ason":7844,"ician":7845,"Ġnerve":7846,"Ġnurse":7847,"Ġbears":7848,"sey":7849,"stage":7850,"road":7851,"Ġstake":7852,"cember":7853,"Ġub":7854,"Ġsew":7855,"Ġcham":7856,"Ġchoosing":7857,"Ġrivers":7858,"Ġdecent":7859,"umes":7860,"istically":7861,"Ġtrash":7862,"mental":7863,"aby":7864,"ĠBron":7865,"ĠLED":7866,"play":7867,"Ġsimulation":7868,"Ġentering":7869,"Ġstranger":7870,"aze":7871,"Ġcorrel":7872,"Ġhomework":7873,"Ġelected":7874,"Ġweeke":7875,"Ġeducated":7876,"Ġcheese":7877,"Ġadvoc":7878,"Ġ85":7879,"Ġ800":7880,"ĠArch":7881,"ĠArctic":7882,"Ġbreaks":7883,"Ġtempt":7884,"Ġleaf":7885,"Ġthreats":7886,"ĠDecember":7887,"Ġcartoons":7888,"Ġinfection":7889,"ĠIslands":7890,"Ġtunnel":7891,"Ġmixed":7892,"Ġgolden":7893,"Ġattractive":7894,"Ġtumors":7895,"ĠNorway":7896,"Ġsynthes":7897,"Ġfragile":7898,"Ġadopted":7899,"Ġgarage":7900,"Ġnutrition":7901,"Ġneurolog":7902,"Ġfortunate":7903,"Ġlawyers":7904,"Ġmiracle":7905,"Ġhemisphere":7906,"Ġpharmaceutical":7907,"Ġstroke":7908,"Ġuncertainty":7909,"fessor":7910,"BM":7911,"Back":7912,"Turn":7913,"Will":7914,"friend":7915,"hop":7916,"sun":7917,"viol":7918,"working":7919,"yal":7920,"Ġwired":7921,"ati":7922,"Ġboo":7923,"Ġbored":7924,"enh":7925,"Ġdumb":7926,"stone":7927,"Ġshout":7928,"Ġships":7929,"Ġneck":7930,"ilize":7931,"Ġrats":7932,"Ġorph":7933,"umble":7934,"atever":7935,"ĠAh":7936,"ĠCoun":7937,"Ġcompelling":7938,"Ġsuck":7939,"ĠDet":7940,"rained":7941,"otherap":7942,"Ġrealizing":7943,"pled":7944,"Ġbrut":7945,"Ġgenetically":7946,"Ġpersist":7947,"Ġremembered":7948,"Ġdistingu":7949,"Ġmembr":7950,"Ġrestore":7951,"Ġrestrict":7952,"Ġkiller":7953,"clock":7954,"Ġexpecting":7955,"Ġsquee":7956,"Ġfastest":7957,"Ġcompetitive":7958,"Ġaffects":7959,"Ġexperiencing":7960,"Ġclosing":7961,"Ġterrorist":7962,"Ġmagnitude":7963,"Ġauthorities":7964,"Ġjudgment":7965,"Ġphysician":7966,"Ġmicrobial":7967,"Ġgradually":7968,"Ġintuition":7969,"Ġreplicate":7970,"Ġadventure":7971,"Ġtackle":7972,"ĠTaliban":7973,"Ġparalyzed":7974,"ĠBeijing":7975,"Me":7976,"Never":7977,"Video":7978,"].":7979,"flies":7980,"gence":7981,"kins":7982,"maker":7983,"run":7984,"sch":7985,"Ġsin":7986,"Ġcous":7987,"Ġtooth":7988,"Ġpale":7989,"owers":7990,"Through":7991,"urable":7992,"Ġshots":7993,"Ġchances":7994,"Ġcong":7995,"Ġspray":7996,"Ġupd":7997,"ĠSpan":7998,"Ġenables":7999,"ĠMiss":8000,"Ġleather":8001,"aching":8002,"Ġunable":8003,"ĠGore":8004,"Ġpride":8005,"Ġdism":8006,"ĠPeter":8007,"angible":8008,"Ġdeserve":8009,"ĠLib":8010,"ĠWith":8011,"Ġremaining":8012,"ĠChurch":8013,"Ġschem":8014,"Ġtranscend":8015,"ostic":8016,"Ġimaging":8017,"Ġarticles":8018,"Ġmining":8019,"Ġfoods":8020,"Ġheaded":8021,"Ġdemands":8022,"Ġcake":8023,"Ġaddict":8024,"Ġcharges":8025,"Ġinnocent":8026,"Ġoccurs":8027,"Ġimproved":8028,"Ġtraditions":8029,"Ġstaying":8030,"Ġwinning":8031,"Ġbeneath":8032,"ugust":8033,"Ġincluded":8034,"Ġjumped":8035,"Ġcovering":8036,"yrus":8037,"ĠQu":8038,"Ġprofoundly":8039,"Ġfortune":8040,"Ġhomeless":8041,"Ġwidely":8042,"Ġinstitutional":8043,"Ġinitially":8044,"Ġnegoti":8045,"Ġprofessionals":8046,"Ġbesides":8047,"Ġexponential":8048,"Ġsenior":8049,"Ġtrajectory":8050,"Ġenthus":8051,"Ġthreshold":8052,"ĠDerek":8053,"BF":8054,"Hi":8055,"Next":8056,"Sah":8057,"bar":8058,"des":8059,"four":8060,"field":8061,"gu":8062,"iogen":8063,"kind":8064,"lim":8065,"nes":8066,"ship":8067,"xual":8068,"ĠThen":8069,"Ġah":8070,"Ġpairs":8071,"Ġdan":8072,"Ġdile":8073,"Ġlap":8074,"Ġgaps":8075,"icient":8076,"Ġnurt":8077,"ctu":8078,"allow":8079,"opath":8080,"oples":8081,"ading":8082,"adays":8083,"Ġcomments":8084,"Ġshore":8085,"Ġchips":8086,"Ġrh":8087,"Ġpeoples":8088,"Ġalph":8089,"Ġspont":8090,"ĠSou":8091,"active":8092,"ĠMah":8093,"Ġlean":8094,"ague":8095,"Ġbug":8096,"anged":8097,"ounding":8098,"ĠLou":8099,"ĠLike":8100,"ĠFre":8101,"ĠJo":8102,"Ġdrone":8103,"Ġmetric":8104,"cedented":8105,"Ġpreserve":8106,"Ġdistort":8107,"Ġvalid":8108,"otted":8109,"Ġmusician":8110,"Ġsecrets":8111,"iences":8112,"Ġdeli":8113,"Ġsurvived":8114,"Ġapproaches":8115,"Ġcivic":8116,"Ġobserve":8117,"Ġfootage":8118,"Ġmarry":8119,"Ġsteal":8120,"Ġfacilities":8121,"Ġprinter":8122,"Ġerrors":8123,"Ġtracks":8124,"Ġreactions":8125,"Ġtendency":8126,"Ġdetailed":8127,"Ġassumption":8128,"Ġinfluenced":8129,"Ġburned":8130,"Ġphysicists":8131,"Ġvulnerability":8132,"edding":8133,"ĠMinister":8134,"Ġsubstance":8135,"Ġgods":8136,"Ġqualities":8137,"ĠFebruary":8138,"Ġscenario":8139,"Ġshrink":8140,"Ġpandemic":8141,"Ġcurriculum":8142,"ĠBronx":8143,"Give":8144,"Girl":8145,"Spe":8146,"aa":8147,"Ġtsun":8148,"inarily":8149,"eries":8150,"Ġcub":8151,"Ġdow":8152,"Ġlone":8153,"Ġgathered":8154,"Ġnom":8155,"Ġrehab":8156,"erer":8157,"ifer":8158,"Ġdop":8159,"aded":8160,"olic":8161,"Ġconvey":8162,"Ġouter":8163,"Ġspons":8164,"ĠAugust":8165,"ĠSquare":8166,"employ":8167,"Ġengin":8168,"ares":8169,"agen":8170,"Ġclothing":8171,"Ġuniform":8172,"ĠDis":8173,"ĠLong":8174,"irect":8175,"Ġfactories":8176,"Ġbrows":8177,"ĠOs":8178,"Ġasks":8179,"Ġinstantly":8180,"Ġforming":8181,"Ġformal":8182,"Ġdistract":8183,"Ġsocially":8184,"Ġwoke":8185,"Ġprofile":8186,"ropy":8187,"Ġinvesting":8188,"China":8189,"Ġmindset":8190,"Ġsignificantly":8191,"Ġsoup":8192,"Ġportion":8193,"Ġoptimism":8194,"Ġsusp":8195,"Ġpigs":8196,"Ġurge":8197,"Ġfrog":8198,"Ġinsights":8199,"Ġodds":8200,"Ġchannels":8201,"Ġnutrients":8202,"Ġaggreg":8203,"Ġaggressive":8204,"Ġfrustrated":8205,"Ġsubstant":8206,"Ġconducted":8207,"Ġinterpretation":8208,"Ġcomparison":8209,"Ġqueen":8210,"ĠTurkey":8211,"ĠBrook":8212,"Ġglamorous":8213,"ĠJesus":8214,"Ġunprecedented":8215,"Ġsimultaneously":8216,"Ġdilem":8217,"Ġengines":8218,"MT":8219,"Tell":8220,"bing":8221,"fast":8222,"press":8223,"ini":8224,"Ġwest":8225,"isc":8226,"isy":8227,"Ġdies":8228,"Ġdung":8229,"Ġlions":8230,"Ġbell":8231,"see":8232,"Ġanonymous":8233,"estr":8234,"quis":8235,"Ġtends":8236,"andering":8237,"Ġtriv":8238,"ĠMoo":8239,"Ġexport":8240,"Ġcoca":8241,"ĠHigh":8242,"Ġacoust":8243,"ĠOk":8244,"Ġindig":8245,"Ġremained":8246,"Ġcourses":8247,"ails":8248,"ĠKen":8249,"Ġ33":8250,"Ġlake":8251,"Ġextension":8252,"Ġserving":8253,"Ġhealthier":8254,"Ġsubway":8255,"Ġdemographic":8256,"Ġmorality":8257,"Ġkills":8258,"ending":8259,"Ġstructural":8260,"Ġbottles":8261,"Ġexplains":8262,"Ġimproving":8263,"Ġcombat":8264,"Ġmedication":8265,"Ġlifes":8266,"Ġarrange":8267,"Ġflowing":8268,"Ġaccounts":8269,"Ġstrategic":8270,"Ġwildlife":8271,"Ġpurposes":8272,"Ġrolling":8273,"Ġwealthy":8274,"Ġirre":8275,"Ġhalluc":8276,"Ġcruel":8277,"Ġgentleman":8278,"ĠNorthern":8279,"Ġrestaurants":8280,"Ġgarbage":8281,"Ġexpertise":8282,"Ġrubber":8283,"Ġanalogy":8284,"Ġtrigger":8285,"Ġcontemporary":8286,"looking":8287,"Ġownership":8288,"Ġobstacles":8289,"Ġconservative":8290,"quarters":8291,"ĠHomo":8292,"otherapy":8293,"Ġdelivery":8294,"40":8295,"Dr":8296,"EM":8297,"],":8298,"fram":8299,"human":8300,"lings":8301,"produ":8302,"uke":8303,"atar":8304,"itating":8305,"ani":8306,"angh":8307,"Ġinhab":8308,"Ġgear":8309,"Ġgate":8310,"asm":8311,"ĠIm":8312,"usiness":8313,"Ġbend":8314,"Ġrecept":8315,"imal":8316,"chron":8317,"Ġshipping":8318,"antom":8319,"Ġsomeday":8320,"Ġouts":8321,"ĠSar":8322,"ogram":8323,"asty":8324,"agon":8325,"uded":8326,"Ġimpression":8327,"ĠHill":8328,"Ġgotta":8329,"ĠDutch":8330,"Ġcontrad":8331,"cost":8332,"Ġprec":8333,"athan":8334,"ĠJoe":8335,"rence":8336,"Ġpointing":8337,"Ġ36":8338,"licit":8339,"Ġinterrupt":8340,"Ġdrones":8341,"Ġcrick":8342,"Ġproto":8343,"Ġcamps":8344,"Ġlocated":8345,"Ġexcit":8346,"Ġtrains":8347,"Ġnonprofit":8348,"Ġsupporting":8349,"Ġfriendly":8350,"Ġversions":8351,"Ġfears":8352,"Ġdrawings":8353,"Ġfluores":8354,"Ġcompassionate":8355,"Within":8356,"Ġfemales":8357,"Ġthreatened":8358,"Ġtroub":8359,"Ġpanel":8360,"Ġprinted":8361,"Ġreminds":8362,"ĠSpain":8363,"Ġblogs":8364,"Ġclassrooms":8365,"ĠiPod":8366,"Ġairplanes":8367,"Ġcosmic":8368,"Ġcategories":8369,"Ġticket":8370,"Ġestablished":8371,"Ġhunting":8372,"Afric":8373,"Ġubiqu":8374,"ĠCouncil":8375,"Saharan":8376,"ĠSouthern":8377,"Le":8378,"Woman":8379,"aves":8380,"kward":8381,"you":8382,"zee":8383,"reens":8384,"Ġmatrix":8385,"Ġhors":8386,"Ġfile":8387,"arge":8388,"omin":8389,"Ġislands":8390,"Ġongoing":8391,"usted":8392,"umin":8393,"ective":8394,"Ġintim":8395,"Ġupside":8396,"ĠCD":8397,"Ġenerg":8398,"ĠMarch":8399,"ĠBu":8400,"ipts":8401,"Ġuncle":8402,"ormal":8403,"ĠHave":8404,"Ġarmed":8405,"asses":8406,"Ġloves":8407,"perform":8408,"Ġcounting":8409,"ords":8410,"Ġgenu":8411,"Ġgenetics":8412,"Ġreliable":8413,"Ġbelieves":8414,"Ġentropy":8415,"Ġplanes":8416,"Ġextinction":8417,"Ġcrew":8418,"Ġcomputation":8419,"otechnology":8420,"Ġfung":8421,"ĠIndians":8422,"Ġconnects":8423,"Ġbadly":8424,"Ġsixth":8425,"Ġnights":8426,"Ġclassical":8427,"Ġ[\"":8428,"Ġredesign":8429,"Ġperformed":8430,"Ġreducing":8431,"bye":8432,"Ġclosest":8433,"Ġawkward":8434,"Ġpeaceful":8435,"Ġpause":8436,"Ġgraphics":8437,"Ġdetection":8438,"Ġdespair":8439,"Ġsuspe":8440,"Ġscanner":8441,"Ġofficer":8442,"Ġaltru":8443,"Ġpoems":8444,"Secondly":8445,"Ġincentive":8446,"ĠScott":8447,"minute":8448,".'\"":8449,"Ġinevit":8450,"Ġdiscipline":8451,"Ġrituals":8452,"Ġexplosion":8453,"Ġoccasionally":8454,"ĠSaudi":8455,"Ġcolumn":8456,"Ġstereoty":8457,"Ġexcellent":8458,"Ġcigaret":8459,"Ġtongue":8460,"Ġdopamine":8461,"Ġexcitement":8462,"Put":8463,"Pro":8464,"RB":8465,"RS":8466,"made":8467,"wind":8468,"Ġtut":8469,"Ġtie":8470,"inter":8471,"itative":8472,"Ġbats":8473,"Ġho":8474,"Ġgam":8475,"Ġnerd":8476,"Ġbeating":8477,"ctica":8478,"Ġcanopy":8479,"Ġash":8480,"Ġcomedy":8481,"Ġorient":8482,"Ġdeck":8483,"Ġupload":8484,"ĠSom":8485,"ĠMother":8486,"Ġpercept":8487,"Ġclay":8488,"Ġclient":8489,"Ġoverl":8490,"Ġimpressive":8491,"ĠHall":8492,"ĠTes":8493,"anges":8494,"ĠDes":8495,"Ġprecious":8496,"Ġpreval":8497,"Ġincom":8498,"ĠOf":8499,"neys":8500,"rowing":8501,"Ġtragic":8502,"Ġgram":8503,"Ġterribly":8504,"Ġstrike":8505,"Ġbush":8506,"Ġsubt":8507,"ĠVer":8508,"Ġprofits":8509,"Ġcontinents":8510,"Ġcontinuing":8511,"Ġdevil":8512,"Ġinvestors":8513,"apped":8514,"Ġopera":8515,"Ġlowest":8516,"Ġgrandparents":8517,"Ġrobotics":8518,"Ġapproaching":8519,"Ġnearby":8520,"Ġharness":8521,"Ġspreads":8522,"ĠAsian":8523,"Although":8524,"puter":8525,"Ġearliest":8526,"Ġannual":8527,"Ġmagnific":8528,"Ġappearance":8529,"Ġ2011":8530,"Ġphenomena":8531,"Ġpackage":8532,"Ġstraightforward":8533,"Ġcatching":8534,"Ġglasses":8535,"ĠLeon":8536,"ĠOrgan":8537,"Ġgraduated":8538,"Ġapplying":8539,"Ġtissues":8540,"ĠBlue":8541,"Ġjournalists":8542,"Ġguns":8543,"copic":8544,"Ġcorporations":8545,"Ġstimul":8546,"Ġvegetables":8547,"Ġreinvent":8548,"Ġtower":8549,"Ġreconstruct":8550,"Ġshifting":8551,"Ġfortunately":8552,"Ġencouraged":8553,"burgh":8554,"Ġitems":8555,"Ġsacrifice":8556,"ĠDelhi":8557,"phorus":8558,"Ġluxury":8559,"ĠSpanish":8560,"Ġgenuine":8561,"Gl":8562,"KB":8563,"None":8564,"aid":8565,"cro":8566,"efficient":8567,"hist":8568,"Ġtune":8569,"Ġtubes":8570,"Ġwires":8571,"Ġcath":8572,"itage":8573,"itated":8574,"Ġbind":8575,"Ġfits":8576,"Ġfancy":8577,"ania":8578,"Ġdressed":8579,"eds":8580,"edge":8581,"icial":8582,"Ġrethink":8583,"Ġstability":8584,"ifully":8585,"Ġange":8586,"Ġneoc":8587,"ilty":8588,"Ġjew":8589,"Ġexcess":8590,"Ġprol":8591,"umines":8592,"Ġalb":8593,"Ġalign":8594,"Ġseemingly":8595,"ĠAny":8596,"Ġsauce":8597,"astics":8598,"ĠMag":8599,"Ġmanagers":8600,"udge":8601,"ĠBas":8602,"Ġunemploy":8603,"Ġdisability":8604,"ĠTel":8605,"ĠTanz":8606,"angered":8607,"ĠDen":8608,"Ġrose":8609,"Ġloan":8610,"Ġphantom":8611,"Ġamate":8612,"Ġtraits":8613,"ava":8614,"ĠItalian":8615,"Ġgrav":8616,"Ġdrown":8617,"Ġ2050":8618,"Ġfarms":8619,"ĠYour":8620,"ĠInter":8621,"Ġsketch":8622,"ĠVery":8623,"Ġpassenger":8624,"Ġsignature":8625,"Ġresearcher":8626,"ushed":8627,"aneous":8628,"Ġfreely":8629,"Ġspeaks":8630,"Ġrevol":8631,"Ġtemporary":8632,"Ġeaten":8633,"Ġprediction":8634,"Ġreligions":8635,"eyn":8636,"Ġcircuits":8637,"Ġcompete":8638,"Ġaffecting":8639,"Ġpropose":8640,"Ġpropag":8641,"Without":8642,"Ġecological":8643,"Ġannoy":8644,"Ġlandscapes":8645,"Ġdamn":8646,"Ġburden":8647,"Ġachievement":8648,"Ġethnic":8649,"Ġinterviewed":8650,"Ġbroadcast":8651,"Ġnuts":8652,"Ġalternatives":8653,"Ġphilosopher":8654,"Should":8655,"ĠComm":8656,"Ġparadox":8657,"grade":8658,"Ġteenager":8659,"Ġpreviously":8660,"uilding":8661,"Ġperceived":8662,"Ġchimpanzee":8663,"Ġbranches":8664,"Ġpedestr":8665,"itzer":8666,"ihad":8667,"Ġnavigate":8668,"Ġarrested":8669,"Ġcollapsed":8670,"ĠNGOs":8671,"Ġscholars":8672,"Ġmonitoring":8673,"Ġcotton":8674,"Ġcurrency":8675,"esthesia":8676,"Ġdownt":8677,"anghai":8678,"12":8679,"New":8680,"Ten":8681,"away":8682,"list":8683,"mony":8684,"ndrome":8685,"Ġbin":8686,"Ġhiding":8687,"Ġdys":8688,"Ġdating":8689,"orage":8690,"Ġinex":8691,"lend":8692,"Ġrecess":8693,"Ġhabits":8694,"Ġstatic":8695,"amps":8696,"Ġshirt":8697,"ntil":8698,"Ġyourselves":8699,"ourt":8700,"ĠCome":8701,"ĠCamp":8702,"Ġworkforce":8703,"reating":8704,"arest":8705,"Ġmanager":8706,"Ġ29":8707,"Ġpockets":8708,"ĠTas":8709,"Ġrope":8710,"Ġloving":8711,"Ġresolve":8712,"pless":8713,"Ġcommission":8714,"Ġoffices":8715,"Ġoffering":8716,"Ġrape":8717,"Ġendangered":8718,"ĠKoran":8719,"Ġnumer":8720,"Ġrecall":8721,"Ġsmallest":8722,"Ġhardest":8723,"Ġeditor":8724,"Ġgenerous":8725,"Ġski":8726,"ĠVan":8727,"Ġcaves":8728,"ĠIndones":8729,"Ġdistances":8730,"ashed":8731,"Ġviral":8732,"Ġcollectively":8733,"elson":8734,"Ġimprov":8735,"Ġsafer":8736,"evin":8737,"Ġresponses":8738,"Ġreplaced":8739,"Whereas":8740,"Ġcampus":8741,"Ġtransforming":8742,"Ġsynchron":8743,"Ġdivor":8744,"Ġ2012":8745,"Ġprisoners":8746,"ĠJohnson":8747,"Ġhydro":8748,"iberia":8749,"Ġdiagnosis":8750,"Ġcustomer":8751,"Ġflags":8752,"Ġratio":8753,"Ġassignment":8754,"controll":8755,"Ġdragon":8756,"Ġassistance":8757,"Ġmakers":8758,"Ġadministration":8759,"Ġsubsid":8760,"Ġdecrease":8761,"Ġvagina":8762,"Ġasteroid":8763,"Ġprocedure":8764,"Ġguarantee":8765,"Ġfibers":8766,"Ġjellyfish":8767,"Ġstomach":8768,"ĠAntarctica":8769,"ĠSunday":8770,"Ġtsunami":8771,"OL":8772,"Pre":8773,"Same":8774,"Six":8775,"Voice":8776,"dig":8777,"lers":8778,"Ġtatt":8779,"ativity":8780,"Ġcrop":8781,"isons":8782,"enry":8783,"Ġhired":8784,"Ġpatch":8785,"Ġfusion":8786,"Ġdiving":8787,"Ġgained":8788,"Ġstorage":8789,"changing":8790,"oln":8791,"cip":8792,"ĠSud":8793,"ĠSystem":8794,"izers":8795,"Ġcoat":8796,"ĠBo":8797,"Ġagents":8798,"Ġclue":8799,"ĠHi":8800,"ĠPart":8801,"ĠTwo":8802,"ĠDV":8803,"Ġads":8804,"ĠRay":8805,"ĠFBI":8806,"ĠJuly":8807,"Ġbuilds":8808,"weight":8809,"Ġscrew":8810,"Ġrelation":8811,"hea":8812,"Ġsciences":8813,"Ġinsul":8814,"Ġinterven":8815,"Ġinterior":8816,"Ġslime":8817,"Ġslums":8818,"Ġwarr":8819,"Ġaddiction":8820,"Ġpassive":8821,"ĠNewton":8822,"Ġlocom":8823,"Ġterrifying":8824,"ometown":8825,"Ġwinds":8826,"Ġaudiences":8827,"Ġsensation":8828,"Ġbreakfast":8829,"Ġspecialized":8830,"Ġencry":8831,"Ġpredictable":8832,"Ġcycles":8833,"Ġstepped":8834,"crim":8835,"Ġsilver":8836,"Ġestate":8837,"Ġbedroom":8838,"Ġfault":8839,"Ġmobility":8840,"Ġdiscovering":8841,"Ġmiserable":8842,"Ġignored":8843,"Ġwheat":8844,"Ġwheels":8845,"Ġparks":8846,"Ġteenage":8847,"incoln":8848,"Ġsucceeded":8849,"Ġunconscious":8850,"ĠNeander":8851,"Ġencouraging":8852,"Ġestimates":8853,"ĠMoz":8854,"Ġdesperately":8855,"ĠAlexander":8856,"Ġmathematicians":8857,"Ġrhythm":8858,"Ġtroops":8859,"Ġhelicopter":8860,"Ġschizophrenia":8861,"Ġphosphorus":8862,"ĠMoore":8863,"Ġcocaine":8864,"Ġubiquitous":8865,"Boy":8866,"Eight":8867,"Hello":8868,"Make":8869,"Pr":8870,"Part":8871,"RN":8872,"Sp":8873,"ao":8874,"col":8875,"ege":8876,"lades":8877,"rance":8878,"sized":8879,"inth":8880,"inery":8881,"Ġwedding":8882,"Ġbold":8883,"Ġhal":8884,"ona":8885,"Ġtoes":8886,"Ġpiz":8887,"Ġdrought":8888,"Ġles":8889,"Ġnative":8890,"uts":8891,"uther":8892,"Ġrect":8893,"Ġredef":8894,"sell":8895,"raham":8896,"Ġanten":8897,"irlf":8898,"outs":8899,"Ġworms":8900,"Ġheal":8901,"Ġshit":8902,"Ġshine":8903,"Ġproven":8904,"Ġknife":8905,"istot":8906,"Ġintended":8907,"Ġven":8908,"Ġspill":8909,"Ġseeking":8910,"ĠAge":8911,"iece":8912,"Ġplank":8913,"ĠSee":8914,"ĠSnow":8915,"ĠSanta":8916,"ĠMom":8917,"ĠMike":8918,"Ġdonor":8919,"Ġmanual":8920,"Ġcoinc":8921,"ĠBell":8922,"ĠEric":8923,"Ġovernight":8924,"ensus":8925,"ĠTy":8926,"ĠNic":8927,"eps":8928,"Ġcontrary":8929,"Ġresidents":8930,"Ġampl":8931,"icked":8932,"ĠRand":8933,"ĠRos":8934,"Ġprevention":8935,"ĠFord":8936,"Ġbrid":8937,"Ġmayor":8938,"Ġtrace":8939,"iously":8940,"Ġobt":8941,"Ġinterconnected":8942,"Ġsidewalk":8943,"Ġreasonable":8944,"Ġdefic":8945,"Ġequations":8946,"Ġlabs":8947,"Ġchallenged":8948,"Ġterritory":8949,"Ġabsence":8950,"Ġ55":8951,"ĠYorker":8952,"Somebody":8953,"Ġdawn":8954,"Ġarguing":8955,"Ġrequest":8956,"Ġdestiny":8957,"ĠShanghai":8958,"Ġmarvel":8959,"Ġmainstream":8960,"Ġdescribes":8961,"Ġimmig":8962,"Ġempowered":8963,"Ġsafely":8964,"Ġecology":8965,"Ġconcerns":8966,"Ġclinics":8967,"uddenly":8968,"Ġcooperate":8969,"Ġpuzzles":8970,"Ġbags":8971,"ĠBanglades":8972,"Ġpursuit":8973,"Ġvolunteer":8974,"Ġbullet":8975,"ĠColumb":8976,"Ġminimum":8977,"Ġhorizon":8978,"ĠResearch":8979,"Ġhormone":8980,"Ġwhistle":8981,"Ġconstraints":8982,"Ġcluster":8983,"Ġacknowledge":8984,"Ġstriking":8985,"Ġconvenient":8986,"ĠPalestin":8987,"Ġunhappy":8988,"Both":8989,"Cons":8990,"During":8991,"bow":8992,"gram":8993,"gments":8994,"uctor":8995,"Ġathe":8996,"Ġfallen":8997,"Ġfires":8998,"Ġgif":8999,"ete":9000,"erent":9001,"Ġstored":9002,"ifty":9003,"Ġmelt":9004,"Ġjet":9005,"Ġjazz":9006,"Ġjihad":9007,"Ġproved":9008,"Ġproceed":9009,"Ġchains":9010,"ureauc":9011,"Ġmapping":9012,"Ġvia":9013,"Ġvalley":9014,"Ġenabled":9015,"ĠMill":9016,"Ġexposure":9017,"Ġsheets":9018,"ĠLake":9019,"ictor":9020,"Ġoffers":9021,"ĠJose":9022,"Ġraped":9023,"Ġhumanitarian":9024,"Ġtransmit":9025,"Ġtransmission":9026,"Ġinsane":9027,"Ġgrabb":9028,"ucose":9029,"Ġterrain":9030,"Ġstrict":9031,"Being":9032,"conomic":9033,"Ġbiol":9034,"Ġeconomist":9035,"...\"":9036,"Ġinfant":9037,"Ġ42":9038,"Ġformula":9039,"Ġheadlines":9040,"Ġsett":9041,"Ġhalfway":9042,"Ġstopping":9043,"eady":9044,"Ġprotest":9045,"Ġ2002":9046,"Ġreflection":9047,"Ġlocally":9048,"Ġlocations":9049,"Ġassets":9050,"Ġadvances":9051,"Ġmarketplace":9052,"Ġlistened":9053,"Ġmotors":9054,"Ġfailures":9055,"Ġpsychologist":9056,"Ġtempor":9057,"Ġstays":9058,"ĠThree":9059,"ĠZeal":9060,"Ġattacked":9061,"Ġextraordinarily":9062,"ĠFriday":9063,"Ġinfections":9064,"Ġcalculations":9065,"Ġcontributed":9066,"Ġemails":9067,"Ġpreparing":9068,"Ġhonestly":9069,"Ġsurrounding":9070,"Ġtension":9071,"Ġdoubled":9072,"criptions":9073,"Ġclaims":9074,"Ġconcentrated":9075,"Ġcomplain":9076,"Ġelementary":9077,"Ġnewspapers":9078,"Ġkingdom":9079,"Ġlimitations":9080,"Ġcontinuous":9081,"Ġmanipulate":9082,"Ġpalm":9083,"Ġreproduce":9084,"Ġelectrodes":9085,"Ġbarrier":9086,"Ġrecycling":9087,"ĠPeace":9088,"Ġgeometry":9089,"Ġelegant":9090,"ĠCarolina":9091,"ĠBrooklyn":9092,"Ġinevitably":9093,"Ġdowntown":9094,",'":9095,"Bl":9096,"ga":9097,"grad":9098,"hh":9099,"oen":9100,"ye":9101,"Ġturb":9102,"Ġaug":9103,"Ġwrap":9104,"Ġsons":9105,"erry":9106,"Ġbother":9107,"Ġbills":9108,"Ġfate":9109,"Ġfathers":9110,"Ġinch":9111,"Ġloose":9112,"arians":9113,"Ġnodes":9114,"uty":9115,"Ġrender":9116,"enth":9117,"ifact":9118,"irts":9119,"ules":9120,"Ġprostate":9121,"Ġrib":9122,"Ġmand":9123,"Ġvit":9124,"Ġvoting":9125,"Ġsperm":9126,"ĠSur":9127,"ĠSir":9128,"ĠSky":9129,"Whatever":9130,"Ġsail":9131,"ournal":9132,"aped":9133,"Ġworkplace":9134,"Ġenforce":9135,"Ġmanner":9136,"enses":9137,"elled":9138,"ĠLincoln":9139,"Ġambit":9140,"Ġguard":9141,"Ġobese":9142,"Ġsched":9143,"Ġkeys":9144,"Ġbelieving":9145,"Ġboats":9146,"Ġfoundations":9147,"Ġdrum":9148,"cycl":9149,"Ġreaders":9150,"ĠYemen":9151,"Ġcorrupt":9152,"Ġconfig":9153,"Ġbeautifully":9154,"Ġcolored":9155,"Ġamazed":9156,"Ġamazingly":9157,"Ġfollows":9158,"Ġdeepest":9159,"Ġterrified":9160,"Ġsupermarket":9161,"Ġconsumed":9162,"Ġembry":9163,"Ġapproached":9164,"Ġdiscrim":9165,"Ġsumm":9166,"Ġobserved":9167,"Isn":9168,"Ġcyl":9169,"Ġpurple":9170,"ĠHoward":9171,"Ġimmun":9172,"Ġconsciously":9173,"Ġlogical":9174,"cientists":9175,"Ġphysicians":9176,"Ġdemonstrated":9177,"Ġcorrectly":9178,"Ġexerc":9179,"Ġconcentration":9180,"ĠPlay":9181,"Ġtoilets":9182,"Ġscenes":9183,"Ġinstallation":9184,"ynth":9185,"standing":9186,"Ġgrasp":9187,"Ġgesture":9188,"Ġbench":9189,"Ġstorytelling":9190,"Ġlegitimate":9191,"Ġretirement":9192,"Ġmurder":9193,"Ġorphan":9194,"Ġtrivial":9195,"Ġcricket":9196,"Ġprotocell":9197,"eynman":9198,"ĠIndonesia":9199,"Ġinsulin":9200,"ĠZealand":9201,"BA":9202,"Was":9203,"aeda":9204,"dis":9205,"mill":9206,"py":9207,"pat":9208,"pers":9209,"person":9210,"powered":9211,"two":9212,"vation":9213,"world":9214,"yd":9215,"Ġaward":9216,"Ġod":9217,"Ġooh":9218,"Ġsir":9219,"Ġcows":9220,"Ġbatt":9221,"enous":9222,"Ġhub":9223,"Ġhometown":9224,"Ġpir":9225,"Ġpills":9226,"Ġdent":9227,"Ġinher":9228,"Ġlanes":9229,"Ġgre":9230,"Ġnerves":9231,"Ġech":9232,"ima":9233,"Ġstones":9234,"Ġstaring":9235,"Ġsevent":9236,"Ġcancers":9237,"ado":9238,"ilized":9239,"oline":9240,"Ġproph":9241,"isten":9242,"eling":9243,"odied":9244,"ĠMoon":9245,"ĠMedic":9246,"Ġlever":9247,"ansas":9248,"Ġexplicit":9249,"ipher":9250,"ĠPat":9251,"ĠTim":9252,"Ġdescend":9253,"phony":9254,"peare":9255,"Ġuseless":9256,"ĠFour":9257,"ĠWomen":9258,"Ġrabb":9259,"Ġtrail":9260,"Ġguilty":9261,"Ġrelief":9262,"Ġinstalled":9263,"Ġglue":9264,"Ġglucose":9265,"ĠKe":9266,"Ġ350":9267,"Ġcrimes":9268,"Ġartifact":9269,"Ġmines":9270,"Ġbehalf":9271,"Ġsupplies":9272,"Ġmemes":9273,"Ġpolitically":9274,"Ġparam":9275,"Ġhybr":9276,"Ġpsychologists":9277,"Ġcommunicating":9278,"Ġcalories":9279,"Ġsummar":9280,"Ġorigins":9281,"Ġposted":9282,"Ġcivilizations":9283,"Ġsufficient":9284,"Ġfunds":9285,"Ġproposition":9286,"Ġ1998":9287,"Ġprincip":9288,"Ġactivist":9289,"akespeare":9290,"Ġinterviews":9291,"Ġorders":9292,"ademy":9293,"Ġfatal":9294,"Ġverb":9295,"ĠClint":9296,"Ġtherapies":9297,"Ġbeaten":9298,"gradu":9299,"Ġambig":9300,"Ġpartnership":9301,"ĠAbraham":9302,"Ġselected":9303,"forestation":9304,"Ġenemies":9305,"Ġillustrate":9306,"Ġtelescopes":9307,"ĠCoast":9308,"Ġintrins":9309,"Ġexecut":9310,"Ġofficials":9311,"Ġestimated":9312,"Ġaspir":9313,"Ġglamour":9314,"Ġmaker":9315,"Ġinitiative":9316,"Ġhorizont":9317,"Ġmosquito":9318,"Ġbreeding":9319,"Ġatomic":9320,"Ġneutral":9321,"Ġportrait":9322,"Ġdevastating":9323,"Ġorchestra":9324,"lihood":9325,"Ġtropical":9326,"Ġgrocer":9327,"Ġcabin":9328,"ĠSilicon":9329,"Ġprosperity":9330,"Twenty":9331,"ĠMandela":9332,"Ġexpedition":9333,"Ġmagnificent":9334,"oenix":9335,"Ġambitious":9336,"AIDS":9337,"Sure":9338,"Ste":9339,"Suddenly":9340,"jo":9341,"rating":9342,"tr":9343,"Ġtiles":9344,"Ġthread":9345,"inent":9346,"Ġoct":9347,"Ġbinary":9348,"Ġhipp":9349,"Ġtoss":9350,"Ġpit":9351,"Ġdrew":9352,"omics":9353,"ĠIre":9354,"enter":9355,"rof":9356,"erey":9357,"Ġforb":9358,"racies":9359,"Ġanatom":9360,"Ġmeme":9361,"Ġrank":9362,"Ġdece":9363,"Ġdeals":9364,"umented":9365,"Ġcongest":9366,"Ġlikelihood":9367,"Ġbutter":9368,"Its":9369,"Ġsake":9370,"Ġcompre":9371,"Ġpole":9372,"Ġdisabled":9373,"ĠHer":9374,"ĠHuman":9375,"Ġcontam":9376,"Ġsyndrome":9377,"Ġhumil":9378,"plus":9379,"Ġtechnically":9380,"Ġremix":9381,"ĠChe":9382,"Ġinstruction":9383,"Ġgrave":9384,"Ġhighway":9385,"Ġcellular":9386,"Ġcared":9387,"Ġbiologist":9388,"Ġbuses":9389,"Ġheading":9390,"Ġparach":9391,"atson":9392,"ĠHey":9393,"Ġdelay":9394,"Ġpersonalized":9395,"Ġcalm":9396,"Ġsteam":9397,"Ġworthy":9398,"Ġcompeting":9399,"Ġreceiving":9400,"Ġactivists":9401,"Ġmagnet":9402,"Ġenjoying":9403,"Ġblindness":9404,"Ġpacked":9405,"Ġworrying":9406,"ĠLeban":9407,"Ġexha":9408,"Ġvariations":9409,"Ġexpressions":9410,"Ġmotivated":9411,"Ġpige":9412,"Ġtaxes":9413,"Ġhistorically":9414,"Ġepidem":9415,"Comp":9416,"Ġshelf":9417,"Ġopinions":9418,"Ġlaptops":9419,"Except":9420,"Ġcriminals":9421,"Ġspinning":9422,"Ġsanitation":9423,"Ġregardless":9424,"Ġrecipe":9425,"ĠBerlin":9426,"Ġrenewable":9427,"Ġnitrogen":9428,"Ġpunishment":9429,"Ġathletes":9430,"Ġadapted":9431,"ĠDetro":9432,"Ġlonely":9433,"Ġindigenous":9434,"Ġjewel":9435,"ĠTasman":9436,"ĠDVD":9437,"Ġpizza":9438,"Ġbiolumines":9439,"cyclop":9440,"Human":9441,"Prob":9442,"bi":9443,"rane":9444,"rats":9445,"take":9446,"zes":9447,"Ġ.":9448,"Ġ...\"":9449,"Ġtur":9450,"Ġtact":9451,"oug":9452,"Ġcree":9453,"Ġbite":9454,"Ġbump":9455,"Ġbamb":9456,"Ġmurd":9457,"Ġmesh":9458,"Ġdough":9459,"Ġgirlf":9460,"Third":9461,"Ġstair":9462,"Ġasleep":9463,"Ġcomic":9464,"Ġhealing":9465,"Ġmeals":9466,"Ġshy":9467,"Ġjugg":9468,"Ġchop":9469,"Ġorb":9470,"Ġpeers":9471,"Ġconqu":9472,"Ġoutdo":9473,"Ġspan":9474,"osn":9475,"Ġsale":9476,"ĠCap":9477,"apore":9478,"Ġenzy":9479,"Ġcoach":9480,"Ġcovers":9481,"ĠBol":9482,"ĠHenry":9483,"ĠDra":9484,"ephen":9485,"Ġreserves":9486,"ĠFar":9487,"fulness":9488,"ighth":9489,"ĠChile":9490,"Ġcarpet":9491,"velopment":9492,"Ġ2020":9493,"Ġelectrons":9494,"Ġconnectivity":9495,"Ġcurves":9496,"Ġtopics":9497,"Ġapproved":9498,"Ġmessy":9499,"Ġengineered":9500,"Ġpredator":9501,"alem":9502,"ĠBrian":9503,"Ġsexy":9504,"Ġpsychopath":9505,"Ġstraw":9506,"Ġpromised":9507,"Ġreactor":9508,"Stud":9509,"Ġdominated":9510,"Ġdivision":9511,"Ġdrops":9512,"Ġpencil":9513,"Ġwebsites":9514,"Ġenjoyed":9515,"Ġresponded":9516,"Ġalgae":9517,"Ġrandomly":9518,"Ġsimpler":9519,"Ġbanking":9520,"Ġhistoric":9521,"Ġresistant":9522,"ĠMcDon":9523,"Ġrevealed":9524,"Ġnarratives":9525,"Ġbelongs":9526,"Ġbulb":9527,"ulsion":9528,"ĠRedwood":9529,"Ġfisheries":9530,"Ġceremony":9531,"break":9532,"Ġbarriers":9533,"Ġimplant":9534,"ĠHawai":9535,"keepers":9536,"Ġlegislation":9537,"Ġlobby":9538,"Ġhierarchy":9539,"Ġdisagree":9540,"Ġpublishing":9541,"ĠLeonardo":9542,"ĠTanzania":9543,"ĠBangladesh":9544,"Ġbamboo":9545,"\"?":9546,"CO":9547,"Up":9548,"aware":9549,"da":9550,"five":9551,"front":9552,"gie":9553,"uilt":9554,"Ġtin":9555,"inem":9556,"reme":9557,"Ġsne":9558,"Ġbang":9559,"Ġbureauc":9560,"inging":9561,"Ġpound":9562,"Ġdil":9563,"Ġdivers":9564,"assemb":9565,"utan":9566,"oto":9567,"ette":9568,"Ġstad":9569,"thur":9570,"theless":9571,"Ġjunk":9572,"Ġrings":9573,"cking":9574,"essions":9575,"Ġoutl":9576,"Ġintensive":9577,"Ġspat":9578,"Ġplastics":9579,"ĠSpe":9580,"ĠCourt":9581,"ĠMod":9582,"ĠMedia":9583,"Ġunre":9584,"Ġoverhead":9585,"ĠHel":9586,"ĠHong":9587,"Ġkindness":9588,"ĠTun":9589,"ĠNature":9590,"ĠNovember":9591,"ĠDid":9592,"Ġroles":9593,"Ġloads":9594,"Ġaccent":9595,"ĠLes":9596,"Ġblink":9597,"Ġincorpor":9598,"ĠUC":9599,"ĠUSA":9600,"Ġgenomes":9601,"Ġdecor":9602,"ocation":9603,"Ġ1900":9604,"Ġ1930":9605,"Ġcriter":9606,"Ġstrings":9607,"Ġartwork":9608,"Ġattitudes":9609,"Ġelabor":9610,"Ġgenerating":9611,"Ġcorners":9612,"ĠVictor":9613,"pril":9614,"Ġeducate":9615,"Ġexcuse":9616,"Ġviewer":9617,"Ġapprox":9618,"Ġnamely":9619,"Ġzones":9620,"Ġpredators":9621,"Ġmeasurements":9622,"Ġstrands":9623,"Ġshoe":9624,"Ġbacterial":9625,"Ġtemperatures":9626,"Ġcalculated":9627,"ĠGeographic":9628,"ĠSwiss":9629,"ĠSwitzer":9630,"ĠProfessor":9631,"Ġautomobile":9632,"Ġsimplest":9633,"Ġscanning":9634,"Ġwooden":9635,"Ġindependence":9636,"Ġaltitude":9637,"Ġregularly":9638,"Ġbatteries":9639,"Ġvaccines":9640,"Ġirony":9641,"ĠCharl":9642,"Ġagreement":9643,"ĠBenj":9644,"ĠTurk":9645,"ĠPortug":9646,"Ġcockro":9647,"Ġanticipate":9648,"Ġmimic":9649,"Ġauthentic":9650,"Ġenhance":9651,"ĠQueen":9652,"Ġdilemma":9653,"ĠClinton":9654,"ĠSwitzerland":9655,"Acc":9656,"Until":9657,"cons":9658,"iots":9659,"lan":9660,"uan":9661,"uction":9662,"income":9663,"inger":9664,"Ġmask":9665,"Ġmentally":9666,"Ġdirt":9667,"oric":9668,"orough":9669,"orient":9670,"Ġinhib":9671,"Ġlists":9672,"Ġgorge":9673,"seen":9674,"storm":9675,"igma":9676,"raine":9677,"Ġdose":9678,"thirds":9679,"Ġsends":9680,"Ġcomics":9681,"olen":9682,"Ġjar":9683,"Ġvary":9684,"ĠSen":9685,"ĠCath":9686,"Ġcompound":9687,"Ġcompounds":9688,"Ġexpressed":9689,"Ġcoverage":9690,"Ġnowadays":9691,"Ġhappily":9692,"ĠGene":9693,"ĠHis":9694,"ĠHans":9695,"ĠTib":9696,"ĠNord":9697,"Ġsheer":9698,"ials":9699,"ĠRome":9700,"Ġbless":9701,"Ġblah":9702,"plic":9703,"ressing":9704,"ĠWalk":9705,"Ġsmiling":9706,"ĠJon":9707,"ĠJud":9708,"ĠJane":9709,"ĠJones":9710,"Ġtrapped":9711,"Ġappe":9712,"Ġappla":9713,"Ġ37":9714,"Ġentry":9715,"Ġlawn":9716,"Ġrecre":9717,"Ġ2030":9718,"Ġminus":9719,"Ġsubm":9720,"ĠIndustrial":9721,"Ġelectrom":9722,"ĠNews":9723,"Ġforecast":9724,"Ġmachinery":9725,"Ġnorms":9726,"Someone":9727,"Ġdepos":9728,"Ġpicks":9729,"cribe":9730,"ĠShakespeare":9731,"Ġharbor":9732,"Ġprofessors":9733,"Children":9734,"Ġmedicines":9735,"Ġfavorites":9736,"Ġstatistic":9737,"Ġvisualization":9738,"ascular":9739,"Ġ1999":9740,"Ġunfold":9741,"Ġwishes":9742,"Ġintroduction":9743,"Ġpenet":9744,"Ġremarkably":9745,"Anyone":9746,"Ġhopes":9747,"Ġcontribution":9748,"stitution":9749,"ĠBrazilian":9750,"Ġinjuries":9751,"Ġharmony":9752,"Ġbleed":9753,"Ġaccuracy":9754,"ĠForce":9755,"Ġunderest":9756,"Ġfrequently":9757,"Ġprospect":9758,"Ġcontinuously":9759,"Ġembarrassing":9760,"ĠMonterey":9761,"ĠCollege":9762,"Ġdiameter":9763,"Ġhormones":9764,"driven":9765,"impse":9766,"ĠLego":9767,"Ġmaximum":9768,"Ġabundance":9769,"Ġaesthetic":9770,"ĠIceland":9771,"Ġobservations":9772,"Ġcompromise":9773,"ETI":9774,"Ġskeletal":9775,"Ġrehabil":9776,"Ġfluorescent":9777,"istotle":9778,"ĠIreland":9779,"Ġelectromagn":9780,"Con":9781,"Ge":9782,"HA":9783,"Mom":9784,"Ne":9785,"Rather":9786,"Supp":9787,"Try":9788,"[\"":9789,"aired":9790,"eu":9791,"function":9792,"mo":9793,"mes":9794,"nut":9795,"tt":9796,"yon":9797,"inity":9798,"Ġhated":9799,"orph":9800,"ĠIBM":9801,"Ġerect":9802,"Ġbelly":9803,"oton":9804,"Things":9805,"imeters":9806,"cher":9807,"Ġsectors":9808,"ador":9809,"Ġnearest":9810,"gend":9811,"istical":9812,"Ġintact":9813,"Ġintensity":9814,"ĠApril":9815,"ĠSus":9816,"ivate":9817,"ĠCra":9818,"ĠCoke":9819,"aste":9820,"Ġenvelop":9821,"ĠMur":9822,"ĠMach":9823,"Ġmankind":9824,"ĠPower":9825,"ĠTony":9826,"cover":9827,"ĠRock":9828,"ĠRoy":9829,"Ġrealities":9830,"Ġrealization":9831,"Ġoffs":9832,"ĠWatson":9833,"Ġfindings":9834,"Ġhelpless":9835,"Ġrelatives":9836,"Ġcarp":9837,"Ġglimpse":9838,"ĠKong":9839,"Ġgrace":9840,"Ġbiof":9841,"Ġspacecraft":9842,"Ġmomentum":9843,"Ġplanetary":9844,"Ġcrap":9845,"Ġlanding":9846,"Ġmasses":9847,"Ġcuts":9848,"Ġcooling":9849,"Ġsuggestion":9850,"Ġtexture":9851,"Ġlifted":9852,"Ġfluctu":9853,"Ġimmers":9854,"Almost":9855,"etheless":9856,"Ġannounce":9857,"Ġphenomenal":9858,"Ġpanic":9859,"Ġhopeless":9860,"Ġresponding":9861,"Ġbroader":9862,"Ġreflected":9863,"Ġexpanded":9864,"Ġattracted":9865,"Ġhacking":9866,"Ġaccompan":9867,"Ġcoastal":9868,"Ġgrades":9869,"Ġjuice":9870,"Ġaccomplished":9871,"Ġoverwhelming":9872,"Ġadministr":9873,"ĠOlympic":9874,"Ġfrightening":9875,"Ġclusters":9876,"Ġrecycled":9877,"Ġtables":9878,"Ġcandidate":9879,"Ġdelicious":9880,"Ġcontroversial":9881,"Ġabandoned":9882,"ĠSecurity":9883,"Ġtrauma":9884,"munic":9885,"Ġtextbooks":9886,"Ġglacier":9887,"Ġchronic":9888,"Ġsuspended":9889,"ĠOrganization":9890,"Ġbridges":9891,"Probably":9892,"15":9893,"Cor":9894,"Des":9895,"JH":9896,"Lad":9897,"Mean":9898,"Res":9899,"creat":9900,"fare":9901,"gal":9902,"mat":9903,"mind":9904,"uana":9905,"via":9906,"wart":9907,"ĠWhich":9908,"Ġslic":9909,"Ġsizes":9910,"Ġcattle":9911,"Ġporn":9912,"Ġfest":9913,"orse":9914,"lean":9915,"alia":9916,"Ġnu":9917,"Ġrevel":9918,"Ġrevers":9919,"Ġrewards":9920,"Ġstolen":9921,"keley":9922,"three":9923,"amas":9924,"Ġseal":9925,"Ġlivest":9926,"Ġsovere":9927,"adian":9928,"Ġchew":9929,"Ġriding":9930,"Ġdeaf":9931,"Ġpecul":9932,"esty":9933,"Ġvocal":9934,"ĠAudience":9935,"ieve":9936,"Ġtrips":9937,"Ġpla":9938,"Ġcomparing":9939,"Ġcomposition":9940,"Ġbuff":9941,"Ġdispar":9942,"Ġbackyard":9943,"ĠHol":9944,"ĠNelson":9945,"ĠDa":9946,"ĠDad":9947,"ĠDesign":9948,"berry":9949,"ĠLin":9950,"ĠRom":9951,"duc":9952,"Ġrealistic":9953,"Ġshower":9954,"ĠFore":9955,"ĠWay":9956,"ĠWol":9957,"Ġbrush":9958,"ĠJosh":9959,"Ġrap":9960,"Ġscreens":9961,"Ġende":9962,"Ġtransit":9963,"Ġunderstands":9964,"Ġconsp":9965,"Ġintersection":9966,"Ġboots":9967,"Ġkidding":9968,"Ġdrif":9969,"Ġcrude":9970,"Ġpatents":9971,"Ġcream":9972,"Ġearning":9973,"Ġteaches":9974,"Ġformation":9975,"ĠVal":9976,"Ġdistinction":9977,"lfare":9978,"Ġdefault":9979,"arrhea":9980,"Ġpublicly":9981,"Ġanswering":9982,"Ġretail":9983,"awater":9984,"Ġliteracy":9985,"Ġillum":9986,"Ġreaches":9987,"Ġapolog":9988,"Ġasth":9989,"Ġhorror":9990,"Ġdescribing":9991,"Ġvisualize":9992,"Ġtouching":9993,"Ġtransformative":9994,"Ġexceptions":9995,"Ġactivate":9996,"Ġcrossed":9997,"Ġseparation":9998,"Ġdropping":9999}